<unk>	0
<s>	0
</s>	0
▁t	-0
▁th	-1
▁a	-2
in	-3
▁o	-4
▁the	-5
re	-6
er	-7
on	-8
at	-9
▁s	-10
▁i	-11
▁w	-12
en	-13
▁c	-14
▁of	-15
▁b	-16
▁an	-17
es	-18
▁m	-19
▁p	-20
▁in	-21
an	-22
it	-23
ing	-24
▁to	-25
is	-26
ion	-27
▁n	-28
▁f	-29
▁and	-30
ed	-31
ou	-32
▁h	-33
or	-34
ce	-35
▁e	-36
▁d	-37
al	-38
se	-39
ic	-40
▁is	-41
▁that	-42
ar	-43
▁wh	-44
▁be	-45
ot	-46
le	-47
ly	-48
▁it	-49
ct	-50
st	-51
om	-52
▁re	-53
as	-54
▁con	-55
ll	-56
▁_	-57
th	-58
ve	-59
▁I	-60
ent	-61
▁u	-62
ut	-63
▁not	-64
▁as	-65
ow	-66
▁on	-67
▁or	-68
▁ex	-69
od	-70
▁we	-71
▁su	-72
ver	-73
de	-74
ich	-75
ur	-76
▁pr	-77
ect	-78
ith	-79
▁which	-80
▁l	-81
ir	-82
ation	-83
▁are	-84
▁ha	-85
gh	-86
im	-87
ld	-88
▁g	-89
os	-90
nd	-91
▁for	-92
▁this	-93
▁by	-94
ist	-95
ay	-96
▁with	-97
ter	-98
ess	-99
ble	-100
ch	-101
ain	-102
ere	-103
▁T	-104
▁fr	-105
ence	-106
▁can	-107
ity	-108
ure	-109
▁from	-110
▁all	-111
am	-112
ther	-113
ore	-114
▁Th	-115
si	-116
▁have	-117
qu	-118
pp	-119
ul	-120
ff	-121
▁de	-122
iv	-123
il	-124
stan	-125
ind	-126
ould	-127
ough	-128
ies	-129
pt	-130
▁se	-131
▁per	-132
id	-133
ions	-134
op	-135
▁thing	-136
▁they	-137
▁A	-138
▁ne	-139
▁but	-140
▁there	-141
▁them	-142
▁me	-143
▁al	-144
▁any	-145
ive	-146
um	-147
▁do	-148
ate	-149
▁he	-150
au	-151
ome	-152
▁y	-153
ject	-154
art	-155
ill	-156
sel	-157
▁at	-158
res	-159
▁ob	-160
▁our	-161
▁so	-162
ge	-163
▁k	-164
▁im	-165
ak	-166
▁B	-167
▁un	-168
▁other	-169
ame	-170
ci	-171
▁one	-172
▁sen	-173
▁(	-174
now	-175
ose	-176
ust	-177
tr	-178
▁sub	-179
▁ide	-180
ition	-181
cept	-182
▁com	-183
▁no	-184
▁only	-185
ol	-186
▁int	-187
▁sh	-188
ason	-189
▁G	-190
end	-191
em	-192
_.	-193
▁bod	-194
▁tr	-195
tain	-196
▁nat	-197
▁what	-198
▁exp	-199
▁some	-200
▁part	-201
▁man	-202
▁reason	-203
▁its	-204
et	-205
ces	-206
▁F	-207
cc	-208
▁things	-209
▁you	-210
ig	-211
out	-212
▁know	-213
▁sp	-214
▁will	-215
▁exist	-216
nder	-217
▁,	-218
very	-219
▁God	-220
ause	-221
▁ab	-222
▁their	-223
us	-224
▁mind	-225
▁if	-226
▁v	-227
ous	-228
▁object	-229
▁But	-230
est	-231
▁r	-232
her	-233
▁di	-234
▁being	-235
▁app	-236
self	-237
▁us	-238
ding	-239
▁under	-240
all	-241
▁these	-242
▁st	-243
sible	-244
▁more	-245
eri	-246
ad	-247
thing	-248
ical	-249
▁same	-250
▁though	-251
▁wor	-252
able	-253
so	-254
▁has	-255
ple	-256
▁ev	-257
act	-258
▁would	-259
▁must	-260
▁pro	-261
▁S	-262
reat	-263
▁nature	-264
ght	-265
▁The	-266
▁who	-267
▁such	-268
▁For	-269
hil	-270
ap	-271
▁his	-272
▁act	-273
▁pos	-274
▁than	-275
if	-276
fore	-277
og	-278
▁mat	-279
▁H	-280
ag	-281
nt	-282
der	-283
▁P	-284
▁qu	-285
▁my	-286
ide	-287
ant	-288
▁diff	-289
ink	-290
ations	-291
▁body	-292
ary	-293
ally	-294
▁may	-295
▁j	-296
ite	-297
▁dis	-298
pl	-299
ear	-300
▁those	-301
▁substan	-302
▁inf	-303
ound	-304
not	-305
ans	-306
▁And	-307
hing	-308
▁[	-309
ace	-310
▁without	-311
ertain	-312
▁think	-313
ves	-314
▁ar	-315
ses	-316
▁tru	-317
ake	-318
ac	-319
ight	-320
ie	-321
red	-322
▁dist	-323
cess	-324
ard	-325
ult	-326
▁1	-327
▁W	-328
▁when	-329
ud	-330
▁understan	-331
mon	-332
ine	-333
▁acc	-334
▁cannot	-335
▁tim	-336
ib	-337
▁le	-338
▁ch	-339
▁mo	-340
ke	-341
▁imp	-342
▁prop	-343
resent	-344
inci	-345
one	-346
▁concept	-347
▁ideas	-348
▁idea	-349
led	-350
▁up	-351
ish	-352
▁mot	-353
▁nothing	-354
▁bec	-355
▁does	-356
ance	-357
ast	-358
▁every	-359
▁necess	-360
▁certain	-361
hy	-362
▁itself	-363
▁C	-364
▁appear	-365
▁time	-366
▁experi	-367
ment	-368
▁conc	-369
ceiv	-370
▁cause	-371
▁N	-372
ays	-373
▁pre	-374
▁princi	-375
▁pl	-376
▁was	-377
▁ad	-378
ffect	-379
▁thought	-380
▁experience	-381
▁also	-382
str	-383
term	-384
ise	-385
▁form	-386
el	-387
▁ag	-388
ince	-389
osop	-390
hilosop	-391
ledge	-392
ort	-393
irst	-394
▁then	-395
▁matter	-396
▁rep	-397
ach	-398
other	-399
and	-400
▁into	-401
▁differe	-402
▁how	-403
ens	-404
▁another	-405
ond	-406
ute	-407
▁existence	-408
..	-409
ower	-410
▁say	-411
▁great	-412
ceive	-413
▁even	-414
▁him	-415
rough	-416
▁determ	-417
▁were	-418
ree	-419
ular	-420
▁sou	-421
▁fo	-422
▁rel	-423
ong	-424
selves	-425
▁consi	-426
▁understanding	-427
odu	-428
uch	-429
▁{	-430
ness	-431
▁substance	-432
▁M	-433
▁way	-434
▁motion	-435
ality	-436
▁because	-437
ire	-438
▁philosop	-439
▁op	-440
▁ext	-441
ab	-442
▁reg	-443
▁could	-444
▁therefore	-445
▁knowledge	-446
tern	-447
▁cons	-448
ari	-449
▁bel	-450
aw	-451
ern	-452
▁objects	-453
▁first	-454
▁power	-455
▁very	-456
▁never	-457
▁should	-458
inite	-459
▁sim	-460
▁see	-461
▁bodies	-462
▁mere	-463
itions	-464
▁It	-465
llow	-466
ither	-467
▁possible	-468
uman	-469
▁through	-470
▁call	-471
▁since	-472
ener	-473
▁partic	-474
ever	-475
▁make	-476
▁been	-477
▁upon	-478
▁imag	-479
iver	-480
fect	-481
▁soul	-482
ction	-483
▁D	-484
▁tw	-485
ress	-486
▁jud	-487
▁giv	-488
▁produ	-489
▁L	-490
ideas	-491
▁comp	-492
▁em	-493
▁supp	-494
▁something	-495
▁sense	-496
▁follow	-497
▁This	-498
▁contr	-499
ced	-500
ike	-501
▁bet	-502
▁go	-503
▁determin	-504
▁sy	-505
▁"	-506
▁spe	-507
▁res	-508
ples	-509
▁cont	-510
▁In	-511
ated	-512
ici	-513
▁two	-514
▁human	-515
▁world	-516
▁different	-517
▁ref	-518
▁rem	-519
ser	-520
ility	-521
▁distin	-522
▁am	-523
ities	-524
▁most	-525
▁ow	-526
iz	-527
▁gr	-528
▁order	-529
▁represent	-530
▁O	-531
ual	-532
▁out	-533
▁en	-534
▁gener	-535
),	-536
ics	-537
osition	-538
we	-539
▁use	-540
are	-541
int	-542
ents	-543
▁subject	-544
▁yet	-545
▁conf	-546
▁parts	-547
oth	-548
ceived	-549
our	-550
ether	-551
▁own	-552
▁true	-553
▁abs	-554
▁cond	-555
▁inc	-556
▁about	-557
▁seem	-558
▁cau	-559
▁ent	-560
ways	-561
ogn	-562
ior	-563
un	-564
▁effect	-565
▁always	-566
▁themselves	-567
▁particular	-568
ternal	-569
▁percept	-570
▁disc	-571
▁intu	-572
▁like	-573
ved	-574
▁2	-575
.,	-576
ell	-577
ict	-578
▁had	-579
▁ma	-580
▁natur	-581
ving	-582
▁Pr	-583
▁nor	-584
▁consider	-585
▁perfect	-586
▁find	-587
▁senses	-588
▁prior	-589
▁where	-590
ase	-591
ang	-592
▁principles	-593
ording	-594
▁given	-595
▁univer	-596
▁imm	-597
old	-598
▁des	-599
▁whether	-600
▁judg	-601
ently	-602
▁E	-603
▁infinite	-604
of	-605
ber	-606
▁space	-607
▁much	-608
▁name	-609
sib	-610
ances	-611
▁po	-612
▁pure	-613
ween	-614
▁cor	-615
▁distinct	-616
▁men	-617
▁between	-618
nce	-619
▁cle	-620
▁sa	-621
▁ind	-622
▁Wh	-623
▁found	-624
▁word	-625
wh	-626
▁general	-627
▁concern	-628
ible	-629
▁sens	-630
hys	-631
▁many	-632
▁common	-633
ied	-634
lu	-635
ove	-636
▁law	-637
ass	-638
▁cogn	-639
▁There	-640
▁ess	-641
▁inde	-642
▁regard	-643
▁your	-644
▁priori	-645
pend	-646
▁belie	-647
▁truth	-648
▁shall	-649
▁exam	-650
▁clear	-651
sequ	-652
ension	-653
itt	-654
).	-655
▁expl	-656
▁judgment	-657
▁3	-658
▁sensible	-659
▁according	-660
ign	-661
▁still	-662
av	-663
▁real	-664
▁natural	-665
▁made	-666
ination	-667
▁appearances	-668
▁each	-669
▁proper	-670
▁anything	-671
oub	-672
▁now	-673
##	-674
ather	-675
les	-676
▁arg	-677
▁here	-678
alities	-679
cond	-680
▁necessary	-681
irit	-682
▁fact	-683
orm	-684
lect	-685
▁.	-686
▁said	-687
▁occ	-688
▁ass	-689
cious	-690
over	-691
▁intuition	-692
oubt	-693
▁mod	-694
▁present	-695
Phil	-696
▁att	-697
ner	-698
▁either	-699
▁qualities	-700
ex	-701
ty	-702
ious	-703
▁just	-704
▁attr	-705
▁concepts	-706
ory	-707
fter	-708
ffici	-709
nth	-710
▁contain	-711
▁creat	-712
▁comple	-713
sibility	-714
▁well	-715
yl	-716
▁If	-717
far	-718
▁str	-719
▁merely	-720
olute	-721
▁means	-722
nect	-723
oc	-724
▁whole	-725
edi	-726
osed	-727
sofar	-728
▁place	-729
▁causes	-730
▁point	-731
ount	-732
ately	-733
▁doubt	-734
▁R	-735
ice	-736
▁spirit	-737
▁fe	-738
▁obser	-739
▁show	-740
▁kind	-741
▁consequ	-742
▁pres	-743
▁quest	-744
ub	-745
pir	-746
▁thinking	-747
▁ac	-748
arily	-749
▁insofar	-750
ative	-751
▁argum	-752
▁ser	-753
▁mak	-754
ures	-755
ue	-756
▁attrib	-757
▁br	-758
▁absolute	-759
▁connect	-760
ers	-761
hap	-762
▁synth	-763
ished	-764
▁div	-765
age	-766
ange	-767
▁happ	-768
▁principle	-769
Hyl	-770
ful	-771
▁case	-772
▁evid	-773
▁trans	-774
▁num	-775
▁substances	-776
▁thus	-777
ile	-778
▁again	-779
▁fur	-780
▁fig	-781
▁good	-782
▁far	-783
ism	-784
▁el	-785
ences	-786
▁We	-787
pirical	-788
reh	-789
▁opin	-790
▁conceive	-791
▁sci	-792
▁##	-793
▁oper	-794
▁perceive	-795
ok	-796
▁both	-797
▁everything	-798
erial	-799
ulty	-800
ward	-801
▁less	-802
esis	-803
pect	-804
▁called	-805
idea	-806
ep	-807
▁tak	-808
▁seems	-809
▁diffic	-810
▁philosophy	-811
imit	-812
▁conscious	-813
▁rather	-814
▁after	-815
▁Thus	-816
▁laws	-817
ors	-818
▁pers	-819
▁beg	-820
▁fac	-821
▁simple	-822
ined	-823
▁equ	-824
ental	-825
▁empirical	-826
ily	-827
ended	-828
ceed	-829
▁reasoning	-830
▁understand	-831
▁4	-832
▁affect	-833
gn	-834
aphys	-835
▁others	-836
▁perception	-837
▁indeed	-838
▁essence	-839
gether	-840
▁concerning	-841
▁necessarily	-842
itu	-843
though	-844
uth	-845
▁met	-846
▁pass	-847
▁consist	-848
▁II	-849
▁alone	-850
erm	-851
▁sever	-852
▁entire	-853
▁number	-854
cend	-855
ingu	-856
▁Now	-857
▁end	-858
▁least	-859
▁question	-860
▁namely	-861
▁def	-862
▁several	-863
te	-864
▁give	-865
▁extension	-866
▁cl	-867
▁depend	-868
▁himself	-869
▁eas	-870
▁lif	-871
▁mean	-872
▁adm	-873
dered	-874
ually	-875
▁Hence	-876
▁before	-877
▁philosopher	-878
ates	-879
▁able	-880
▁manner	-881
▁col	-882
fficient	-883
▁need	-884
▁external	-885
▁deg	-886
▁inv	-887
▁life	-888
▁distingu	-889
ial	-890
▁rec	-891
▁vari	-892
▁relation	-893
emat	-894
▁else	-895
▁requ	-896
iew	-897
▁rest	-898
▁having	-899
▁words	-900
ook	-901
stract	-902
▁action	-903
▁explain	-904
wise	-905
▁however	-906
artes	-907
ication	-908
▁impos	-909
▁might	-910
know	-911
▁immedi	-912
Th	-913
▁ever	-914
ord	-915
▁den	-916
▁long	-917
ourse	-918
▁limit	-919
▁ple	-920
oy	-921
esc	-922
ood	-923
less	-924
▁anim	-925
▁take	-926
ten	-927
haps	-928
▁further	-929
▁cognition	-930
Pr	-931
rit	-932
ellig	-933
als	-934
▁univers	-935
▁unity	-936
▁contin	-937
▁remain	-938
▁Y	-939
▁why	-940
▁notion	-941
▁follows	-942
igin	-943
irm	-944
▁cap	-945
atever	-946
▁auth	-947
▁sign	-948
par	-949
▁term	-950
▁begin	-951
▁How	-952
▁add	-953
▁Therefore	-954
ention	-955
read	-956
err	-957
irc	-958
▁whose	-959
▁dr	-960
▁did	-961
cr	-962
▁minds	-963
▁state	-964
▁myself	-965
▁condition	-966
usion	-967
utes	-968
▁spec	-969
▁circ	-970
▁hence	-971
ittle	-972
etic	-973
▁anal	-974
monstr	-975
▁origin	-976
ost	-977
▁metaphys	-978
▁perceived	-979
▁sensation	-980
▁connection	-981
▁little	-982
stit	-983
▁view	-984
▁abstract	-985
▁imagination	-986
▁pur	-987
the	-988
▁come	-989
▁figure	-990
▁belong	-991
▁actions	-992
▁change	-993
▁sup	-994
▁work	-995
▁perhaps	-996
▁thoughts	-997
▁aff	-998
▁demonstr	-999
mong	-1000
ning	-1001
▁disp	-1002
▁force	-1003
alse	-1004
hemat	-1005
▁author	-1006
▁believe	-1007
olog	-1008
▁impossible	-1009
atter	-1010
▁indiv	-1011
▁opinion	-1012
▁produce	-1013
▁considered	-1014
▁fa	-1015
▁pe	-1016
▁new	-1017
▁person	-1018
ark	-1019
▁respect	-1020
▁together	-1021
by	-1022
▁read	-1023
▁makes	-1024
▁greater	-1025
▁neither	-1026
▁false	-1027
▁universe	-1028
▁perceptions	-1029
▁der	-1030
itive	-1031
erence	-1032
escartes	-1033
▁appearance	-1034
yp	-1035
▁hand	-1036
▁sm	-1037
▁too	-1038
itude	-1039
▁among	-1040
adict	-1041
▁syst	-1042
...	-1043
▁right	-1044
ack	-1045
▁comm	-1046
▁account	-1047
▁5	-1048
▁second	-1049
▁constit	-1050
▁sol	-1051
rect	-1052
▁corp	-1053
▁inqu	-1054
▁reality	-1055
cendental	-1056
▁intellig	-1057
▁proof	-1058
ression	-1059
▁exists	-1060
▁complete	-1061
ides	-1062
▁put	-1063
▁bas	-1064
▁speak	-1065
arr	-1066
▁beings	-1067
▁manif	-1068
▁contrary	-1069
▁philosophers	-1070
igh	-1071
uct	-1072
ited	-1073
▁ear	-1074
ccess	-1075
▁allow	-1076
▁determined	-1077
▁6	-1078
urn	-1079
yond	-1080
▁against	-1081
▁although	-1082
▁material	-1083
▁mathemat	-1084
sw	-1085
▁pleas	-1086
▁instan	-1087
▁Descartes	-1088
▁possibility	-1089
▁signif	-1090
▁contradict	-1091
pr	-1092
▁science	-1093
▁entirely	-1094
ene	-1095
ume	-1096
▁example	-1097
▁est	-1098
▁necessity	-1099
ip	-1100
▁7	-1101
▁evident	-1102
▁discover	-1103
▁beyond	-1104
ulties	-1105
▁while	-1106
▁effects	-1107
rem	-1108
▁To	-1109
oreal	-1110
▁That	-1111
▁answ	-1112
▁conditions	-1113
ilar	-1114
▁over	-1115
ositions	-1116
ne	-1117
ellect	-1118
▁proceed	-1119
▁success	-1120
atis	-1121
ution	-1122
▁light	-1123
▁system	-1124
▁whatever	-1125
▁U	-1126
ater	-1127
▁err	-1128
▁fre	-1129
which	-1130
▁let	-1131
▁pain	-1132
▁known	-1133
con	-1134
ived	-1135
▁mem	-1136
cy	-1137
reem	-1138
▁adv	-1139
lection	-1140
▁clearly	-1141
▁ourselves	-1142
▁;	-1143
man	-1144
▁bl	-1145
vious	-1146
▁capable	-1147
▁consciousness	-1148
▁sort	-1149
▁faculty	-1150
▁suppose	-1151
▁argument	-1152
sert	-1153
iness	-1154
br	-1155
▁As	-1156
▁id	-1157
▁Con	-1158
▁individ	-1159
to	-1160
▁mor	-1161
ready	-1162
atisf	-1163
▁occur	-1164
▁already	-1165
▁notions	-1166
abl	-1167
▁former	-1168
▁taken	-1169
▁dec	-1170
▁ill	-1171
▁want	-1172
▁concl	-1173
▁proposition	-1174
ames	-1175
urd	-1176
▁Le	-1177
▁judgments	-1178
omen	-1179
tim	-1180
ounds	-1181
▁prov	-1182
ix	-1183
▁satisf	-1184
▁intellect	-1185
oid	-1186
▁except	-1187
▁series	-1188
sive	-1189
▁mag	-1190
▁imagine	-1191
▁individual	-1192
▁immediately	-1193
▁hyp	-1194
reement	-1195
▁similar	-1196
▁universal	-1197
▁8	-1198
ings	-1199
that	-1200
ating	-1201
▁caus	-1202
▁often	-1203
▁16	-1204
here	-1205
▁assert	-1206
eless	-1207
▁hold	-1208
The	-1209
ibn	-1210
▁set	-1211
▁absurd	-1212
ize	-1213
omp	-1214
ibniz	-1215
▁quite	-1216
▁separ	-1217
▁degree	-1218
▁sufficient	-1219
ob	-1220
ety	-1221
▁difference	-1222
ave	-1223
ese	-1224
upp	-1225
▁He	-1226
reme	-1227
▁prove	-1228
▁corporeal	-1229
▁metaphysics	-1230
ctr	-1231
▁purp	-1232
theless	-1233
▁absolutely	-1234
▁ey	-1235
▁opp	-1236
▁once	-1237
▁continu	-1238
▁et	-1239
▁ask	-1240
▁objective	-1241
▁ph	-1242
▁sur	-1243
▁appl	-1244
▁free	-1245
▁synthetic	-1246
▁consequently	-1247
▁answer	-1248
▁Ar	-1249
▁co	-1250
▁char	-1251
▁magn	-1252
isible	-1253
▁admit	-1254
▁result	-1255
▁Leibniz	-1256
▁motions	-1257
rom	-1258
▁sure	-1259
▁names	-1260
▁What	-1261
▁produced	-1262
lude	-1263
▁hypoth	-1264
▁representations	-1265
ines	-1266
▁synthesis	-1267
▁feel	-1268
▁arguments	-1269
ught	-1270
▁sing	-1271
entity	-1272
rees	-1273
▁above	-1274
▁doctr	-1275
▁latter	-1276
▁operations	-1277
▁establ	-1278
kept	-1279
▁All	-1280
▁occas	-1281
▁compreh	-1282
▁perceiv	-1283
▁conceived	-1284
▁representation	-1285
ane	-1286
ature	-1287
▁ought	-1288
pe	-1289
▁So	-1290
ired	-1291
ises	-1292
▁org	-1293
▁high	-1294
▁move	-1295
▁derived	-1296
▁eternal	-1297
lf	-1298
ath	-1299
icate	-1300
9.	-1301
▁vol	-1302
▁agree	-1303
▁really	-1304
▁otherwise	-1305
."	-1306
▁etc	-1307
▁acqu	-1308
enomen	-1309
▁easily	-1310
2.	-1311
▁Re	-1312
▁ign	-1313
empt	-1314
▁ins	-1315
vers	-1316
1.	-1317
ird	-1318
▁These	-1319
▁However	-1320
▁supposed	-1321
▁val	-1322
▁attribute	-1323
thod	-1324
▁pred	-1325
▁self	-1326
▁ignor	-1327
▁distinguish	-1328
ian	-1329
▁actually	-1330
ule	-1331
▁invol	-1332
ven	-1333
▁17	-1334
▁aw	-1335
▁When	-1336
▁draw	-1337
▁plain	-1338
3.	-1339
sem	-1340
ably	-1341
oses	-1342
▁relig	-1343
▁small	-1344
▁affirm	-1345
ts	-1346
edu	-1347
cise	-1348
ided	-1349
▁ways	-1350
▁grant	-1351
▁determine	-1352
oun	-1353
ubl	-1354
▁fl	-1355
ateg	-1356
▁consists	-1357
▁existing	-1358
0.	-1359
4.	-1360
▁exc	-1361
inary	-1362
▁within	-1363
▁express	-1364
iqu	-1365
,"	-1366
▁mir	-1367
stant	-1368
▁deny	-1369
▁none	-1370
▁certainty	-1371
▁turn	-1372
▁better	-1373
ope	-1374
crib	-1375
edom	-1376
▁main	-1377
▁charact	-1378
▁species	-1379
▁attributes	-1380
▁propositions	-1381
▁Let	-1382
▁They	-1383
▁lear	-1384
▁spirits	-1385
▁phenomen	-1386
irt	-1387
▁cre	-1388
▁On	-1389
▁infin	-1390
▁become	-1391
▁reflection	-1392
ople	-1393
idity	-1394
▁fall	-1395
▁created	-1396
▁creatures	-1397
▁V	-1398
▁inquir	-1399
▁preced	-1400
▁Se	-1401
...]	-1402
aces	-1403
stood	-1404
▁fore	-1405
▁incl	-1406
▁rule	-1407
▁defin	-1408
▁various	-1409
▁beginning	-1410
side	-1411
▁ann	-1412
▁sec	-1413
ically	-1414
▁[...]	-1415
▁circum	-1416
5.	-1417
▁fin	-1418
▁three	-1419
ew	-1420
▁J	-1421
used	-1422
▁heat	-1423
▁virt	-1424
▁method	-1425
▁people	-1426
▁contains	-1427
▁transcendental	-1428
per	-1429
most	-1430
▁art	-1431
▁last	-1432
▁direct	-1433
▁Pro	-1434
ted	-1435
edit	-1436
▁pret	-1437
▁chang	-1438
▁manifold	-1439
▁]	-1440
ull	-1441
▁gl	-1442
▁mis	-1443
ories	-1444
▁judge	-1445
▁enough	-1446
▁truths	-1447
▁occasion	-1448
16	-1449
....	-1450
ires	-1451
▁analy	-1452
▁categ	-1453
▁inter	-1454
▁powers	-1455
▁understood	-1456
ters	-1457
▁phys	-1458
▁reach	-1459
▁stand	-1460
▁single	-1461
▁presupp	-1462
▁identity	-1463
8.	-1464
▁§	-1465
ned	-1466
▁By	-1467
ties	-1468
▁tri	-1469
ision	-1470
▁comb	-1471
▁shap	-1472
▁equal	-1473
▁freedom	-1474
iber	-1475
▁sch	-1476
known	-1477
▁carr	-1478
▁prob	-1479
▁mirac	-1480
▁course	-1481
▁constant	-1482
form	-1483
▁del	-1484
▁From	-1485
▁forms	-1486
▁skept	-1487
▁actual	-1488
▁animals	-1489
▁Sp	-1490
eome	-1491
▁sun	-1492
▁greatest	-1493
▁sole	-1494
▁meaning	-1495
▁Prop	-1496
▁done	-1497
▁hard	-1498
vation	-1499
▁finite	-1500
▁observe	-1501
▁doctrine	-1502
▁sensations	-1503
▁contradiction	-1504
for	-1505
ild	-1506
▁sc	-1507
resp	-1508
▁You	-1509
▁unt	-1510
▁bring	-1511
▁event	-1512
▁resem	-1513
▁happen	-1514
▁affected	-1515
▁following	-1516
▁circumstan	-1517
sub	-1518
ized	-1519
▁few	-1520
▁appreh	-1521
▁commun	-1522
▁De	-1523
ered	-1524
ists	-1525
uted	-1526
▁Sch	-1527
▁past	-1528
▁terms	-1529
▁anyone	-1530
▁divine	-1531
▁import	-1532
▁unknown	-1533
7.	-1534
vel	-1535
▁Be	-1536
ique	-1537
ules	-1538
ments	-1539
▁ration	-1540
▁perfection	-1541
bl	-1542
▁dur	-1543
itted	-1544
▁animal	-1545
▁magnitude	-1546
▁determination	-1547
ick	-1548
▁An	-1549
▁extended	-1550
▁difficulty	-1551
▁K	-1552
own	-1553
▁Tr	-1554
chan	-1555
ends	-1556
hical	-1557
▁influ	-1558
▁water	-1559
▁analog	-1560
▁making	-1561
▁conform	-1562
▁precise	-1563
▁purpose	-1564
▁properties	-1565
iar	-1566
ases	-1567
▁inn	-1568
▁basis	-1569
▁assent	-1570
▁memory	-1571
avor	-1572
wards	-1573
▁infer	-1574
▁until	-1575
▁Proposition	-1576
▁av	-1577
▁best	-1578
▁mist	-1579
action	-1580
▁geome	-1581
ception	-1582
▁certainly	-1583
▁hypothesis	-1584
▁conv	-1585
▁quant	-1586
▁corresp	-1587
▁agreement	-1588
▁contained	-1589
ext	-1590
ote	-1591
▁Proof	-1592
▁triang	-1593
▁phenomena	-1594
▁ang	-1595
▁fut	-1596
▁log	-1597
▁sent	-1598
▁moral	-1599
ensible	-1600
▁acknow	-1601
▁mechan	-1602
ft	-1603
▁off	-1604
▁ones	-1605
▁error	-1606
▁exact	-1607
▁rules	-1608
▁shown	-1609
▁proved	-1610
▁outside	-1611
▁remains	-1612
▁conclude	-1613
6.	-1614
sc	-1615
kind	-1616
▁sus	-1617
▁look	-1618
▁unless	-1619
▁distinctly	-1620
use	-1621
dequ	-1622
ortion	-1623
▁distinction	-1624
up	-1625
dom	-1626
▁mom	-1627
▁arise	-1628
▁imper	-1629
▁incon	-1630
▁Nature	-1631
▁care	-1632
aterial	-1633
▁united	-1634
▁attempt	-1635
▁equally	-1636
▁pleasure	-1637
▁religion	-1638
▁causality	-1639
▁character	-1640
▁Is	-1641
▁wr	-1642
times	-1643
▁publ	-1644
▁touch	-1645
▁colors	-1646
▁specul	-1647
▁sensibility	-1648
ability	-1649
ail	-1650
bit	-1651
▁extr	-1652
▁obsc	-1653
▁color	-1654
▁modes	-1655
▁souls	-1656
aim	-1657
ously	-1658
▁pract	-1659
▁complex	-1660
▁confused	-1661
▁maintain	-1662
ret	-1663
cing	-1664
ific	-1665
sist	-1666
▁Hume	-1667
▁easy	-1668
▁sight	-1669
▁limits	-1670
▁supreme	-1671
▁faculties	-1672
▁relations	-1673
▁ke	-1674
ency	-1675
▁dre	-1676
ology	-1677
osite	-1678
▁eyes	-1679
▁sour	-1680
▁impress	-1681
▁rational	-1682
▁completely	-1683
▁Or	-1684
sess	-1685
▁arr	-1686
▁unc	-1687
esides	-1688
▁times	-1689
▁extent	-1690
▁future	-1691
▁appears	-1692
▁support	-1693
▁intelligible	-1694
ged	-1695
▁ut	-1696
ense	-1697
icism	-1698
ustom	-1699
where	-1700
ounded	-1701
▁refer	-1702
▁degrees	-1703
▁mankind	-1704
▁thereby	-1705
▁independ	-1706
▁nevertheless	-1707
▁neg	-1708
▁dedu	-1709
▁tell	-1710
▁earth	-1711
▁instance	-1712
▁original	-1713
▁difficult	-1714
▁succession	-1715
▁mathematics	-1716
▁19	-1717
▁ap	-1718
▁seen	-1719
▁treat	-1720
▁expect	-1721
▁happens	-1722
▁infinity	-1723
▁positive	-1724
▁influence	-1725
▁Nor	-1726
▁possess	-1727
▁reflect	-1728
sign	-1729
▁wis	-1730
ivers	-1731
ential	-1732
▁dream	-1733
▁strong	-1734
▁obvious	-1735
▁properly	-1736
alk	-1737
ead	-1738
ief	-1739
▁cho	-1740
▁hope	-1741
▁impr	-1742
▁love	-1743
▁preser	-1744
▁thinks	-1745
▁virtue	-1746
▁commonly	-1747
▁operation	-1748
▁sometimes	-1749
**	-1750
ru	-1751
▁Ch	-1752
▁Un	-1753
peci	-1754
▁her	-1755
▁appr	-1756
▁crit	-1757
▁ende	-1758
▁meas	-1759
▁prim	-1760
▁seek	-1761
▁test	-1762
▁used	-1763
soever	-1764
▁gives	-1765
▁shape	-1766
▁desire	-1767
▁examine	-1768
▁evidence	-1769
▁conclusion	-1770
▁difficulties	-1771
ss	-1772
ony	-1773
ues	-1774
▁Yet	-1775
▁advant	-1776
standing	-1777
▁attention	-1778
▁distinguished	-1779
app	-1780
ium	-1781
tic	-1782
▁har	-1783
ishing	-1784
▁instr	-1785
▁resol	-1786
und	-1787
▁te	-1788
ploy	-1789
▁red	-1790
exist	-1791
osing	-1792
▁cold	-1793
▁tast	-1794
▁accid	-1795
▁knows	-1796
▁quality	-1797
▁imperfect	-1798
blem	-1799
ives	-1800
▁lead	-1801
▁prev	-1802
▁says	-1803
▁claim	-1804
▁belief	-1805
▁employ	-1806
▁opinions	-1807
▁ra	-1808
▁{6	-1809
▁air	-1810
ection	-1811
▁sound	-1812
▁suffici	-1813
▁explained	-1814
▁whatsoever	-1815
try	-1816
▁{2	-1817
▁{7	-1818
eness	-1819
▁fire	-1820
▁Since	-1821
▁destr	-1822
▁sciences	-1823
▁immediate	-1824
▁perceives	-1825
ody	-1826
▁{5	-1827
▁###	-1828
▁ant	-1829
▁hel	-1830
▁ord	-1831
▁surely	-1832
▁mention	-1833
ting	-1834
oined	-1835
▁hear	-1836
▁intr	-1837
▁moment	-1838
▁render	-1839
▁inquiry	-1840
▁produces	-1841
▁received	-1842
▁proportion	-1843
▁circumstances	-1844
sy	-1845
gth	-1846
ining	-1847
▁avoid	-1848
▁comes	-1849
▁reasons	-1850
▁previous	-1851
▁triangle	-1852
▁conception	-1853
▁determinate	-1854
▁consequences	-1855
ren	-1856
tle	-1857
▁{3	-1858
▁{4	-1859
▁{8	-1860
aken	-1861
angu	-1862
▁lack	-1863
▁alter	-1864
▁works	-1865
▁belongs	-1866
▁quantity	-1867
▁categories	-1868
▁sufficiently	-1869
▁demonstration	-1870
De	-1871
▁No	-1872
ixed	-1873
ying	-1874
▁short	-1875
▁likewise	-1876
▁happiness	-1877
▁philosophical	-1878
ia	-1879
ier	-1880
▁bu	-1881
▁help	-1882
overed	-1883
▁serve	-1884
ternity	-1885
▁Reason	-1886
▁solely	-1887
▁efficient	-1888
▁correspond	-1889
▁established	-1890
▁1.	-1891
▁ele	-1892
iment	-1893
sibly	-1894
▁prof	-1895
▁unif	-1896
▁whom	-1897
▁adequ	-1898
▁assum	-1899
▁faith	-1900
▁teach	-1901
▁receive	-1902
▁everyone	-1903
▁reference	-1904
▁definition	-1905
cul	-1906
ley	-1907
▁2.	-1908
▁gu	-1909
ocke	-1910
▁fam	-1911
▁side	-1912
especi	-1913
iberty	-1914
▁langu	-1915
▁attain	-1916
▁events	-1917
▁innate	-1918
▁testim	-1919
▁wisdom	-1920
▁problem	-1921
▁speaking	-1922
▁perfectly	-1923
▁observation	-1924
oms	-1925
aced	-1926
iving	-1927
▁More	-1928
▁down	-1929
▁soon	-1930
▁union	-1931
▁recogn	-1932
▁conduct	-1933
▁confess	-1934
especially	-1935
anscendental	-1936
oz	-1937
omy	-1938
ised	-1939
▁obl	-1940
▁acts	-1941
▁moved	-1942
▁third	-1943
▁truly	-1944
▁reject	-1945
▁requires	-1946
▁important	-1947
its	-1948
ock	-1949
nces	-1950
udes	-1951
▁lar	-1952
▁inst	-1953
▁disag	-1954
▁exper	-1955
▁organs	-1956
▁content	-1957
▁figures	-1958
▁distance	-1959
▁manifest	-1960
▁consequence	-1961
ph	-1962
arch	-1963
atur	-1964
ured	-1965
▁enc	-1966
▁angles	-1967
▁ascrib	-1968
▁design	-1969
▁points	-1970
ological	-1971
▁depends	-1972
▁creation	-1973
ared	-1974
inoz	-1975
omin	-1976
acity	-1977
▁inner	-1978
▁almost	-1979
▁knowing	-1980
▁readily	-1981
▁regards	-1982
▁internal	-1983
▁testimony	-1984
be	-1985
pic	-1986
▁sum	-1987
▁full	-1988
▁heav	-1989
▁precisely	-1990
▁impressions	-1991
ets	-1992
xim	-1993
▁pas	-1994
inoza	-1995
ising	-1996
ought	-1997
▁conj	-1998
▁mark	-1999
▁Locke	-2000
▁highest	-2001
▁relative	-2002
);	-2003
ins	-2004
reg	-2005
vol	-2006
ages	-2007
leep	-2008
uded	-2009
▁mode	-2010
▁mult	-2011
ultane	-2012
▁primary	-2013
▁variety	-2014
▁foundation	-2015
▁impression	-2016
Of	-2017
ont	-2018
▁{1	-2019
owed	-2020
plic	-2021
▁Chap	-2022
rought	-2023
▁sorts	-2024
ceiving	-2025
▁destroy	-2026
▁resembl	-2027
▁Moreover	-2028
▁naturally	-2029
ices	-2030
▁Our	-2031
▁apt	-2032
▁lies	-2033
▁apply	-2034
▁learned	-2035
▁limited	-2036
▁observed	-2037
▁discovered	-2038
▁immaterial	-2039
▁reasonings	-2040
▁consideration	-2041
▁Cor	-2042
▁Ide	-2043
erior	-2044
▁Part	-2045
▁line	-2046
▁pref	-2047
▁organ	-2048
▁takes	-2049
▁arises	-2050
▁ignorance	-2051
▁particles	-2052
▁mathematical	-2053
ash	-2054
ery	-2055
▁3.	-2056
▁Ex	-2057
▁ed	-2058
olly	-2059
▁eff	-2060
▁keep	-2061
▁mach	-2062
▁suff	-2063
▁longer	-2064
▁analogy	-2065
▁correct	-2066
▁whereas	-2067
▁required	-2068
▁especially	-2069
nderstanding	-2070
▁represented	-2071
ev	-2072
xi	-2073
ians	-2074
lean	-2075
enetr	-2076
ively	-2077
▁Pure	-2078
▁empt	-2079
▁fear	-2080
▁brain	-2081
▁addition	-2082
▁eternity	-2083
▁position	-2084
any	-2085
▁wa	-2086
cern	-2087
▁Not	-2088
▁ret	-2089
arent	-2090
ption	-2091
▁plan	-2092
iments	-2093
▁Schol	-2094
▁becom	-2095
▁cases	-2096
▁images	-2097
▁notice	-2098
▁Spinoza	-2099
▁Philosop	-2100
▁creature	-2101
▁ignorant	-2102
▁concerned	-2103
0}	-2104
2}	-2105
3}	-2106
7}	-2107
8}	-2108
9}	-2109
aut	-2110
aint	-2111
body	-2112
erke	-2113
imin	-2114
▁tot	-2115
▁enter	-2116
▁solid	-2117
▁formed	-2118
▁remark	-2119
▁subtle	-2120
iversity	-2121
▁brought	-2122
▁uncertain	-2123
▁considering	-2124
▁determinations	-2125
4}	-2126
II	-2127
iff	-2128
jud	-2129
▁cr	-2130
▁ir	-2131
brid	-2132
▁fan	-2133
▁bare	-2134
▁fail	-2135
▁stud	-2136
stance	-2137
▁empty	-2138
erkeley	-2139
▁contem	-2140
▁advantage	-2141
▁predicate	-2142
▁affections	-2143
▁infinitely	-2144
1}	-2145
5}	-2146
ton	-2147
▁bor	-2148
aking	-2149
▁accur	-2150
▁maxim	-2151
ccording	-2152
▁Chapter	-2153
▁changes	-2154
▁dispute	-2155
▁grounds	-2156
▁conditioned	-2157
gar	-2158
▁4.	-2159
▁sl	-2160
▁suc	-2161
▁writ	-2162
culiar	-2163
▁speci	-2164
▁worth	-2165
▁active	-2166
▁circle	-2167
▁uniform	-2168
▁duration	-2169
▁simultane	-2170
▁regression	-2171
sis	-2172
▁ro	-2173
anch	-2174
▁book	-2175
▁valid	-2176
▁perman	-2177
▁exactly	-2178
▁pretend	-2179
▁authority	-2180
_?	-2181
acy	-2182
ars	-2183
cies	-2184
thes	-2185
▁len	-2186
▁Such	-2187
▁deal	-2188
▁based	-2189
▁gover	-2190
▁image	-2191
▁accord	-2192
▁proofs	-2193
▁retain	-2194
leanthes	-2195
together	-2196
▁allowed	-2197
▁finally	-2198
▁liberty	-2199
▁Berkeley	-2200
▁endeavor	-2201
▁illusion	-2202
▁peculiar	-2203
▁subjects	-2204
▁om	-2205
▁mon	-2206
▁she	-2207
▁four	-2208
resses	-2209
▁length	-2210
▁living	-2211
▁occurs	-2212
▁besides	-2213
▁passions	-2214
▁substant	-2215
▁altogether	-2216
▁independent	-2217
ng	-2218
ols	-2219
oved	-2220
▁cur	-2221
erest	-2222
sight	-2223
▁away	-2224
itable	-2225
usions	-2226
▁Being	-2227
▁oblig	-2228
▁saying	-2229
▁persons	-2230
▁succeed	-2231
Cleanthes	-2232
erception	-2233
▁University	-2234
ime	-2235
▁eye	-2236
▁fri	-2237
▁lea	-2238
▁par	-2239
▁prog	-2240
▁situ	-2241
ambrid	-2242
▁Second	-2243
▁assign	-2244
▁compar	-2245
▁member	-2246
ambridge	-2247
▁conting	-2248
▁related	-2249
▁willing	-2250
▁language	-2251
▁possibly	-2252
▁acknowledge	-2253
6}	-2254
ger	-2255
▁lie	-2256
▁coun	-2257
ensive	-2258
iction	-2259
▁useful	-2260
inations	-2261
▁becomes	-2262
▁regarded	-2263
▁skepticism	-2264
▁supposition	-2265
▁New	-2266
▁bene	-2267
▁redu	-2268
▁close	-2269
▁modif	-2270
unction	-2271
▁differ	-2272
▁wholly	-2273
▁adequate	-2274
▁continued	-2275
▁questions	-2276
0,	-2277
gg	-2278
ius	-2279
ield	-2280
▁priv	-2281
▁step	-2282
▁kinds	-2283
▁inform	-2284
▁seeing	-2285
▁Section	-2286
▁existed	-2287
▁perform	-2288
▁establish	-2289
▁preceding	-2290
▁intuitions	-2291
▁reasonable	-2292
▁application	-2293
▁perfections	-2294
▁disagreement	-2295
mat	-2296
▁ce	-2297
▁min	-2298
verse	-2299
▁exer	-2300
▁wise	-2301
atural	-2302
icates	-2303
▁outer	-2304
▁sleep	-2305
▁convin	-2306
▁applied	-2307
▁someone	-2308
▁subsist	-2309
editations	-2310
xt	-2311
ech	-2312
ltim	-2313
▁anci	-2314
▁chap	-2315
▁evil	-2316
arding	-2317
▁added	-2318
▁leave	-2319
▁places	-2320
▁founded	-2321
▁regular	-2322
▁require	-2323
▁whereby	-2324
▁mechanical	-2325
▁constitutes	-2326
ri	-2327
nau	-2328
omm	-2329
▁IV	-2330
rist	-2331
nauld	-2332
▁Here	-2333
▁furn	-2334
▁post	-2335
▁Deity	-2336
▁Human	-2337
inciples	-2338
▁composed	-2339
▁interest	-2340
▁practical	-2341
▁metaphysical	-2342
▁signification	-2343
ison	-2344
what	-2345
▁dem	-2346
anger	-2347
▁left	-2348
▁wish	-2349
▁along	-2350
cerning	-2351
▁ground	-2352
▁toward	-2353
▁instead	-2354
▁physics	-2355
▁contempl	-2356
▁opposite	-2357
▁subjective	-2358
▁speculative	-2359
▁substantial	-2360
▁apprehension	-2361
17	-2362
uc	-2363
oss	-2364
▁Of	-2365
ident	-2366
▁hist	-2367
▁narr	-2368
▁moves	-2369
▁persu	-2370
▁shows	-2371
▁taste	-2372
▁assume	-2373
▁sounds	-2374
▁Arnauld	-2375
▁inquire	-2376
▁matters	-2377
▁prevent	-2378
▁involves	-2379
▁ordinary	-2380
▁connected	-2381
▁inference	-2382
▁determines	-2383
▁objections	-2384
▁[3	-2385
ants	-2386
with	-2387
▁aim	-2388
▁year	-2389
inking	-2390
▁First	-2391
▁incre	-2392
▁super	-2393
▁formal	-2394
▁placed	-2395
▁remote	-2396
▁obscure	-2397
▁Scholium	-2398
▁expresses	-2399
▁comprehend	-2400
▁conformity	-2401
▁conclusions	-2402
ry	-2403
hip	-2404
▁squ	-2405
cause	-2406
ulgar	-2407
idence	-2408
▁apart	-2409
▁carry	-2410
▁constr	-2411
▁source	-2412
▁analytic	-2413
▁instances	-2414
▁regarding	-2415
▁production	-2416
ik	-2417
ale	-2418
usc	-2419
gain	-2420
▁arm	-2421
▁exh	-2422
▁Kant	-2423
▁talk	-2424
seless	-2425
▁drawn	-2426
▁frame	-2427
▁later	-2428
▁sides	-2429
etaphys	-2430
▁danger	-2431
▁involve	-2432
▁essential	-2433
▁constitute	-2434
he	-2435
Cor	-2436
idd	-2437
ref	-2438
vey	-2439
▁Al	-2440
sion	-2441
▁day	-2442
▁iss	-2443
plies	-2444
▁blind	-2445
ritique	-2446
▁create	-2447
▁incomp	-2448
▁vulgar	-2449
ceivable	-2450
▁granted	-2451
▁admitted	-2452
▁volition	-2453
ade	-2454
ati	-2455
▁III	-2456
▁One	-2457
aries	-2458
ggest	-2459
ulous	-2460
▁fill	-2461
icated	-2462
uction	-2463
▁ultim	-2464
▁demand	-2465
▁discus	-2466
▁visible	-2467
▁provided	-2468
▁discourse	-2469
▁accordance	-2470
▁Transcendental	-2471
sp	-2472
Def	-2473
aord	-2474
ihil	-2475
pted	-2476
▁wax	-2477
▁next	-2478
▁child	-2479
▁frequ	-2480
▁careful	-2481
▁logical	-2482
▁suggest	-2483
▁apparent	-2484
▁mistaken	-2485
▁solidity	-2486
▁constitution	-2487
1]	-2488
5]	-2489
9]	-2490
▁#	-2491
cri	-2492
▁5.	-2493
▁Do	-2494
deed	-2495
▁Fin	-2496
▁dog	-2497
▁led	-2498
Philo	-2499
istot	-2500
▁dark	-2501
▁firm	-2502
▁scar	-2503
▁thor	-2504
▁Again	-2505
▁Press	-2506
▁beaut	-2507
▁prejud	-2508
▁Aristot	-2509
▁ascribe	-2510
▁measure	-2511
▁signify	-2512
aordinary	-2513
condition	-2514
▁satisfied	-2515
▁secondary	-2516
▁separated	-2517
8]	-2518
Se	-2519
gel	-2520
lar	-2521
ply	-2522
por	-2523
urity	-2524
▁open	-2525
▁sees	-2526
▁void	-2527
icians	-2528
urther	-2529
▁accept	-2530
▁afford	-2531
▁errors	-2532
▁modern	-2533
▁moving	-2534
▁thorough	-2535
▁cognitions	-2536
▁combination	-2537
▁extraordinary	-2538
go	-2539
igu	-2540
oll	-2541
▁sk	-2542
▁See	-2543
▁axi	-2544
▁det	-2545
▁tem	-2546
▁dial	-2547
▁weak	-2548
▁fancy	-2549
▁remem	-2550
▁obtain	-2551
▁strict	-2552
▁taking	-2553
▁Further	-2554
▁coexist	-2555
▁instrum	-2556
▁princip	-2557
▁mentioned	-2558
▁Concerning	-2559
▁constantly	-2560
▁perceiving	-2561
2]	-2562
4]	-2563
6]	-2564
isc	-2565
new	-2566
▁cop	-2567
▁dev	-2568
ivity	-2569
▁back	-2570
▁angel	-2571
▁doing	-2572
▁ideal	-2573
▁impul	-2574
▁logic	-2575
▁narrow	-2576
▁simply	-2577
▁miracle	-2578
▁product	-2579
▁believed	-2580
▁contrast	-2581
▁geometry	-2582
▁accidents	-2583
▁objection	-2584
▁universally	-2585
▁apperception	-2586
0]	-2587
3]	-2588
▁)	-2589
air	-2590
rel	-2591
unt	-2592
will	-2593
▁(16	-2594
▁lab	-2595
inate	-2596
inted	-2597
onder	-2598
▁appe	-2599
▁inse	-2600
▁medi	-2601
▁near	-2602
▁path	-2603
▁build	-2604
▁finds	-2605
▁forth	-2606
▁holds	-2607
▁start	-2608
▁utter	-2609
▁Though	-2610
▁scarce	-2611
▁sphere	-2612
▁cognize	-2613
▁situation	-2614
▁uncondition	-2615
3,	-2616
7]	-2617
ngl	-2618
row	-2619
arer	-2620
▁ver	-2621
▁war	-2622
▁wit	-2623
ained	-2624
estig	-2625
plied	-2626
▁repe	-2627
▁death	-2628
istance	-2629
▁custom	-2630
▁harmon	-2631
▁indiff	-2632
▁inhere	-2633
▁penetr	-2634
▁speech	-2635
▁square	-2636
▁passion	-2637
▁pertain	-2638
▁towards	-2639
▁probable	-2640
▁separate	-2641
▁absurdity	-2642
▁entertain	-2643
▁successive	-2644
aid	-2645
▁**	-2646
▁15	-2647
▁Ad	-2648
itum	-2649
ouse	-2650
▁dep	-2651
▁gen	-2652
▁saw	-2653
▁try	-2654
▁Book	-2655
▁Phil	-2656
▁prom	-2657
▁forces	-2658
▁joined	-2659
▁weight	-2660
▁conject	-2661
▁introdu	-2662
▁plainly	-2663
sequently	-2664
▁According	-2665
▁belonging	-2666
▁generally	-2667
▁published	-2668
▁Philosophy	-2669
▁resemblance	-2670
▁demonstrated	-2671
▁intellectual	-2672
▁intelligence	-2673
▁satisfaction	-2674
su	-2675
▁—	-2676
umer	-2677
urance	-2678
▁After	-2679
▁Ideas	-2680
▁bound	-2681
▁famil	-2682
▁meant	-2683
▁reply	-2684
▁rests	-2685
▁wills	-2686
ensions	-2687
▁Christ	-2688
▁amount	-2689
▁attend	-2690
▁return	-2691
▁Finally	-2692
▁insight	-2693
▁capacity	-2694
▁previously	-2695
▁composition	-2696
asm	-2697
▁hon	-2698
▁hor	-2699
▁leg	-2700
erves	-2701
otion	-2702
vable	-2703
▁actu	-2704
▁foot	-2705
▁vain	-2706
▁large	-2707
▁stone	-2708
▁Newton	-2709
▁please	-2710
▁reader	-2711
▁provide	-2712
▁employed	-2713
▁scarcely	-2714
▁acknowled	-2715
▁assurance	-2716
▁divisible	-2717
▁considerable	-2718
▁11	-2719
▁Mr	-2720
bitr	-2721
ully	-2722
▁loc	-2723
▁pie	-2724
▁run	-2725
ishes	-2726
isite	-2727
▁Engl	-2728
▁With	-2729
▁size	-2730
▁leads	-2731
▁usual	-2732
rection	-2733
▁acting	-2734
▁explan	-2735
▁extend	-2736
▁command	-2737
▁extreme	-2738
▁satisfy	-2739
▁investig	-2740
▁validity	-2741
▁permanent	-2742
▁objectively	-2743
▁understands	-2744
▁Understanding	-2745
▁unconditioned	-2746
obb	-2747
oly	-2748
ites	-2749
▁age	-2750
▁eng	-2751
onous	-2752
▁note	-2753
▁rise	-2754
acious	-2755
▁chief	-2756
▁dimin	-2757
▁habit	-2758
▁views	-2759
▁years	-2760
▁Cartes	-2761
▁accomp	-2762
▁concur	-2763
▁theory	-2764
▁transl	-2765
intellig	-2766
▁confirm	-2767
▁sources	-2768
▁familiar	-2769
▁property	-2770
▁solution	-2771
▁intelligent	-2772
isp	-2773
une	-2774
amed	-2775
ored	-2776
veni	-2777
▁bus	-2778
▁get	-2779
▁old	-2780
cript	-2781
▁cent	-2782
▁diss	-2783
▁perm	-2784
▁scho	-2785
ashion	-2786
▁smell	-2787
▁states	-2788
▁advance	-2789
▁annihil	-2790
▁convers	-2791
▁dialect	-2792
▁strange	-2793
substance	-2794
▁directly	-2795
▁miracles	-2796
▁physical	-2797
ifications	-2798
▁alteration	-2799
▁contingent	-2800
yr	-2801
ask	-2802
osm	-2803
spe	-2804
▁Ob	-2805
alth	-2806
cell	-2807
▁Ess	-2808
▁Why	-2809
▁fit	-2810
▁scr	-2811
ciety	-2812
uting	-2813
▁born	-2814
▁decl	-2815
▁desp	-2816
▁reve	-2817
ceives	-2818
reason	-2819
▁count	-2820
▁fixed	-2821
erences	-2822
▁Rather	-2823
▁denied	-2824
▁giving	-2825
▁presum	-2826
▁search	-2827
▁ancient	-2828
▁divided	-2829
▁instant	-2830
▁machine	-2831
▁obliged	-2832
▁removed	-2833
▁utterly	-2834
▁concerns	-2835
▁proposed	-2836
▁sensitive	-2837
▁probability	-2838
▁9	-2839
eme	-2840
ify	-2841
ugn	-2842
▁6.	-2843
▁Pl	-2844
hood	-2845
▁omn	-2846
▁und	-2847
▁unf	-2848
▁gave	-2849
ainted	-2850
ousand	-2851
utable	-2852
▁chain	-2853
▁restr	-2854
versity	-2855
▁Indeed	-2856
▁doubts	-2857
▁repugn	-2858
▁discern	-2859
▁fashion	-2860
▁useless	-2861
editation	-2862
▁accustom	-2863
▁division	-2864
▁essences	-2865
▁morality	-2866
▁presence	-2867
▁proceeds	-2868
▁purposes	-2869
▁remember	-2870
▁thousand	-2871
▁Philonous	-2872
▁composite	-2873
▁principal	-2874
ec	-2875
ug	-2876
ank	-2877
ons	-2878
▁18	-2879
▁lo	-2880
unct	-2881
▁beh	-2882
▁ten	-2883
amely	-2884
aught	-2885
imate	-2886
obbes	-2887
overy	-2888
▁Some	-2889
▁deep	-2890
ontane	-2891
otions	-2892
▁agent	-2893
▁aware	-2894
▁displ	-2895
▁effic	-2896
▁realm	-2897
▁arbitr	-2898
▁secret	-2899
▁struct	-2900
▁changed	-2901
▁endowed	-2902
▁harmony	-2903
▁Whatever	-2904
▁analysis	-2905
▁deceived	-2906
▁followed	-2907
▁included	-2908
▁progress	-2909
▁referred	-2910
▁diversity	-2911
▁spiritual	-2912
▁expression	-2913
▁determining	-2914
.)	-2915
Ess	-2916
ocr	-2917
just	-2918
▁van	-2919
aight	-2920
erent	-2921
iable	-2922
icial	-2923
izing	-2924
▁ages	-2925
▁head	-2926
▁surf	-2927
▁task	-2928
icable	-2929
matter	-2930
▁Those	-2931
▁annex	-2932
▁hands	-2933
▁heart	-2934
▁learn	-2935
▁govern	-2936
▁insist	-2937
thinking	-2938
▁geometr	-2939
▁impulse	-2940
▁insepar	-2941
▁mistake	-2942
▁passage	-2943
▁continue	-2944
▁critique	-2945
▁elements	-2946
▁powerful	-2947
▁Aristotle	-2948
▁multitude	-2949
▁producing	-2950
▁requisite	-2951
▁attributed	-2952
▁predicates	-2953
Wh	-2954
iol	-2955
ole	-2956
atum	-2957
▁enj	-2958
alebr	-2959
ulate	-2960
▁cred	-2961
▁goes	-2962
▁knew	-2963
▁prem	-2964
▁Every	-2965
▁exhib	-2966
▁wrong	-2967
▁Hobbes	-2968
▁immort	-2969
▁remove	-2970
▁passive	-2971
alebranch	-2972
▁cognized	-2973
▁straight	-2974
▁whenever	-2975
▁controver	-2976
▁deduction	-2977
▁presented	-2978
▁Principles	-2979
▁sentiments	-2980
▁examination	-2981
▁modifications	-2982
2,	-2983
ma	-2984
▁:	-2985
wor	-2986
▁jo	-2987
▁ve	-2988
atch	-2989
ened	-2990
lict	-2991
more	-2992
opri	-2993
peri	-2994
ylas	-2995
▁mar	-2996
▁sin	-2997
ogene	-2998
▁stop	-2999
▁tend	-3000
namely	-3001
▁Hylas	-3002
▁aside	-3003
▁favor	-3004
▁final	-3005
▁numer	-3006
▁table	-3007
itation	-3008
▁during	-3009
▁excell	-3010
▁higher	-3011
▁prefer	-3012
▁public	-3013
▁utmost	-3014
▁wonder	-3015
........	-3016
▁hearing	-3017
▁members	-3018
▁usually	-3019
▁category	-3020
▁definite	-3021
▁signific	-3022
alebranche	-3023
▁carefully	-3024
▁convinced	-3025
▁accustomed	-3026
▁represents	-3027
▁demonstrate	-3028
▁indivisible	-3029
▁Consequently	-3030
▁acknowledged	-3031
dd	-3032
fe	-3033
yn	-3034
asp	-3035
get	-3036
men	-3037
pre	-3038
▁[2	-3039
iter	-3040
reed	-3041
weet	-3042
▁Can	-3043
▁Lat	-3044
▁got	-3045
asses	-3046
iting	-3047
lying	-3048
▁arch	-3049
▁fair	-3050
▁serv	-3051
▁text	-3052
▁unav	-3053
▁walk	-3054
Second	-3055
determ	-3056
luding	-3057
utions	-3058
▁house	-3059
▁study	-3060
itative	-3061
▁choice	-3062
▁hardly	-3063
▁sought	-3064
▁taught	-3065
▁feeling	-3066
▁natures	-3067
▁rightly	-3068
▁suspect	-3069
▁imagined	-3070
▁superior	-3071
▁discovery	-3072
▁sentiment	-3073
▁supposing	-3074
▁acquainted	-3075
▁comparison	-3076
▁insensible	-3077
▁differences	-3078
▁presupposes	-3079
On	-3080
but	-3081
gen	-3082
pet	-3083
▁pun	-3084
going	-3085
ogism	-3086
ouble	-3087
▁Adam	-3088
lusive	-3089
▁Never	-3090
▁alike	-3091
▁enjoy	-3092
▁grasp	-3093
▁piece	-3094
▁using	-3095
utation	-3096
▁stands	-3097
▁undert	-3098
▁English	-3099
▁arising	-3100
▁history	-3101
▁teaches	-3102
▁unavoid	-3103
▁inferred	-3104
▁incompreh	-3105
▁recognize	-3106
▁afterwards	-3107
▁inferences	-3108
▁conjunction	-3109
▁definitions	-3110
4,	-3111
iod	-3112
ulk	-3113
adam	-3114
plex	-3115
ring	-3116
▁lay	-3117
▁mer	-3118
ading	-3119
ially	-3120
▁bear	-3121
▁earl	-3122
▁embr	-3123
▁inex	-3124
▁ship	-3125
▁vers	-3126
apable	-3127
necess	-3128
ollary	-3129
▁fully	-3130
▁lines	-3131
ishment	-3132
▁choose	-3133
▁dogmat	-3134
▁dreams	-3135
▁maxims	-3136
▁minute	-3137
▁passes	-3138
▁specif	-3139
ogeneous	-3140
▁spontane	-3141
▁confusion	-3142
▁inquiries	-3143
▁obscurity	-3144
▁frequently	-3145
intelligible	-3146
▁Nevertheless	-3147
Ax	-3148
ert	-3149
ilt	-3150
uit	-3151
▁7.	-3152
▁At	-3153
iven	-3154
real	-3155
▁ren	-3156
▁rid	-3157
cepts	-3158
ounce	-3159
▁came	-3160
▁grad	-3161
▁held	-3162
▁meet	-3163
active	-3164
▁Madam	-3165
▁appro	-3166
▁needs	-3167
▁revol	-3168
▁round	-3169
▁sweet	-3170
evident	-3171
plicity	-3172
species	-3173
▁axioms	-3174
▁bounds	-3175
▁defect	-3176
▁exceed	-3177
▁justly	-3178
▁seemed	-3179
Critique	-3180
▁contrib	-3181
▁display	-3182
▁opposed	-3183
▁society	-3184
▁goodness	-3185
▁resolved	-3186
▁evidently	-3187
▁materials	-3188
▁volitions	-3189
▁Malebranche	-3190
▁considerations	-3191
oh	-3192
pon	-3193
ric	-3194
sec	-3195
▁sw	-3196
eses	-3197
greg	-3198
ynam	-3199
▁Def	-3200
▁bad	-3201
▁due	-3202
▁rev	-3203
First	-3204
imple	-3205
▁hund	-3206
▁link	-3207
▁wind	-3208
ensity	-3209
object	-3210
▁Third	-3211
▁blood	-3212
▁noted	-3213
▁pains	-3214
▁quick	-3215
▁raise	-3216
▁trust	-3217
▁Object	-3218
▁begins	-3219
▁partly	-3220
▁period	-3221
▁wanted	-3222
perience	-3223
▁Nothing	-3224
▁carried	-3225
▁finding	-3226
▁hundred	-3227
▁numbers	-3228
▁replied	-3229
▁accompan	-3230
▁business	-3231
▁preserve	-3232
▁recourse	-3233
▁Corollary	-3234
▁direction	-3235
▁expressed	-3236
▁extremely	-3237
▁intuitive	-3238
osmological	-3239
▁conjecture	-3240
▁experiment	-3241
▁distinguishing	-3242
els	-3243
sed	-3244
Deme	-3245
ones	-3246
▁non	-3247
▁pol	-3248
Demea	-3249
entle	-3250
inity	-3251
▁ball	-3252
▁ends	-3253
▁pict	-3254
▁surr	-3255
▁viol	-3256
untary	-3257
▁flame	-3258
▁issue	-3259
▁occup	-3260
▁recon	-3261
▁white	-3262
stratum	-3263
▁friend	-3264
▁gentle	-3265
▁misery	-3266
▁serves	-3267
▁waking	-3268
▁forward	-3269
▁include	-3270
Cambridge	-3271
▁appropri	-3272
▁actuality	-3273
▁believing	-3274
▁opposition	-3275
▁indifferent	-3276
wo	-3277
aly	-3278
aded	-3279
sens	-3280
soci	-3281
some	-3282
this	-3283
▁coh	-3284
ified	-3285
inomy	-3286
owers	-3287
▁pron	-3288
▁puts	-3289
▁room	-3290
▁uses	-3291
ominal	-3292
▁Space	-3293
▁benef	-3294
▁compl	-3295
▁field	-3296
▁horse	-3297
▁press	-3298
▁surpr	-3299
▁convey	-3300
▁derive	-3301
▁forced	-3302
▁theore	-3303
nowledge	-3304
▁contact	-3305
▁corpusc	-3306
▁implies	-3307
▁operate	-3308
▁outward	-3309
▁pleased	-3310
▁examined	-3311
▁negative	-3312
▁somewhat	-3313
▁totality	-3314
▁conjoined	-3315
▁doctrines	-3316
▁extensive	-3317
▁imagining	-3318
▁infinitum	-3319
▁abstracted	-3320
▁consistent	-3321
▁explaining	-3322
▁simultaneously	-3323
bs	-3324
▁'	-3325
day	-3326
ift	-3327
ipp	-3328
orp	-3329
ury	-3330
ush	-3331
▁9.	-3332
▁My	-3333
from	-3334
ustr	-3335
▁Ant	-3336
▁Par	-3337
▁Sub	-3338
▁bre	-3339
▁fel	-3340
▁flu	-3341
▁vit	-3342
escap	-3343
velop	-3344
▁Supp	-3345
▁Then	-3346
▁astr	-3347
▁bulk	-3348
▁fort	-3349
icious	-3350
quence	-3351
▁Latin	-3352
▁Where	-3353
▁atoms	-3354
▁labor	-3355
▁monad	-3356
▁omnip	-3357
▁train	-3358
ocrates	-3359
vations	-3360
▁attach	-3361
▁brings	-3362
▁coming	-3363
▁Besides	-3364
▁annexed	-3365
▁collect	-3366
▁deceive	-3367
▁distant	-3368
▁letters	-3369
▁suitable	-3370
▁theology	-3371
▁ultimate	-3372
etaphysics	-3373
▁religious	-3374
▁remaining	-3375
▁dependence	-3376
▁everywhere	-3377
▁disposition	-3378
▁explanation	-3379
▁circumstance	-3380
▁comprehension	-3381
gy	-3382
ks	-3383
▁X	-3384
eem	-3385
ema	-3386
ler	-3387
see	-3388
▁8.	-3389
▁Am	-3390
ling	-3391
oper	-3392
▁bit	-3393
▁pop	-3394
ondon	-3395
▁Even	-3396
▁sect	-3397
eneral	-3398
▁cease	-3399
▁heard	-3400
whether	-3401
▁Script	-3402
▁appeal	-3403
▁esteem	-3404
▁worthy	-3405
▁forever	-3406
▁profess	-3407
▁reduced	-3408
▁theolog	-3409
▁accurate	-3410
▁acquired	-3411
▁negation	-3412
▁Cambridge	-3413
▁incapable	-3414
▁structure	-3415
▁hypotheses	-3416
▁originally	-3417
▁empirically	-3418
▁particularly	-3419
▁impossibility	-3420
▁presupposition	-3421
18	-3422
5,	-3423
8,	-3424
ro	-3425
sh	-3426
ze	-3427
jor	-3428
oke	-3429
▁3,	-3430
akes	-3431
eter	-3432
▁198	-3433
▁edu	-3434
▁mut	-3435
▁une	-3436
avity	-3437
itate	-3438
▁Plat	-3439
▁five	-3440
▁gain	-3441
▁mast	-3442
▁reck	-3443
itudes	-3444
▁beast	-3445
cendent	-3446
ibility	-3447
ounding	-3448
▁admits	-3449
▁letter	-3450
▁perpet	-3451
▁describ	-3452
▁edition	-3453
▁friends	-3454
▁Secondly	-3455
▁children	-3456
▁assertion	-3457
▁attempted	-3458
▁considers	-3459
▁depending	-3460
▁conceiving	-3461
▁resistance	-3462
▁Accordingly	-3463
▁continually	-3464
▁expressions	-3465
▁inseparable	-3466
▁imperfection	-3467
▁representing	-3468
▁communication	-3469
▁contemplation	-3470
rh	-3471
eth	-3472
how	-3473
imp	-3474
▁St	-3475
agon	-3476
izes	-3477
ompl	-3478
uous	-3479
▁VII	-3480
▁hum	-3481
▁lik	-3482
▁pat	-3483
ables	-3484
enced	-3485
ingly	-3486
rence	-3487
▁educ	-3488
▁fund	-3489
▁lose	-3490
▁rect	-3491
▁tree	-3492
▁vast	-3493
finite	-3494
iguity	-3495
rupted	-3496
▁deser	-3497
▁distr	-3498
▁escap	-3499
▁watch	-3500
▁aggreg	-3501
▁arrive	-3502
▁barely	-3503
▁interm	-3504
▁larger	-3505
▁mental	-3506
▁schema	-3507
▁acquire	-3508
▁deduced	-3509
▁develop	-3510
▁motives	-3511
▁planets	-3512
▁special	-3513
▁accident	-3514
▁approach	-3515
▁conflict	-3516
▁intended	-3517
▁occurred	-3518
▁practice	-3519
▁affection	-3520
▁dangerous	-3521
▁occasions	-3522
▁supremely	-3523
▁importance	-3524
▁unthinking	-3525
▁differently	-3526
▁nonetheless	-3527
▁contradictory	-3528
14	-3529
no	-3530
New	-3531
oph	-3532
▁1,	-3533
▁Sy	-3534
iced	-3535
icip	-3536
orts	-3537
pers	-3538
▁Div	-3539
▁top	-3540
itten	-3541
otent	-3542
tered	-3543
there	-3544
▁fals	-3545
▁glob	-3546
▁gold	-3547
▁grow	-3548
▁mass	-3549
▁vice	-3550
▁wide	-3551
second	-3552
▁admir	-3553
▁artif	-3554
▁funct	-3555
▁gross	-3556
▁honor	-3557
▁ridic	-3558
▁schol	-3559
llogism	-3560
reatise	-3561
▁beauty	-3562
▁disapp	-3563
▁encoun	-3564
▁enumer	-3565
▁proves	-3566
▁purely	-3567
iscourse	-3568
▁ability	-3569
▁accompl	-3570
▁assured	-3571
▁defined	-3572
▁earlier	-3573
▁extends	-3574
▁judging	-3575
▁popular	-3576
existence	-3577
▁examples	-3578
▁increase	-3579
▁resemble	-3580
▁Cartesian	-3581
▁arbitrary	-3582
▁falsehood	-3583
▁functions	-3584
▁imprinted	-3585
▁privation	-3586
▁Meditation	-3587
▁consisting	-3588
▁transition	-3589
▁experiments	-3590
▁explication	-3591
▁uncertainty	-3592
▁conversation	-3593
▁inconceivable	-3594
In	-3595
ox	-3596
God	-3597
com	-3598
fer	-3599
let	-3600
atio	-3601
cons	-3602
inct	-3603
yrrh	-3604
▁Are	-3605
▁amb	-3606
▁god	-3607
astic	-3608
being	-3609
ician	-3610
inter	-3611
istic	-3612
light	-3613
sider	-3614
▁Mind	-3615
▁hind	-3616
▁obst	-3617
▁rank	-3618
▁warm	-3619
asmuch	-3620
either	-3621
erring	-3622
▁Other	-3623
▁brief	-3624
▁built	-3625
▁grace	-3626
▁skill	-3627
▁unper	-3628
▁yield	-3629
sistent	-3630
▁became	-3631
▁caused	-3632
▁claims	-3633
▁detail	-3634
▁endeav	-3635
▁likely	-3636
▁nerves	-3637
▁reckon	-3638
▁reveal	-3639
▁tastes	-3640
▁unable	-3641
Secondly	-3642
abstract	-3643
▁Thought	-3644
▁arrange	-3645
▁diverse	-3646
▁illustr	-3647
▁justice	-3648
▁readers	-3649
▁attempts	-3650
▁compared	-3651
▁disputes	-3652
▁idealism	-3653
▁probably	-3654
▁provides	-3655
▁Knowledge	-3656
▁construct	-3657
▁philosoph	-3658
▁presuppose	-3659
▁immortality	-3660
▁individuals	-3661
▁unavoidable	-3662
understanding	-3663
▁demonstrations	-3664
▁unintelligible	-3665
00	-3666
1,	-3667
15	-3668
vi	-3669
—_	-3670
▁12	-3671
▁Sh	-3672
exts	-3673
elled	-3674
▁ener	-3675
▁flow	-3676
▁play	-3677
▁sake	-3678
▁snow	-3679
onding	-3680
▁disor	-3681
▁enlar	-3682
▁happy	-3683
▁ident	-3684
▁pursu	-3685
ountain	-3686
▁agreed	-3687
▁attent	-3688
▁divide	-3689
▁leaves	-3690
▁motive	-3691
▁raised	-3692
orporeal	-3693
▁assumed	-3694
▁delight	-3695
▁falsity	-3696
▁schools	-3697
ciousness	-3698
▁asserted	-3699
▁combined	-3700
▁equality	-3701
▁modified	-3702
▁particle	-3703
▁yourself	-3704
▁exception	-3705
▁exclusive	-3706
▁immutable	-3707
▁persuaded	-3708
▁voluntary	-3709
▁characters	-3710
▁miraculous	-3711
▁simplicity	-3712
▁Furthermore	-3713
▁affirmation	-3714
▁foundations	-3715
▁geometrical	-3716
▁particulars	-3717
▁comprehended	-3718
▁modification	-3719
▁corresponding	-3720
.]	-3721
gr	-3722
alf	-3723
cil	-3724
ode	-3725
oud	-3726
oul	-3727
▁Em	-3728
ares	-3729
imer	-3730
intu	-3731
omas	-3732
▁12.	-3733
▁199	-3734
▁His	-3735
▁hop	-3736
▁ina	-3737
anged	-3738
iddle	-3739
insic	-3740
▁Only	-3741
▁athe	-3742
▁dece	-3743
▁fict	-3744
▁lost	-3745
▁myst	-3746
▁prud	-3747
▁subl	-3748
▁advan	-3749
▁awake	-3750
▁began	-3751
▁major	-3752
▁mixed	-3753
▁polit	-3754
▁remed	-3755
▁signs	-3756
uration	-3757
▁Essays	-3758
▁Letter	-3759
▁fundam	-3760
▁supern	-3761
Philosop	-3762
▁Natural	-3763
▁Suppose	-3764
▁carries	-3765
▁contriv	-3766
▁decrees	-3767
▁pleases	-3768
▁witness	-3769
▁activity	-3770
▁attended	-3771
▁darkness	-3772
▁accurately	-3773
▁instrument	-3774
▁prejudices	-3775
▁similarity	-3776
▁throughout	-3777
▁communicate	-3778
▁observations	-3779
.:	-3780
13	-3781
cl	-3782
▁<	-3783
▁),	-3784
▁10	-3785
▁7,	-3786
▁],	-3787
▁§.	-3788
ased	-3789
cent	-3790
ford	-3791
▁Com	-3792
▁Man	-3793
▁dim	-3794
▁hom	-3795
Essay	-3796
acket	-3797
andon	-3798
ellow	-3799
gomen	-3800
rench	-3801
skept	-3802
▁Comp	-3803
▁felt	-3804
▁harm	-3805
▁mine	-3806
▁push	-3807
reface	-3808
teness	-3809
▁asked	-3810
▁bears	-3811
▁books	-3812
▁going	-3813
▁lives	-3814
▁stars	-3815
▁dissol	-3816
▁explic	-3817
▁health	-3818
▁lesser	-3819
▁needed	-3820
▁plants	-3821
▁suspic	-3822
▁abandon	-3823
▁country	-3824
▁deliber	-3825
▁renders	-3826
ogitative	-3827
▁smallest	-3828
▁subtlety	-3829
▁dependent	-3830
▁imaginary	-3831
▁observing	-3832
▁possesses	-3833
▁syllogism	-3834
▁assertions	-3835
▁containing	-3836
▁maintained	-3837
▁phenomenon	-3838
▁proceeding	-3839
▁thoroughly	-3840
▁Meditations	-3841
▁independently	-3842
20	-3843
aft	-3844
iny	-3845
mis	-3846
pos	-3847
sid	-3848
sum	-3849
urb	-3850
ayle	-3851
itle	-3852
▁App	-3853
▁Jud	-3854
▁sal	-3855
▁unl	-3856
abeth	-3857
alile	-3858
ialog	-3859
thics	-3860
uring	-3861
▁econ	-3862
▁excl	-3863
▁king	-3864
▁soft	-3865
▁trad	-3866
▁vent	-3867
actory	-3868
ediate	-3869
▁Peter	-3870
▁annul	-3871
▁dynam	-3872
▁marks	-3873
▁offer	-3874
▁vital	-3875
certain	-3876
istence	-3877
▁interv	-3878
▁recall	-3879
▁scient	-3880
material	-3881
oduction	-3882
▁Letters	-3883
▁anticip	-3884
▁benevol	-3885
▁gravity	-3886
▁perplex	-3887
▁picture	-3888
▁process	-3889
▁putting	-3890
▁surface	-3891
▁trouble	-3892
▁convince	-3893
▁disposed	-3894
▁efficacy	-3895
▁exercise	-3896
▁formally	-3897
▁measures	-3898
▁moreover	-3899
▁precedes	-3900
▁problems	-3901
▁respects	-3902
substratum	-3903
▁Scripture	-3904
▁agreeable	-3905
▁prejudice	-3906
▁signifies	-3907
▁suggested	-3908
▁suspicion	-3909
▁variation	-3910
▁repugnance	-3911
▁uniformity	-3912
▁appropriate	-3913
▁conceivable	-3914
▁controversy	-3915
▁speculation	-3916
▁completeness	-3917
43	-3918
?"	-3919
rop	-3920
▁Ed	-3921
▁El	-3922
acon	-3923
ibly	-3924
iety	-3925
▁(17	-3926
▁11.	-3927
▁dil	-3928
after	-3929
idden	-3930
osity	-3931
power	-3932
xford	-3933
▁coll	-3934
▁fing	-3935
▁glad	-3936
▁laid	-3937
▁live	-3938
▁ours	-3939
▁refr	-3940
▁wood	-3941
erious	-3942
itting	-3943
▁Saint	-3944
▁blame	-3945
▁calls	-3946
▁fruit	-3947
▁ingen	-3948
▁wrote	-3949
▁French	-3950
▁chance	-3951
▁conser	-3952
▁energy	-3953
▁heaven	-3954
▁infall	-3955
▁liable	-3956
▁middle	-3957
▁yellow	-3958
▁closely	-3959
▁doubted	-3960
▁exhibit	-3961
▁nominal	-3962
▁systems	-3963
▁texture	-3964
▁written	-3965
Discourse	-3966
▁acquaint	-3967
▁bringing	-3968
▁directed	-3969
▁movement	-3970
▁pertains	-3971
▁profound	-3972
▁singular	-3973
▁tendency	-3974
▁writings	-3975
▁apprehend	-3976
▁encounter	-3977
▁intention	-3978
▁signified	-3979
▁advantages	-3980
▁generation	-3981
▁absurdities	-3982
▁dialectical	-3983
▁cosmological	-3984
▁transcendent	-3985
▁correspondence	-3986
6,	-3987
9,	-3988
ey	-3989
dem	-3990
gan	-3991
▁14	-3992
▁_(	-3993
adox	-3994
ager	-3995
aise	-3996
avag	-3997
iest	-3998
iful	-3999
lies	-4000
odes	-4001
such	-4002
vere	-4003
▁10.	-4004
▁Rel	-4005
▁Wor	-4006
▁vel	-4007
acing	-4008
antly	-4009
ested	-4010
tical	-4011
▁emin	-4012
▁fine	-4013
▁gods	-4014
▁hour	-4015
▁moon	-4016
▁took	-4017
▁vary	-4018
alytic	-4019
ceding	-4020
ematic	-4021
upreme	-4022
▁Bacon	-4023
▁Bayle	-4024
▁fluid	-4025
▁incom	-4026
▁noise	-4027
▁regul	-4028
▁stead	-4029
▁versa	-4030
imitive	-4031
▁ascend	-4032
▁beasts	-4033
▁compon	-4034
▁easier	-4035
▁excite	-4036
▁filled	-4037
▁freely	-4038
▁nearer	-4039
▁nobody	-4040
▁repeat	-4041
▁secure	-4042
▁thesis	-4043
▁turned	-4044
▁vision	-4045
extended	-4046
plicable	-4047
▁Because	-4048
▁Preface	-4049
▁conveni	-4050
▁curious	-4051
▁dealing	-4052
▁desires	-4053
▁discour	-4054
▁economy	-4055
▁immense	-4056
▁neglect	-4057
▁touched	-4058
▁assuming	-4059
▁circular	-4060
▁extravag	-4061
▁inasmuch	-4062
▁inherent	-4063
▁instruct	-4064
▁involved	-4065
▁sequence	-4066
▁treatise	-4067
▁wherever	-4068
▁gentleman	-4069
▁gradually	-4070
▁identical	-4071
▁preserved	-4072
▁tradition	-4073
▁separation	-4074
▁Metaphysics	-4075
▁corresponds	-4076
▁discoveries	-4077
▁fundamental	-4078
▁instruments	-4079
▁combinations	-4080
▁inexplicable	-4081
▁distinguishes	-4082
▁mathematicians	-4083
▁understandings	-4084
7,	-4085
ms	-4086
And	-4087
ady	-4088
arb	-4089
cau	-4090
ibr	-4091
ils	-4092
mit	-4093
mor	-4094
ohn	-4095
yle	-4096
aged	-4097
eply	-4098
etyp	-4099
even	-4100
irth	-4101
oint	-4102
vert	-4103
▁fat	-4104
Prole	-4105
ander	-4106
synth	-4107
worth	-4108
▁Time	-4109
▁Were	-4110
▁Your	-4111
▁depr	-4112
▁init	-4113
▁insu	-4114
▁late	-4115
▁loss	-4116
▁safe	-4117
▁surp	-4118
atible	-4119
edness	-4120
gomena	-4121
person	-4122
yrrhon	-4123
▁acute	-4124
▁below	-4125
▁bread	-4126
▁disse	-4127
▁irreg	-4128
▁merit	-4129
▁ordin	-4130
▁simpl	-4131
▁trace	-4132
▁value	-4133
▁veloc	-4134
▁Thomas	-4135
▁angels	-4136
▁astron	-4137
▁chimer	-4138
▁effort	-4139
▁expand	-4140
▁mutual	-4141
▁perish	-4142
▁shapes	-4143
although	-4144
ialogues	-4145
ternally	-4146
▁altered	-4147
▁amounts	-4148
▁chapter	-4149
▁foreign	-4150
▁reaches	-4151
▁showing	-4152
▁skeptic	-4153
▁smaller	-4154
▁sublime	-4155
▁writing	-4156
according	-4157
knowledge	-4158
▁anywhere	-4159
▁attained	-4160
▁building	-4161
▁doubting	-4162
▁imagines	-4163
▁intuited	-4164
▁likeness	-4165
▁standard	-4166
▁Christian	-4167
▁coherence	-4168
▁comparing	-4169
▁completed	-4170
▁excellent	-4171
▁irregular	-4172
▁possessed	-4173
▁pronounce	-4174
Meditations	-4175
▁continuous	-4176
▁permanence	-4177
▁recognized	-4178
▁remarkable	-4179
▁ultimately	-4180
▁contrivance	-4181
▁presupposed	-4182
▁acquaintance	-4183
▁proportional	-4184
▁satisfactory	-4185
▁simultaneous	-4186
▁universality	-4187
Qu	-4188
io	-4189
na	-4190
For	-4191
bel	-4192
hab	-4193
occ	-4194
▁2,	-4195
▁].	-4196
alle	-4197
ator	-4198
bles	-4199
enty	-4200
esth	-4201
ouch	-4202
sych	-4203
▁Per	-4204
▁bot	-4205
▁cal	-4206
▁fle	-4207
▁pal	-4208
▁pay	-4209
▁typ	-4210
gment	-4211
ndian	-4212
poral	-4213
space	-4214
tract	-4215
▁ante	-4216
▁anth	-4217
▁pros	-4218
▁soph	-4219
ackett	-4220
alileo	-4221
cience	-4222
isions	-4223
odeict	-4224
oubted	-4225
spirit	-4226
▁argue	-4227
▁artic	-4228
▁disci	-4229
▁glory	-4230
▁speed	-4231
▁strik	-4232
▁throw	-4233
▁turns	-4234
connect	-4235
dequate	-4236
▁affair	-4237
▁around	-4238
▁concre	-4239
▁deduce	-4240
▁firmly	-4241
▁hidden	-4242
▁judged	-4243
▁master	-4244
▁passed	-4245
▁subord	-4246
▁survey	-4247
ceptible	-4248
▁Supreme	-4249
▁Without	-4250
▁authors	-4251
▁clearer	-4252
▁despite	-4253
▁nowhere	-4254
▁paradox	-4255
▁passing	-4256
▁premise	-4257
▁reading	-4258
▁suffice	-4259
▁superst	-4260
▁suspend	-4261
▁treated	-4262
necessary	-4263
▁antinomy	-4264
▁apodeict	-4265
▁complain	-4266
▁disorder	-4267
▁emotions	-4268
▁existent	-4269
▁function	-4270
▁learning	-4271
▁obtained	-4272
▁restrict	-4273
▁specific	-4274
troduction	-4275
▁beautiful	-4276
▁education	-4277
▁foregoing	-4278
▁invisible	-4279
▁organized	-4280
▁skeptical	-4281
▁supported	-4282
▁transform	-4283
▁adequately	-4284
▁boundaries	-4285
▁collection	-4286
▁continuity	-4287
▁discussion	-4288
▁existences	-4289
▁ordinarily	-4290
▁homogeneous	-4291
▁theologians	-4292
▁translation	-4293
consciousness	-4294
▁intermediate	-4295
▁supernatural	-4296
transcendental	-4297
▁contradictions	-4298
19	-4299
55	-4300
**.	-4301
.:]	-4302
aph	-4303
ror	-4304
uum	-4305
val	-4306
▁13	-4307
▁8,	-4308
▁vo	-4309
ansl	-4310
aper	-4311
aust	-4312
chie	-4313
cipr	-4314
dden	-4315
inal	-4316
odig	-4317
osen	-4318
quir	-4319
rupt	-4320
sing	-4321
▁14.	-4322
▁17.	-4323
▁Int	-4324
▁aid	-4325
▁hes	-4326
▁med	-4327
▁mel	-4328
▁mix	-4329
▁sil	-4330
▁spr	-4331
▁viv	-4332
first	-4333
iding	-4334
ortun	-4335
ourth	-4336
rance	-4337
under	-4338
▁Epic	-4339
▁High	-4340
▁days	-4341
▁ears	-4342
▁exec	-4343
▁join	-4344
▁scru	-4345
▁told	-4346
▁whit	-4347
London	-4348
ciproc	-4349
gments	-4350
imilar	-4351
rength	-4352
struse	-4353
▁Truth	-4354
▁birth	-4355
▁conce	-4356
▁falls	-4357
▁fault	-4358
▁feels	-4359
▁heavy	-4360
▁local	-4361
▁medit	-4362
▁wants	-4363
imental	-4364
isabeth	-4365
▁adjust	-4366
▁associ	-4367
▁framed	-4368
▁modest	-4369
▁slight	-4370
▁sudden	-4371
▁Perhaps	-4372
▁anteced	-4373
▁company	-4374
▁counter	-4375
▁denomin	-4376
▁differs	-4377
▁heavens	-4378
▁lacking	-4379
▁proving	-4380
▁resolve	-4381
▁results	-4382
▁sensing	-4383
▁virtues	-4384
essential	-4385
▁Although	-4386
▁Concepts	-4387
▁allowing	-4388
▁arranged	-4389
▁assigned	-4390
▁expected	-4391
▁grounded	-4392
▁inclined	-4393
▁includes	-4394
▁mountain	-4395
▁rendered	-4396
▁supposes	-4397
▁transfer	-4398
▁weakness	-4399
▁Substance	-4400
▁continues	-4401
▁discovers	-4402
▁performed	-4403
▁perpetual	-4404
▁posterior	-4405
▁pretended	-4406
etaphysical	-4407
▁resembling	-4408
▁systematic	-4409
▁abstraction	-4410
▁conceptions	-4411
▁inclination	-4412
▁investigation	-4413
Ch	-4414
my	-4415
icr	-4416
uel	-4417
▁6,	-4418
▁ca	-4419
▁du	-4420
hand	-4421
nest	-4422
stem	-4423
▁Dem	-4424
▁ado	-4425
▁big	-4426
▁fab	-4427
▁hot	-4428
Theod	-4429
aming	-4430
iring	-4431
since	-4432
umber	-4433
▁atom	-4434
▁bold	-4435
▁cour	-4436
▁curi	-4437
▁foll	-4438
▁iron	-4439
▁prec	-4440
▁rare	-4441
▁remo	-4442
▁sets	-4443
cedure	-4444
motion	-4445
otence	-4446
terior	-4447
urning	-4448
▁achie	-4449
▁night	-4450
▁stick	-4451
▁topic	-4452
▁veget	-4453
▁Divine	-4454
▁altern	-4455
▁argues	-4456
▁chosen	-4457
▁denies	-4458
▁materi	-4459
▁refers	-4460
▁spaces	-4461
▁suffer	-4462
▁supply	-4463
▁thirst	-4464
▁topics	-4465
anslated	-4466
esthetic	-4467
▁Hackett	-4468
▁Whether	-4469
▁compare	-4470
▁denying	-4471
▁descend	-4472
▁disturb	-4473
▁endless	-4474
▁looking	-4475
▁partake	-4476
▁pattern	-4477
▁presume	-4478
▁prevail	-4479
▁remarks	-4480
▁section	-4481
▁seeming	-4482
▁totally	-4483
▁whoever	-4484
preceding	-4485
sensation	-4486
▁abstruse	-4487
▁formerly	-4488
▁impenetr	-4489
▁instinct	-4490
▁machines	-4491
▁prescrib	-4492
▁reciproc	-4493
▁velocity	-4494
▁conceives	-4495
▁concluded	-4496
▁destroyed	-4497
▁examining	-4498
▁impressed	-4499
▁including	-4500
▁inconveni	-4501
▁proceeded	-4502
▁subjected	-4503
▁triangles	-4504
▁undoubted	-4505
▁Objections	-4506
▁assumption	-4507
▁confidence	-4508
▁government	-4509
▁posteriori	-4510
▁scientific	-4511
▁instruction	-4512
▁surrounding	-4513
▁inclinations	-4514
▁demonstrative	-4515
82	-4516
An	-4517
ls	-4518
me	-4519
abs	-4520
arg	-4521
ata	-4522
inc	-4523
lue	-4524
rum	-4525
ths	-4526
▁21	-4527
▁Me	-4528
▁ep	-4529
avid	-4530
igor	-4531
ords	-4532
orph	-4533
part	-4534
pate	-4535
pret	-4536
▁aug	-4537
acuum	-4538
asing	-4539
asion	-4540
odies	-4541
▁Clar	-4542
▁Gree	-4543
▁Lady	-4544
▁Most	-4545
▁Pray	-4546
▁Publ	-4547
▁city	-4548
▁micr	-4549
▁nour	-4550
▁went	-4551
establ	-4552
itated	-4553
nature	-4554
▁Paris	-4555
▁Plato	-4556
▁While	-4557
▁paper	-4558
▁ready	-4559
asiness	-4560
inciple	-4561
stances	-4562
▁agrees	-4563
▁bitter	-4564
▁cohere	-4565
▁famous	-4566
▁highly	-4567
▁nearly	-4568
▁prodig	-4569
▁propag	-4570
▁stones	-4571
▁twenty	-4572
velation	-4573
▁Neither	-4574
▁affects	-4575
▁moments	-4576
▁posited	-4577
▁precede	-4578
▁reached	-4579
▁wanting	-4580
▁advanced	-4581
▁answered	-4582
▁confined	-4583
▁converse	-4584
▁critical	-4585
▁diminish	-4586
▁dogmatic	-4587
▁exterior	-4588
▁governed	-4589
▁hardness	-4590
▁numerous	-4591
▁personal	-4592
▁preceded	-4593
▁presents	-4594
▁reconcil	-4595
▁repeated	-4596
▁sleeping	-4597
▁strength	-4598
▁community	-4599
▁confirmed	-4600
▁curiosity	-4601
▁elsewhere	-4602
▁penetrate	-4603
▁procedure	-4604
▁similarly	-4605
Prolegomena	-4606
▁Experience	-4607
▁applicable	-4608
▁artificial	-4609
▁confusedly	-4610
▁consequent	-4611
▁introduced	-4612
▁magnitudes	-4613
▁preference	-4614
▁reasonably	-4615
withstanding	-4616
▁apprehended	-4617
▁constituted	-4618
▁exclusively	-4619
▁experiences	-4620
▁extravagant	-4621
▁incorporeal	-4622
▁speculations	-4623
10	-4624
42	-4625
af	-4626
aul	-4627
osc	-4628
ows	-4629
ued	-4630
way	-4631
▁30	-4632
▁34	-4633
▁35	-4634
▁VI	-4635
▁od	-4636
apol	-4637
same	-4638
when	-4639
▁13.	-4640
▁16.	-4641
▁Sir	-4642
▁Who	-4643
▁hun	-4644
▁lim	-4645
▁low	-4646
▁nak	-4647
There	-4648
esion	-4649
given	-4650
irect	-4651
itect	-4652
quiry	-4653
▁John	-4654
▁Upon	-4655
▁adds	-4656
▁alle	-4657
▁cast	-4658
▁clar	-4659
▁cult	-4660
▁genu	-4661
▁indu	-4662
▁inev	-4663
▁plau	-4664
▁sett	-4665
▁shad	-4666
▁slow	-4667
apolis	-4668
ovable	-4669
simple	-4670
▁black	-4671
▁equiv	-4672
▁essay	-4673
▁facts	-4674
▁intim	-4675
▁multi	-4676
▁rerum	-4677
▁style	-4678
▁total	-4679
▁write	-4680
mentary	-4681
▁Clarke	-4682
▁adding	-4683
▁credit	-4684
▁defend	-4685
▁fitted	-4686
▁height	-4687
▁histor	-4688
▁marvel	-4689
▁traces	-4690
▁absence	-4691
▁antagon	-4692
▁demands	-4693
▁desired	-4694
▁earnest	-4695
▁embrace	-4696
▁entered	-4697
▁falling	-4698
▁justify	-4699
▁leaving	-4700
▁microsc	-4701
▁seeking	-4702
▁venture	-4703
something	-4704
▁ancients	-4705
▁archetyp	-4706
▁changing	-4707
▁doubtful	-4708
▁dreaming	-4709
▁esteemed	-4710
▁happened	-4711
▁indicate	-4712
▁receives	-4713
▁strictly	-4714
▁stronger	-4715
determined	-4716
perception	-4717
▁analogies	-4718
▁confessed	-4719
▁continual	-4720
▁dynamical	-4721
▁endeavors	-4722
▁mediately	-4723
▁receiving	-4724
▁witnesses	-4725
established	-4726
▁attraction	-4727
▁conviction	-4728
▁limitation	-4729
▁propensity	-4730
▁punishment	-4731
▁revelation	-4732
▁separately	-4733
▁unextended	-4734
▁arrangement	-4735
▁coexistence	-4736
▁omnipotence	-4737
▁reflections	-4738
▁spontaneity	-4739
▁Introduction	-4740
▁communicated	-4741
▁inconsistent	-4742
▁superstition	-4743
▁notwithstanding	-4744
12	-4745
21	-4746
24	-4747
gu	-4748
bal	-4749
div	-4750
fin	-4751
ges	-4752
ots	-4753
sol	-4754
tom	-4755
▁20	-4756
▁24	-4757
▁25	-4758
▁39	-4759
▁40	-4760
What	-4761
atic	-4762
imag	-4763
ithm	-4764
ldom	-4765
only	-4766
pure	-4767
ture	-4768
uing	-4769
urch	-4770
▁15.	-4771
▁166	-4772
▁170	-4773
▁18.	-4774
▁Log	-4775
▁Luc	-4776
▁Men	-4777
▁civ	-4778
▁fix	-4779
▁sac	-4780
▁tor	-4781
Third	-4782
ators	-4783
avior	-4784
entia	-4785
erman	-4786
ishop	-4787
▁Paul	-4788
▁_(16	-4789
▁dead	-4790
▁food	-4791
▁purs	-4792
▁stup	-4793
astics	-4794
retius	-4795
▁Ariew	-4796
▁Cause	-4797
▁Reply	-4798
▁Their	-4799
▁clock	-4800
▁steps	-4801
▁today	-4802
Thirdly	-4803
thought	-4804
without	-4805
▁agents	-4806
▁allows	-4807
▁annull	-4808
▁bottom	-4809
▁copies	-4810
▁decree	-4811
▁define	-4812
▁enable	-4813
▁fourth	-4814
▁gotten	-4815
▁inward	-4816
▁praise	-4817
▁resist	-4818
▁reward	-4819
▁seldom	-4820
▁spread	-4821
▁subsum	-4822
▁temper	-4823
▁worlds	-4824
▁Pyrrhon	-4825
▁briefly	-4826
▁deserve	-4827
▁furnish	-4828
▁genuine	-4829
▁refrain	-4830
▁service	-4831
▁walking	-4832
isibility	-4833
▁Critique	-4834
▁accepted	-4835
▁improper	-4836
▁rejected	-4837
Principles	-4838
▁Elisabeth	-4839
▁architect	-4840
▁primitive	-4841
▁Publishing	-4842
▁Translated	-4843
▁beforehand	-4844
▁compounded	-4845
▁contribute	-4846
▁reflecting	-4847
▁variations	-4848
▁accompanied	-4849
▁progression	-4850
▁discoverable	-4851
▁successively	-4852
40	-4853
53	-4854
],	-4855
az	-4856
dr	-4857
–9	-4858
aes	-4859
can	-4860
cip	-4861
pro	-4862
umb	-4863
▁23	-4864
▁33	-4865
▁38	-4866
▁ur	-4867
alog	-4868
anim	-4869
come	-4870
draw	-4871
emma	-4872
hers	-4873
hold	-4874
ifth	-4875
ilin	-4876
oted	-4877
rent	-4878
they	-4879
▁11,	-4880
▁16,	-4881
▁Any	-4882
▁Two	-4883
▁ada	-4884
▁deb	-4885
▁dry	-4886
▁odd	-4887
▁sea	-4888
▁sym	-4889
angle	-4890
arbar	-4891
arest	-4892
ensur	-4893
erity	-4894
ommod	-4895
plete	-4896
while	-4897
▁Does	-4898
▁copy	-4899
▁drop	-4900
icular	-4901
▁acted	-4902
▁angle	-4903
▁cloud	-4904
▁early	-4905
▁globe	-4906
▁guess	-4907
▁hopes	-4908
▁idols	-4909
▁indul	-4910
▁naked	-4911
▁piety	-4912
▁plant	-4913
▁scrut	-4914
▁voice	-4915
▁young	-4916
essence	-4917
ilinear	-4918
ilities	-4919
ruption	-4920
▁adhere	-4921
▁condem	-4922
▁depart	-4923
▁enters	-4924
▁escape	-4925
▁father	-4926
▁gladly	-4927
▁impart	-4928
▁lively	-4929
▁looked	-4930
▁natura	-4931
▁occult	-4932
▁recomm	-4933
▁refute	-4934
▁review	-4935
▁school	-4936
▁select	-4937
▁superf	-4938
ountered	-4939
umerable	-4940
▁Company	-4941
▁General	-4942
▁affairs	-4943
▁applies	-4944
▁augment	-4945
▁benefit	-4946
▁enlight	-4947
▁fiction	-4948
▁improve	-4949
▁leading	-4950
▁springs	-4951
empirical	-4952
▁Highness	-4953
▁accommod	-4954
▁divinity	-4955
▁fictions	-4956
▁operates	-4957
▁remained	-4958
▁skeptics	-4959
▁accounted	-4960
▁attentive	-4961
▁described	-4962
▁furnished	-4963
▁immovable	-4964
▁mechanism	-4965
▁obviously	-4966
▁positions	-4967
▁wonderful	-4968
▁exposition	-4969
▁friendship	-4970
▁inadequate	-4971
▁materially	-4972
▁ridiculous	-4973
▁encountered	-4974
▁experienced	-4975
▁perceivable	-4976
▁presumption	-4977
▁productions	-4978
▁theoretical	-4979
▁dispositions	-4980
▁suppositions	-4981
▁unperceiving	-4982
▁characteristic	-4983
)—	-4984
23	-4985
54	-4986
do	-4987
fr	-4988
▁=	-4989
How	-4990
acc	-4991
ele	-4992
elf	-4993
isk	-4994
lex	-4995
opp	-4996
▁).	-4997
▁36	-4998
That	-4999
ancy	-5000
ging	-5001
vant	-5002
▁169	-5003
▁21.	-5004
▁23.	-5005
▁ast	-5006
▁bal	-5007
▁cel	-5008
▁dut	-5009
▁mad	-5010
imary	-5011
ipped	-5012
ropom	-5013
▁....	-5014
▁Both	-5015
▁dise	-5016
▁enem	-5017
▁forg	-5018
▁gone	-5019
▁hast	-5020
▁lest	-5021
▁prep	-5022
▁rese	-5023
▁sand	-5024
elling	-5025
etical	-5026
iguous	-5027
itably	-5028
ration	-5029
worthy	-5030
▁avail	-5031
▁axiom	-5032
▁compr	-5033
▁draft	-5034
▁imply	-5035
▁looks	-5036
▁nonex	-5037
▁resid	-5038
▁seeks	-5039
▁swift	-5040
▁trial	-5041
actions	-5042
eripate	-5043
ickness	-5044
ificant	-5045
iversal	-5046
ization	-5047
▁System	-5048
▁asking	-5049
▁causal	-5050
▁ceases	-5051
▁center	-5052
▁cultiv	-5053
▁fairly	-5054
▁hunger	-5055
▁indisp	-5056
▁insign	-5057
▁judges	-5058
▁linked	-5059
▁medium	-5060
▁morals	-5061
▁obstac	-5062
▁pursue	-5063
▁recept	-5064
▁respon	-5065
▁smells	-5066
▁termed	-5067
Socrates	-5068
Treatise	-5069
absolute	-5070
▁Galileo	-5071
▁Thirdly	-5072
▁affords	-5073
▁chiefly	-5074
▁confuse	-5075
▁consult	-5076
▁decided	-5077
▁forming	-5078
▁fortune	-5079
▁methods	-5080
▁propose	-5081
▁refuted	-5082
▁servant	-5083
Descartes	-5084
hematical	-5085
intuition	-5086
ropomorph	-5087
▁Emotions	-5088
▁believes	-5089
▁contempt	-5090
▁destroys	-5091
▁explicit	-5092
▁faithful	-5093
▁passages	-5094
▁persuade	-5095
▁research	-5096
▁simplest	-5097
▁surfaces	-5098
▁unreason	-5099
▁Lucretius	-5100
▁admirable	-5101
▁affecting	-5102
▁ascertain	-5103
▁concourse	-5104
▁invention	-5105
▁mechanics	-5106
▁occurring	-5107
▁preserves	-5108
▁repugnant	-5109
▁Cartesians	-5110
▁antecedent	-5111
▁assistance	-5112
▁cogitative	-5113
▁corpuscles	-5114
▁fallacious	-5115
▁incomplete	-5116
▁infallible	-5117
▁manifestly	-5118
▁providence	-5119
▁resolution	-5120
▁alterations	-5121
▁benevolence	-5122
▁efficacious	-5123
▁innumerable	-5124
▁significant	-5125
▁annihilation	-5126
▁experimental	-5127
▁incompatible	-5128
▁unreasonable	-5129
▁insignificant	-5130
1)	-5131
84	-5132
It	-5133
Sp	-5134
Tr	-5135
ae	-5136
All	-5137
amp	-5138
arp	-5139
bor	-5140
bur	-5141
des	-5142
iet	-5143
iss	-5144
ram	-5145
▁22	-5146
▁26	-5147
▁2:	-5148
comp	-5149
happ	-5150
ican	-5151
ixth	-5152
oken	-5153
oyle	-5154
tion	-5155
▁13,	-5156
▁168	-5157
▁19.	-5158
▁joy	-5159
▁tow	-5160
▁ves	-5161
asure	-5162
ement	-5163
ester	-5164
itled	-5165
ommun	-5166
piric	-5167
retch	-5168
think	-5169
▁Arch	-5170
▁Reid	-5171
▁Will	-5172
▁ease	-5173
▁fast	-5174
▁half	-5175
▁kept	-5176
▁plen	-5177
▁rich	-5178
▁save	-5179
▁tang	-5180
Indian	-5181
anding	-5182
appear	-5183
estial	-5184
estion	-5185
inable	-5186
▁Boyle	-5187
▁David	-5188
▁Essay	-5189
▁afore	-5190
▁arose	-5191
▁cloth	-5192
▁decis	-5193
▁decre	-5194
▁denom	-5195
▁deriv	-5196
▁illum	-5197
▁inert	-5198
▁limbs	-5199
▁liter	-5200
▁noble	-5201
▁plans	-5202
▁psych	-5203
▁seven	-5204
▁shock	-5205
▁troub	-5206
▁units	-5207
entions	-5208
▁Bishop	-5209
▁asleep	-5210
▁aspect	-5211
▁attack	-5212
▁defici	-5213
▁endure	-5214
▁extrem	-5215
▁finger	-5216
▁genius	-5217
▁marked	-5218
▁multip	-5219
▁potent	-5220
▁reduce	-5221
▁showed	-5222
▁stated	-5223
▁vanish	-5224
▁vessel	-5225
ceptions	-5226
ithmetic	-5227
philosop	-5228
reements	-5229
▁Certain	-5230
▁Through	-5231
▁comment	-5232
▁concess	-5233
▁contend	-5234
▁declare	-5235
▁deliver	-5236
▁exhaust	-5237
▁fancies	-5238
▁flatter	-5239
▁noticed	-5240
▁orderly	-5241
▁portion	-5242
▁project	-5243
▁settled	-5244
▁talking	-5245
obability	-5246
▁ascribed	-5247
▁communic	-5248
▁deceiver	-5249
▁decision	-5250
▁delusion	-5251
▁entering	-5252
▁frequent	-5253
▁inferior	-5254
▁informed	-5255
▁mistakes	-5256
▁starting	-5257
▁suffices	-5258
▁veracity	-5259
▁Aesthetic	-5260
▁celestial	-5261
▁cognizing	-5262
▁compelled	-5263
▁correctly	-5264
▁criticism	-5265
▁deception	-5266
▁dialectic	-5267
▁distances	-5268
▁eminently	-5269
▁intrinsic	-5270
▁resembles	-5271
▁separable	-5272
▁sweetness	-5273
▁underlies	-5274
▁convincing	-5275
▁dimensions	-5276
▁occasional	-5277
▁annihilated	-5278
▁conformable	-5279
▁corpuscular	-5280
▁subordinate	-5281
▁subsistence	-5282
▁denomination	-5283
▁indifference	-5284
▁mechanically	-5285
27	-5286
85	-5287
AT	-5288
Ex	-5289
Re	-5290
ii	-5291
ns	-5292
–4	-5293
aac	-5294
cus	-5295
luc	-5296
tem	-5297
uck	-5298
▁1:	-5299
▁28	-5300
▁31	-5301
▁66	-5302
▁[[	-5303
▁da	-5304
bert	-5305
lesh	-5306
oman	-5307
orum	-5308
uses	-5309
▁167	-5310
▁24.	-5311
▁25.	-5312
▁Amo	-5313
▁May	-5314
▁Mor	-5315
▁Old	-5316
▁cru	-5317
▁cub	-5318
▁emb	-5319
▁hur	-5320
▁rad	-5321
▁smo	-5322
▁whe	-5323
▁win	-5324
ardon	-5325
aving	-5326
cient	-5327
contr	-5328
habit	-5329
icine	-5330
ierre	-5331
incip	-5332
isure	-5333
opern	-5334
rowed	-5335
usual	-5336
▁Also	-5337
▁Holy	-5338
▁True	-5339
▁chem	-5340
▁encl	-5341
▁rash	-5342
Essays	-5343
Ethics	-5344
ifying	-5345
itious	-5346
ulates	-5347
▁Ideal	-5348
▁Lemma	-5349
▁Modes	-5350
▁abuse	-5351
▁bless	-5352
▁break	-5353
▁daily	-5354
▁dilig	-5355
▁diver	-5356
▁drink	-5357
▁exerc	-5358
▁flesh	-5359
▁guide	-5360
▁indis	-5361
▁lying	-5362
▁moder	-5363
▁tempt	-5364
▁texts	-5365
▁title	-5366
▁unequ	-5367
ilitude	-5368
nothing	-5369
▁Effect	-5370
▁bodily	-5371
▁detect	-5372
▁errone	-5373
▁hinder	-5374
▁intend	-5375
▁issues	-5376
▁prepar	-5377
▁propri	-5378
▁punish	-5379
▁refuse	-5380
▁speaks	-5381
▁strike	-5382
▁suited	-5383
▁thence	-5384
▁transp	-5385
esterday	-5386
etically	-5387
▁answers	-5388
▁balance	-5389
▁calling	-5390
▁caution	-5391
▁context	-5392
▁discipl	-5393
▁distrib	-5394
▁drawing	-5395
▁endures	-5396
▁engaged	-5397
▁exclude	-5398
▁mixture	-5399
▁movable	-5400
▁omitted	-5401
▁private	-5402
▁refined	-5403
▁relates	-5404
ification	-5405
secondary	-5406
▁........	-5407
▁Consider	-5408
▁Peripate	-5409
▁bestowed	-5410
▁borrowed	-5411
▁entities	-5412
▁entitled	-5413
▁measured	-5414
▁observes	-5415
▁premises	-5416
▁prudence	-5417
▁regulate	-5418
▁subsumed	-5419
▁withdraw	-5420
▁Principle	-5421
▁astronomy	-5422
▁geometers	-5423
▁greatness	-5424
▁increased	-5425
▁languages	-5426
▁permitted	-5427
▁pleasures	-5428
▁reflected	-5429
▁resulting	-5430
▁somewhere	-5431
▁contiguity	-5432
▁explicated	-5433
▁intimately	-5434
▁positively	-5435
▁researches	-5436
▁attributing	-5437
▁concurrence	-5438
▁discovering	-5439
▁entertained	-5440
Philosophical	-5441
▁continuation	-5442
▁divisibility	-5443
▁intervention	-5444
▁materialists	-5445
▁preservation	-5446
▁simultaneity	-5447
▁anthropomorph	-5448
▁comprehensible	-5449
▁significations	-5450
47	-5451
83	-5452
9/	-5453
;_	-5454
>>	-5455
ON	-5456
ca	-5457
–6	-5458
.),	-5459
But	-5460
ede	-5461
ero	-5462
his	-5463
hor	-5464
iam	-5465
oad	-5466
rif	-5467
tin	-5468
▁32	-5469
▁43	-5470
▁<<	-5471
▁Gr	-5472
This	-5473
aign	-5474
augh	-5475
cide	-5476
cile	-5477
fied	-5478
imed	-5479
isen	-5480
look	-5481
olic	-5482
phys	-5483
rest	-5484
soul	-5485
▁20.	-5486
▁22.	-5487
▁26.	-5488
▁Col	-5489
▁ago	-5490
▁cut	-5491
▁inj	-5492
▁reb	-5493
aesar	-5494
eries	-5495
igion	-5496
ilege	-5497
ister	-5498
lucid	-5499
ustry	-5500
uthor	-5501
▁Idea	-5502
▁anat	-5503
▁clos	-5504
▁duty	-5505
▁face	-5506
▁fate	-5507
▁fish	-5508
▁gard	-5509
▁mill	-5510
▁mort	-5511
▁nice	-5512
▁pati	-5513
▁plur	-5514
▁prot	-5515
▁risk	-5516
▁seed	-5517
▁unto	-5518
anship	-5519
iality	-5520
imited	-5521
inated	-5522
reedom	-5523
▁Isaac	-5524
▁Sense	-5525
▁basic	-5526
▁block	-5527
▁civil	-5528
▁deals	-5529
▁endow	-5530
▁fleet	-5531
▁heads	-5532
▁legit	-5533
▁novel	-5534
▁posit	-5535
▁print	-5536
▁spend	-5537
▁trave	-5538
▁unite	-5539
▁weigh	-5540
actical	-5541
ancholy	-5542
animate	-5543
inceton	-5544
irectly	-5545
liberty	-5546
▁Oxford	-5547
▁Simple	-5548
▁Spirit	-5549
▁Things	-5550
▁decide	-5551
▁engage	-5552
▁fabric	-5553
▁parent	-5554
▁permit	-5555
▁raises	-5556
▁reform	-5557
▁remedy	-5558
▁sensed	-5559
▁shadow	-5560
▁sooner	-5561
▁subdiv	-5562
▁vanity	-5563
▁willed	-5564
sensible	-5565
▁exceeds	-5566
▁kingdom	-5567
▁morning	-5568
▁offered	-5569
▁quickly	-5570
▁schemat	-5571
▁serious	-5572
▁unusual	-5573
ellectual	-5574
▁Analytic	-5575
▁annulled	-5576
▁appeared	-5577
▁behavior	-5578
▁clearest	-5579
▁commands	-5580
▁decisive	-5581
▁industry	-5582
▁prospect	-5583
▁revealed	-5584
▁scrutiny	-5585
▁secondly	-5586
connection	-5587
experience	-5588
▁component	-5589
▁furnishes	-5590
▁heaviness	-5591
▁marvelous	-5592
▁plausible	-5593
▁preferred	-5594
▁propriety	-5595
▁succeeded	-5596
▁whiteness	-5597
▁yesterday	-5598
▁illustrate	-5599
▁recognizes	-5600
▁reputation	-5601
▁succeeding	-5602
▁surprising	-5603
▁Scholastics	-5604
▁alternative	-5605
▁comprehends	-5606
▁consciously	-5607
▁constructed	-5608
▁meditations	-5609
▁penetrating	-5610
▁susceptible	-5611
▁theological	-5612
▁accomplished	-5613
▁constituting	-5614
▁explanations	-5615
▁imaginations	-5616
▁apprehensions	-5617
▁imperfections	-5618
▁intelligences	-5619
▁thoroughgoing	-5620
._	-5621
46	-5622
50	-5623
8/	-5624
If	-5625
No	-5626
zz	-5627
asc	-5628
che	-5629
eck	-5630
ems	-5631
▁(2	-5632
▁27	-5633
▁29	-5634
▁46	-5635
▁9,	-5636
▁Dr	-5637
▁Im	-5638
ague	-5639
aith	-5640
caus	-5641
cogn	-5642
diff	-5643
enes	-5644
free	-5645
herd	-5646
ieve	-5647
land	-5648
lege	-5649
outh	-5650
seen	-5651
ster	-5652
then	-5653
time	-5654
umph	-5655
urus	-5656
▁173	-5657
▁27.	-5658
▁Ref	-5659
▁Use	-5660
▁afr	-5661
▁hat	-5662
▁vap	-5663
acted	-5664
aigne	-5665
alent	-5666
asant	-5667
moral	-5668
stand	-5669
ugust	-5670
using	-5671
▁Many	-5672
▁VIII	-5673
▁abst	-5674
▁arms	-5675
▁dare	-5676
▁dest	-5677
▁fool	-5678
▁holy	-5679
▁quar	-5680
▁terr	-5681
▁tong	-5682
▁unqu	-5683
akened	-5684
change	-5685
depend	-5686
epherd	-5687
erable	-5688
hering	-5689
idents	-5690
imedes	-5691
iminal	-5692
porary	-5693
things	-5694
uscles	-5695
wealth	-5696
▁Texts	-5697
▁Which	-5698
▁abund	-5699
▁appar	-5700
▁appet	-5701
▁breat	-5702
▁broad	-5703
▁class	-5704
▁deity	-5705
▁guard	-5706
▁hears	-5707
▁heter	-5708
▁level	-5709
▁loose	-5710
▁stock	-5711
▁workm	-5712
ikewise	-5713
ortions	-5714
sequent	-5715
ulation	-5716
▁Associ	-5717
▁Author	-5718
▁Common	-5719
▁Fourth	-5720
▁Pierre	-5721
▁afraid	-5722
▁clouds	-5723
▁correl	-5724
▁entity	-5725
▁excuse	-5726
▁exempt	-5727
▁family	-5728
▁gained	-5729
▁invari	-5730
▁invent	-5731
▁losing	-5732
▁lowest	-5733
▁marble	-5734
▁mirror	-5735
▁plenum	-5736
▁possib	-5737
▁purpos	-5738
▁report	-5739
▁safely	-5740
▁smooth	-5741
▁viewed	-5742
▁wander	-5743
▁wished	-5744
eduction	-5745
ontaigne	-5746
position	-5747
▁affirms	-5748
▁alleged	-5749
▁compose	-5750
▁conceal	-5751
▁consent	-5752
▁creator	-5753
▁designs	-5754
▁discuss	-5755
▁enlarge	-5756
▁framing	-5757
▁greatly	-5758
▁intense	-5759
▁leisure	-5760
▁manners	-5761
▁moderns	-5762
▁oneself	-5763
▁organic	-5764
▁painful	-5765
▁predisp	-5766
▁rejects	-5767
▁setting	-5768
▁suffers	-5769
▁surpass	-5770
▁triumph	-5771
▁wherein	-5772
Dialogues	-5773
extension	-5774
ictionary	-5775
▁Treatise	-5776
▁accuracy	-5777
▁criminal	-5778
▁demanded	-5779
▁inactive	-5780
▁indeterm	-5781
▁medicine	-5782
▁pleasant	-5783
▁renounce	-5784
▁strongly	-5785
▁subtract	-5786
▁succeeds	-5787
▁theorems	-5788
▁Aristotel	-5789
▁ambiguity	-5790
▁causation	-5791
▁cognitive	-5792
▁concludes	-5793
▁conducted	-5794
▁countless	-5795
▁developed	-5796
▁disappear	-5797
▁displayed	-5798
▁everybody	-5799
▁explicate	-5800
▁followers	-5801
▁formation	-5802
▁inanimate	-5803
▁indicates	-5804
▁ingenious	-5805
▁initially	-5806
▁interests	-5807
▁numerical	-5808
▁presently	-5809
▁reconcile	-5810
▁referring	-5811
▁surprised	-5812
▁treatment	-5813
▁unlimited	-5814
▁willingly	-5815
▁Archimedes	-5816
▁accomplish	-5817
▁apodeictic	-5818
▁generality	-5819
▁hesitation	-5820
▁meditation	-5821
▁melancholy	-5822
▁microscope	-5823
▁reciprocal	-5824
▁similitude	-5825
Indianapolis	-5826
▁accordingly	-5827
▁affirmative	-5828
▁aggregation	-5829
▁antagonists	-5830
▁association	-5831
▁consistency	-5832
▁constrained	-5833
▁controversi	-5834
▁enlightened	-5835
▁information	-5836
▁receptivity	-5837
▁traditional	-5838
▁workmanship	-5839
▁hypothetical	-5840
▁insufficient	-5841
▁undetermined	-5842
▁comprehensive	-5843
▁correspondent	-5844
1/	-5845
25	-5846
56	-5847
6/	-5848
80	-5849
Le	-5850
co	-5851
_."	-5852
aud	-5853
equ	-5854
iae	-5855
icy	-5856
imm	-5857
inf	-5858
ken	-5859
ogr	-5860
urp	-5861
zed	-5862
–17	-5863
▁47	-5864
▁Ab	-5865
▁IX	-5866
fold	-5867
fort	-5868
gold	-5869
onad	-5870
rown	-5871
tics	-5872
uary	-5873
▁28.	-5874
▁Axi	-5875
▁Had	-5876
▁Set	-5877
▁die	-5878
▁ing	-5879
▁lod	-5880
▁mal	-5881
▁owe	-5882
▁vis	-5883
alled	-5884
aring	-5885
ascal	-5886
earch	-5887
elech	-5888
endix	-5889
ening	-5890
mixed	-5891
oumen	-5892
▁1989	-5893
▁Anot	-5894
▁Have	-5895
▁Just	-5896
▁burn	-5897
▁cand	-5898
▁died	-5899
▁duly	-5900
▁elev	-5901
▁leap	-5902
▁lust	-5903
▁obey	-5904
▁poor	-5905
▁send	-5906
▁summ	-5907
▁susp	-5908
ansion	-5909
idance	-5910
ivered	-5911
ounced	-5912
reator	-5913
ulated	-5914
▁Among	-5915
▁Logic	-5916
▁assem	-5917
▁aston	-5918
▁depth	-5919
▁desir	-5920
▁domin	-5921
▁genus	-5922
▁incor	-5923
▁indub	-5924
▁keeps	-5925
▁loves	-5926
▁minor	-5927
▁owing	-5928
▁scene	-5929
▁share	-5930
▁sharp	-5931
▁smoke	-5932
▁solve	-5933
▁stopp	-5934
▁story	-5935
obation	-5936
vereign	-5937
▁August	-5938
▁Caesar	-5939
▁advers	-5940
▁antith	-5941
▁arisen	-5942
▁assure	-5943
▁branch	-5944
▁copied	-5945
▁deeply	-5946
▁double	-5947
▁fallen	-5948
▁garden	-5949
▁humble	-5950
▁intuit	-5951
▁machin	-5952
▁mighty	-5953
▁palate	-5954
▁volume	-5955
entially	-5956
utations	-5957
▁Another	-5958
▁Replies	-5959
▁causing	-5960
▁century	-5961
▁clarity	-5962
▁confine	-5963
▁dissect	-5964
▁keeping	-5965
▁muscles	-5966
▁ordered	-5967
▁paralle	-5968
▁reports	-5969
▁retains	-5970
▁running	-5971
▁scruple	-5972
▁sophism	-5973
▁strikes	-5974
▁turning	-5975
▁uninter	-5976
ategories	-5977
▁Likewise	-5978
▁Religion	-5979
▁accounts	-5980
▁animated	-5981
▁attached	-5982
▁chapters	-5983
▁concreto	-5984
▁connects	-5985
▁contrari	-5986
▁disagree	-5987
▁enlarged	-5988
▁entelech	-5989
▁fleeting	-5990
▁immortal	-5991
▁meanings	-5992
▁meditate	-5993
▁multiply	-5994
▁opportun	-5995
▁overlook	-5996
▁pleasing	-5997
▁precepts	-5998
▁province	-5999
▁security	-6000
▁supports	-6001
reflection	-6002
skepticism	-6003
▁Certainly	-6004
▁Judgments	-6005
▁aggregate	-6006
▁answering	-6007
▁asserting	-6008
▁awareness	-6009
▁delivered	-6010
▁expansion	-6011
▁extending	-6012
▁happening	-6013
▁indiscern	-6014
▁induction	-6015
▁precision	-6016
▁prevented	-6017
▁reckoning	-6018
▁statement	-6019
▁Associated	-6020
▁accidental	-6021
▁analogical	-6022
▁archetypes	-6023
▁arithmetic	-6024
▁beneficial	-6025
▁discourses	-6026
▁imaginable	-6027
▁scholastic	-6028
▁subsequent	-6029
▁syllogisms	-6030
▁uneasiness	-6031
▁worthwhile	-6032
▁arbitrarily	-6033
▁contingency	-6034
▁destruction	-6035
▁dissolution	-6036
▁limitations	-6037
▁pretensions	-6038
▁rectilinear	-6039
▁abstractions	-6040
▁conservation	-6041
▁organization	-6042
▁heterogeneous	-6043
▁uninterrupted	-6044
▁distinguishable	-6045
.—	-6046
22	-6047
4)	-6048
5/	-6049
57	-6050
ax	-6051
▁>	-6052
.).	-6053
0).	-6054
16.	-6055
5).	-6056
8),	-6057
Prs	-6058
ato	-6059
bra	-6060
eor	-6061
esp	-6062
lem	-6063
omb	-6064
que	-6065
rep	-6066
sen	-6067
ucl	-6068
ulf	-6069
ump	-6070
urs	-6071
usi	-6072
zes	-6073
▁37	-6074
▁4,	-6075
▁45	-6076
▁52	-6077
▁64	-6078
▁82	-6079
▁87	-6080
▁Fr	-6081
▁Qu	-6082
Kant	-6083
ails	-6084
athy	-6085
atus	-6086
ches	-6087
enne	-6088
hysi	-6089
iles	-6090
itas	-6091
itus	-6092
lebr	-6093
mind	-6094
onds	-6095
ores	-6096
osts	-6097
otes	-6098
pire	-6099
quis	-6100
ship	-6101
test	-6102
▁25,	-6103
▁28,	-6104
▁29.	-6105
▁31.	-6106
▁Her	-6107
▁Its	-6108
▁Jew	-6109
▁Mar	-6110
▁Mat	-6111
▁aud	-6112
▁ban	-6113
▁ens	-6114
▁ont	-6115
▁pen	-6116
▁sag	-6117
▁sky	-6118
allen	-6119
asham	-6120
atory	-6121
every	-6122
ioned	-6123
istry	-6124
ocrit	-6125
otten	-6126
produ	-6127
quant	-6128
sense	-6129
ublic	-6130
utive	-6131
▁Body	-6132
▁None	-6133
▁ador	-6134
▁bird	-6135
▁blue	-6136
▁cube	-6137
▁forb	-6138
▁frag	-6139
▁list	-6140
▁nobl	-6141
▁nose	-6142
▁pray	-6143
▁prol	-6144
▁road	-6145
▁subt	-6146
▁unit	-6147
▁vols	-6148
Oxford	-6149
atives	-6150
atures	-6151
except	-6152
ialect	-6153
indeed	-6154
orical	-6155
oumena	-6156
ressed	-6157
ursive	-6158
▁Greek	-6159
▁Organ	-6160
▁Synth	-6161
▁adopt	-6162
▁fatal	-6163
▁fewer	-6164
▁fills	-6165
▁glimp	-6166
▁hours	-6167
▁liber	-6168
▁quiet	-6169
▁range	-6170
▁reced	-6171
▁rises	-6172
▁scope	-6173
▁spent	-6174
▁unfit	-6175
▁youth	-6176
atitude	-6177
ceptive	-6178
ensable	-6179
insofar	-6180
ocation	-6181
subject	-6182
▁London	-6183
▁Masham	-6184
▁Method	-6185
▁Pascal	-6186
▁Platon	-6187
▁Whence	-6188
▁absent	-6189
▁admire	-6190
▁barbar	-6191
▁celebr	-6192
▁closer	-6193
▁forget	-6194
▁fortun	-6195
▁gather	-6196
▁grants	-6197
▁incess	-6198
▁lights	-6199
▁monads	-6200
▁occupy	-6201
▁oppose	-6202
▁prince	-6203
▁sacred	-6204
▁tenets	-6205
▁transm	-6206
▁trying	-6207
▁unique	-6208
▁vacuum	-6209
▁verbal	-6210
▁widely	-6211
▁writer	-6212
Theodicy	-6213
eriously	-6214
identity	-6215
initions	-6216
personal	-6217
solidity	-6218
▁attract	-6219
▁avoided	-6220
▁challen	-6221
▁empiric	-6222
▁excited	-6223
▁infancy	-6224
▁inhabit	-6225
▁prudent	-6226
▁pursuit	-6227
▁regions	-6228
▁rewards	-6229
▁thereof	-6230
▁unequal	-6231
accidents	-6232
insically	-6233
siderable	-6234
synthesis	-6235
universal	-6236
▁Antinomy	-6237
▁Appendix	-6238
▁Epicurus	-6239
▁Shepherd	-6240
▁applying	-6241
▁cohesion	-6242
▁creating	-6243
▁declared	-6244
▁deprived	-6245
▁distrust	-6246
▁explains	-6247
▁guidance	-6248
▁objected	-6249
▁retained	-6250
▁temporal	-6251
▁transmit	-6252
▁unworthy	-6253
▁variable	-6254
▁Existence	-6255
▁Montaigne	-6256
▁analogous	-6257
▁available	-6258
▁confident	-6259
▁contented	-6260
▁customary	-6261
▁deceptive	-6262
▁doubtless	-6263
▁enjoyment	-6264
▁hereafter	-6265
▁immensity	-6266
▁intricate	-6267
▁introduce	-6268
▁paradoxes	-6269
▁plurality	-6270
▁privilege	-6271
▁rejecting	-6272
▁slightest	-6273
▁sovereign	-6274
▁Perception	-6275
▁annihilate	-6276
▁apparently	-6277
▁coexisting	-6278
▁completion	-6279
▁confounded	-6280
▁conversely	-6281
▁diminution	-6282
▁dissection	-6283
▁externally	-6284
▁indefinite	-6285
▁indirectly	-6286
▁mysterious	-6287
▁omnipotent	-6288
▁possession	-6289
▁relatively	-6290
▁translated	-6291
▁conjectures	-6292
▁connections	-6293
▁enumeration	-6294
▁expectation	-6295
▁indubitable	-6296
▁nothingness	-6297
▁nourishment	-6298
▁opportunity	-6299
▁undertaking	-6300
▁unperceived	-6301
▁accompanying	-6302
▁distinctions	-6303
▁establishing	-6304
▁nonexistence	-6305
▁relationship	-6306
▁subjectively	-6307
▁spontaneously	-6308
▁impenetrability	-6309
7)	-6310
7/	-6311
79	-6312
ck	-6313
gl	-6314
sm	-6315
8).	-6316
Let	-6317
aff	-6318
cel	-6319
cts	-6320
dam	-6321
elm	-6322
iel	-6323
lie	-6324
rog	-6325
ron	-6326
set	-6327
sim	-6328
uge	-6329
ung	-6330
▁(§	-6331
▁48	-6332
▁49	-6333
▁56	-6334
▁59	-6335
▁63	-6336
▁67	-6337
▁70	-6338
▁Ap	-6339
▁Ro	-6340
▁pp	-6341
▁ru	-6342
▁ze	-6343
abor	-6344
adem	-6345
ayed	-6346
cean	-6347
lead	-6348
like	-6349
nate	-6350
oles	-6351
omit	-6352
oyal	-6353
work	-6354
zing	-6355
▁10,	-6356
▁17,	-6357
▁32.	-6358
▁Ear	-6359
▁Gar	-6360
▁Gre	-6361
▁Reg	-6362
▁Sam	-6363
▁Sim	-6364
▁Sol	-6365
▁ash	-6366
▁cav	-6367
▁fee	-6368
▁fly	-6369
▁key	-6370
▁six	-6371
▁sor	-6372
▁won	-6373
.....	-6374
anted	-6375
erion	-6376
eties	-6377
icing	-6378
ights	-6379
ograp	-6380
onstr	-6381
organ	-6382
orium	-6383
ouses	-6384
owing	-6385
point	-6386
ptics	-6387
stead	-6388
these	-6389
trans	-6390
uclid	-6391
urope	-6392
▁Each	-6393
▁Next	-6394
▁Phys	-6395
▁Well	-6396
▁aims	-6397
▁anew	-6398
▁asks	-6399
▁bill	-6400
▁caut	-6401
▁devi	-6402
▁dict	-6403
▁dull	-6404
▁eman	-6405
▁gift	-6406
▁ills	-6407
▁impl	-6408
▁legs	-6409
▁page	-6410
▁rays	-6411
▁repr	-6412
▁stay	-6413
▁stim	-6414
▁thin	-6415
▁unal	-6416
▁unaw	-6417
▁zeal	-6418
aments	-6419
aneous	-6420
angled	-6421
bodies	-6422
ctrine	-6423
encies	-6424
riften	-6425
urable	-6426
▁Moses	-6427
▁Roman	-6428
▁Still	-6429
▁capac	-6430
▁check	-6431
▁cover	-6432
▁dread	-6433
▁fails	-6434
▁feign	-6435
▁flour	-6436
▁folly	-6437
▁innoc	-6438
▁irres	-6439
▁lived	-6440
▁lower	-6441
▁notes	-6442
▁ocean	-6443
▁peace	-6444
▁phant	-6445
▁reser	-6446
▁rigor	-6447
▁solic	-6448
▁spect	-6449
▁spoke	-6450
▁sugar	-6451
▁tends	-6452
▁toler	-6453
▁tried	-6454
▁twice	-6455
▁vivid	-6456
▁yours	-6457
because	-6458
century	-6459
inction	-6460
natural	-6461
objects	-6462
ritical	-6463
through	-6464
tically	-6465
willing	-6466
▁Church	-6467
▁German	-6468
▁behalf	-6469
▁comets	-6470
▁deceit	-6471
▁essays	-6472
▁globes	-6473
▁graces	-6474
▁hatred	-6475
▁honest	-6476
▁infirm	-6477
▁lastly	-6478
▁rights	-6479
▁spring	-6480
▁submit	-6481
▁termin	-6482
▁theism	-6483
▁tongue	-6484
▁unites	-6485
▁unlike	-6486
▁warmth	-6487
▁wishes	-6488
demonstr	-6489
eriality	-6490
infinite	-6491
▁Epicure	-6492
▁Similar	-6493
▁acquies	-6494
▁adapted	-6495
▁approve	-6496
▁arguing	-6497
▁circles	-6498
▁classes	-6499
▁contest	-6500
▁element	-6501
▁feature	-6502
▁hinders	-6503
▁joining	-6504
▁nations	-6505
▁permits	-6506
▁quarrel	-6507
▁raising	-6508
▁realize	-6509
▁substit	-6510
▁touches	-6511
▁undergo	-6512
▁violent	-6513
▁worship	-6514
▁writers	-6515
mentioned	-6516
pretation	-6517
▁Duration	-6518
▁adjusted	-6519
▁assented	-6520
▁atheists	-6521
▁attested	-6522
▁attitude	-6523
▁coherent	-6524
▁compound	-6525
▁concomit	-6526
▁defining	-6527
▁deserves	-6528
▁excludes	-6529
▁feelings	-6530
▁finished	-6531
▁insisted	-6532
▁kindness	-6533
▁needless	-6534
▁particip	-6535
▁patterns	-6536
▁predomin	-6537
▁pressure	-6538
▁presumpt	-6539
▁republic	-6540
▁schemata	-6541
▁standing	-6542
▁stripped	-6543
contradict	-6544
substances	-6545
▁Deduction	-6546
▁Dialogues	-6547
▁Objection	-6548
▁Schriften	-6549
▁accompany	-6550
▁affirming	-6551
▁ascribing	-6552
▁clearness	-6553
▁commensur	-6554
▁committed	-6555
▁continuum	-6556
▁corrected	-6557
▁erroneous	-6558
▁extrinsic	-6559
▁fruitless	-6560
▁inconsist	-6561
▁incontest	-6562
▁inquiring	-6563
▁judicious	-6564
▁justified	-6565
▁obstacles	-6566
▁operating	-6567
▁recommend	-6568
▁regulated	-6569
▁requiring	-6570
▁retaining	-6571
▁seemingly	-6572
▁senseless	-6573
▁seriously	-6574
▁surpasses	-6575
▁Everything	-6576
▁anticipate	-6577
▁capacities	-6578
▁components	-6579
▁conversant	-6580
▁corruption	-6581
▁discerning	-6582
▁discursive	-6583
▁empiricist	-6584
▁endeavored	-6585
▁expressing	-6586
▁fictitious	-6587
▁occasioned	-6588
▁quantities	-6589
▁refutation	-6590
▁regularity	-6591
▁revolution	-6592
▁separating	-6593
▁surrounded	-6594
▁theologian	-6595
▁unquestion	-6596
▁vegetables	-6597
▁approbation	-6598
▁blessedness	-6599
▁concessions	-6600
▁contemplate	-6601
▁contradicts	-6602
▁correctness	-6603
▁essentially	-6604
▁incessantly	-6605
▁interesting	-6606
▁unification	-6607
▁Cosmological	-6608
▁confirmation	-6609
▁communicating	-6610
▁controversies	-6611
▁determinately	-6612
▁indeterminate	-6613
▁inconsiderable	-6614
)_	-6615
29	-6616
3)	-6617
59	-6618
62	-6619
Bx	-6620
SS	-6621
We	-6622
–5	-6623
Con	-6624
See	-6625
ann	-6626
hyp	-6627
ica	-6628
log	-6629
urm	-6630
uzz	-6631
âte	-6632
▁41	-6633
▁42	-6634
▁44	-6635
▁55	-6636
▁57	-6637
▁60	-6638
▁65	-6639
▁68	-6640
▁71	-6641
▁73	-6642
▁77	-6643
▁80	-6644
▁84	-6645
▁86	-6646
▁89	-6647
▁Op	-6648
▁_1	-6649
▁ax	-6650
▁bo	-6651
▁gh	-6652
▁kn	-6653
ades	-6654
afts	-6655
ains	-6656
aker	-6657
both	-6658
burg	-6659
ccur	-6660
endi	-6661
have	-6662
ient	-6663
ilty	-6664
inds	-6665
itch	-6666
oney	-6667
ourn	-6668
prop	-6669
supp	-6670
uity	-6671
▁174	-6672
▁30.	-6673
▁41.	-6674
▁7).	-6675
▁Ass	-6676
▁Bar	-6677
▁Cav	-6678
▁Sen	-6679
▁[27	-6680
▁abb	-6681
▁ded	-6682
▁ell	-6683
▁gre	-6684
▁mob	-6685
▁phr	-6686
▁rig	-6687
▁seq	-6688
▁ter	-6689
▁tut	-6690
abled	-6691
arded	-6692
astly	-6693
atura	-6694
bered	-6695
cible	-6696
force	-6697
inion	-6698
iture	-6699
odern	-6700
orous	-6701
phant	-6702
place	-6703
plain	-6704
thusi	-6705
uries	-6706
▁(167	-6707
▁Alex	-6708
▁Geor	-6709
▁Soul	-6710
▁Take	-6711
▁arts	-6712
▁base	-6713
▁busy	-6714
▁disj	-6715
▁feet	-6716
▁kill	-6717
▁liqu	-6718
▁pern	-6719
▁proc	-6720
▁pull	-6721
▁puzz	-6722
▁qual	-6723
▁race	-6724
▁rain	-6725
▁resp	-6726
▁root	-6727
▁shut	-6728
▁trib	-6729
▁wild	-6730
▁wont	-6731
animal	-6732
assive	-6733
belief	-6734
endish	-6735
hische	-6736
ission	-6737
itates	-6738
iverse	-6739
nquiry	-6740
pected	-6741
stancy	-6742
tained	-6743
verted	-6744
âtelet	-6745
▁Works	-6746
▁World	-6747
▁bases	-6748
▁const	-6749
▁crook	-6750
▁eager	-6751
▁elect	-6752
▁epist	-6753
▁fifth	-6754
▁focus	-6755
▁glass	-6756
▁harsh	-6757
▁immat	-6758
▁moist	-6759
▁mouth	-6760
▁odors	-6761
▁orbit	-6762
▁pious	-6763
▁recol	-6764
▁sheep	-6765
▁tells	-6766
▁urged	-6767
dentity	-6768
finitum	-6769
nominal	-6770
ocritus	-6771
ography	-6772
primary	-6773
skeptic	-6774
success	-6775
uteness	-6776
▁Analog	-6777
▁Europe	-6778
▁Garber	-6779
▁Motion	-6780
▁Samuel	-6781
▁access	-6782
▁bestow	-6783
▁borrow	-6784
▁breath	-6785
▁brutes	-6786
▁calcul	-6787
▁cavils	-6788
▁debate	-6789
▁decomp	-6790
▁deeper	-6791
▁dismis	-6792
▁feeble	-6793
▁growth	-6794
▁guilty	-6795
▁ingred	-6796
▁inquis	-6797
▁metaph	-6798
▁miscon	-6799
▁mother	-6800
▁preten	-6801
▁ranked	-6802
▁recede	-6803
▁relate	-6804
▁reside	-6805
▁scenes	-6806
▁served	-6807
▁spatio	-6808
▁spoken	-6809
▁steady	-6810
▁stupid	-6811
▁theirs	-6812
▁unhapp	-6813
▁varies	-6814
▁wheels	-6815
▁winter	-6816
Whatever	-6817
cription	-6818
relation	-6819
temporal	-6820
whatever	-6821
▁Creator	-6822
▁abstain	-6823
▁asserts	-6824
▁atheism	-6825
▁chances	-6826
▁compass	-6827
▁defects	-6828
▁devoted	-6829
▁disquis	-6830
▁enabled	-6831
▁enemies	-6832
▁enthusi	-6833
▁grasped	-6834
▁harmful	-6835
▁helpful	-6836
▁herself	-6837
▁holding	-6838
▁monarch	-6839
▁partial	-6840
▁placing	-6841
▁pointed	-6842
▁promise	-6843
▁pursued	-6844
▁quantum	-6845
▁stretch	-6846
▁working	-6847
objective	-6848
onadology	-6849
practical	-6850
synthetic	-6851
▁Doctrine	-6852
▁acquires	-6853
▁chimeras	-6854
▁choosing	-6855
▁claiming	-6856
▁concrete	-6857
▁excluded	-6858
▁features	-6859
▁foreseen	-6860
▁geometer	-6861
▁granting	-6862
▁humanity	-6863
▁impelled	-6864
▁improved	-6865
▁inhering	-6866
▁irresist	-6867
▁location	-6868
▁magnific	-6869
▁moderate	-6870
▁ordained	-6871
▁pictures	-6872
▁politics	-6873
▁restrain	-6874
▁scruples	-6875
▁sensibly	-6876
▁sickness	-6877
▁striking	-6878
▁tangible	-6879
▁thinkers	-6880
▁treating	-6881
▁troubled	-6882
▁violence	-6883
particular	-6884
▁Cavendish	-6885
▁Synthetic	-6886
▁criterion	-6887
▁desirable	-6888
▁enumerate	-6889
▁foresight	-6890
▁geometric	-6891
▁indicated	-6892
▁intervals	-6893
▁political	-6894
▁primarily	-6895
▁reception	-6896
▁resolving	-6897
▁strongest	-6898
▁terminate	-6899
▁undertake	-6900
abstraction	-6901
▁Democritus	-6902
▁admiration	-6903
▁benevolent	-6904
▁celebrated	-6905
▁changeable	-6906
▁convenient	-6907
▁descending	-6908
▁discipline	-6909
▁equivalent	-6910
▁explicable	-6911
▁inevitable	-6912
▁inevitably	-6913
▁invariable	-6914
▁legitimate	-6915
▁multiplied	-6916
▁obligation	-6917
▁pernicious	-6918
▁perplexity	-6919
▁propagated	-6920
▁psychology	-6921
▁regardless	-6922
▁substratum	-6923
mathematical	-6924
▁accommodate	-6925
▁attentively	-6926
▁collections	-6927
▁contentment	-6928
▁denominated	-6929
▁illustrious	-6930
▁indefinitum	-6931
▁inhabitants	-6932
▁investigate	-6933
▁necessities	-6934
▁perpetually	-6935
▁proportions	-6936
▁superiority	-6937
▁unavoidably	-6938
▁undoubtedly	-6939
▁Philosophers	-6940
▁advantageous	-6941
▁commonwealth	-6942
▁construction	-6943
▁experiential	-6944
▁impenetrable	-6945
▁proportioned	-6946
Philosophische	-6947
▁Philosophical	-6948
▁comprehending	-6949
▁contemplating	-6950
▁immateriality	-6951
▁inconvenience	-6952
▁indifferently	-6953
▁indispensable	-6954
▁synthetically	-6955
▁aforementioned	-6956
▁apodeictically	-6957
▁corpuscularian	-6958
'_	-6959
):	-6960
2/	-6961
4/	-6962
45	-6963
52	-6964
6)	-6965
Ob	-6966
TS	-6967
].	-6968
ah	-6969
li	-6970
po	-6971
–3	-6972
–8	-6973
7),	-6974
Our	-6975
Sub	-6976
agn	-6977
asy	-6978
att	-6979
gru	-6980
ham	-6981
non	-6982
tri	-6983
uke	-6984
ula	-6985
vis	-6986
▁,"	-6987
▁50	-6988
▁53	-6989
▁54	-6990
▁58	-6991
▁62	-6992
▁69	-6993
▁72	-6994
▁74	-6995
▁75	-6996
▁76	-6997
▁78	-6998
▁79	-6999
▁83	-7000
▁85	-7001
▁88	-7002
▁>_	-7003
▁Gu	-7004
▁La	-7005
▁_2	-7006
▁_<	-7007
▁fu	-7008
▁la	-7009
▁{9	-7010
From	-7011
ards	-7012
arly	-7013
berg	-7014
book	-7015
enth	-7016
etch	-7017
ivol	-7018
oger	-7019
ogue	-7020
osce	-7021
pper	-7022
pres	-7023
rics	-7024
roat	-7025
sect	-7026
terf	-7027
vice	-7028
well	-7029
▁12,	-7030
▁171	-7031
▁196	-7032
▁21,	-7033
▁27,	-7034
▁29,	-7035
▁36.	-7036
▁Ext	-7037
▁Hen	-7038
▁Jan	-7039
▁Jup	-7040
▁She	-7041
▁Yes	-7042
▁[26	-7043
▁[28	-7044
▁[29	-7045
▁[32	-7046
▁[33	-7047
▁[34	-7048
▁[35	-7049
▁aut	-7050
▁don	-7051
▁ice	-7052
▁pag	-7053
▁pot	-7054
▁rar	-7055
▁san	-7056
▁veh	-7057
▁{12	-7058
▁{13	-7059
▁{16	-7060
▁{17	-7061
▁{18	-7062
▁{19	-7063
▁{20	-7064
▁{22	-7065
▁{23	-7066
▁{24	-7067
▁{25	-7068
▁{26	-7069
▁{27	-7070
▁{29	-7071
▁{30	-7072
▁{35	-7073
▁{36	-7074
▁{37	-7075
▁{38	-7076
▁{39	-7077
▁{40	-7078
▁{43	-7079
▁{44	-7080
▁{47	-7081
▁{48	-7082
▁{49	-7083
▁{50	-7084
▁{52	-7085
▁{53	-7086
▁{55	-7087
▁{57	-7088
▁{58	-7089
▁{59	-7090
▁{60	-7091
▁{62	-7092
▁{63	-7093
▁{64	-7094
▁{65	-7095
▁{66	-7096
▁{67	-7097
▁{68	-7098
▁{69	-7099
▁{70	-7100
▁{72	-7101
▁{73	-7102
▁{74	-7103
▁{75	-7104
▁{76	-7105
▁{77	-7106
▁{79	-7107
▁{80	-7108
▁{82	-7109
▁{83	-7110
▁{84	-7111
▁{85	-7112
▁{86	-7113
▁{87	-7114
▁{88	-7115
alers	-7116
ament	-7117
aniel	-7118
arius	-7119
athan	-7120
aying	-7121
bling	-7122
emark	-7123
essen	-7124
faith	-7125
forms	-7126
gebra	-7127
genus	-7128
great	-7129
iance	-7130
icero	-7131
icted	-7132
manna	-7133
pecif	-7134
sever	-7135
ulity	-7136
ument	-7137
unity	-7138
urely	-7139
▁Gass	-7140
▁Good	-7141
▁Hipp	-7142
▁Lord	-7143
▁army	-7144
▁calm	-7145
▁cord	-7146
▁fell	-7147
▁ming	-7148
▁rele	-7149
▁retr	-7150
▁rose	-7151
▁sail	-7152
▁salt	-7153
▁tiny	-7154
▁unde	-7155
▁unex	-7156
▁vibr	-7157
▁vict	-7158
▁vort	-7159
▁wick	-7160
▁wing	-7161
▁womb	-7162
▁worm	-7163
Christ	-7164
called	-7165
common	-7166
effect	-7167
origin	-7168
orious	-7169
oucher	-7170
ptions	-7171
uously	-7172
vacuum	-7173
▁Olden	-7174
▁Roger	-7175
▁Simon	-7176
▁Sixth	-7177
▁Three	-7178
▁areas	-7179
▁arrog	-7180
▁brute	-7181
▁canon	-7182
▁court	-7183
▁diame	-7184
▁discl	-7185
▁draws	-7186
▁fears	-7187
▁legal	-7188
▁meets	-7189
▁mercy	-7190
▁mount	-7191
▁obedi	-7192
▁omnis	-7193
▁party	-7194
▁paths	-7195
▁pores	-7196
▁prose	-7197
▁reads	-7198
▁renow	-7199
▁sects	-7200
▁vapor	-7201
▁wings	-7202
▁worse	-7203
aenomen	-7204
alogism	-7205
ersenne	-7206
incipia	-7207
istingu	-7208
oquence	-7209
passive	-7210
respond	-7211
ressive	-7212
▁Conway	-7213
▁Having	-7214
▁Modern	-7215
▁Thesis	-7216
▁candle	-7217
▁congru	-7218
▁deduct	-7219
▁denial	-7220
▁encomp	-7221
▁encour	-7222
▁excess	-7223
▁expose	-7224
▁failed	-7225
▁fellow	-7226
▁frivol	-7227
▁guided	-7228
▁infant	-7229
▁masses	-7230
▁nation	-7231
▁pardon	-7232
▁pieces	-7233
▁precip	-7234
▁prison	-7235
▁season	-7236
▁singly	-7237
▁throat	-7238
▁traced	-7239
ensation	-7240
essences	-7241
stitious	-7242
▁.......	-7243
▁College	-7244
▁England	-7245
▁Instead	-7246
▁Jupiter	-7247
▁Organon	-7248
▁achieve	-7249
▁anatomy	-7250
▁article	-7251
▁bounded	-7252
▁chimera	-7253
▁colored	-7254
▁combine	-7255
▁compels	-7256
▁condemn	-7257
▁control	-7258
▁corrupt	-7259
▁counted	-7260
▁crooked	-7261
▁current	-7262
▁derives	-7263
▁divines	-7264
▁durable	-7265
▁employs	-7266
▁enables	-7267
▁escaped	-7268
▁falsely	-7269
▁feather	-7270
▁fingers	-7271
▁imposed	-7272
▁lasting	-7273
▁linking	-7274
▁literal	-7275
▁modesty	-7276
▁needing	-7277
▁publish	-7278
▁radical	-7279
▁reduces	-7280
▁resides	-7281
▁restore	-7282
▁slumber	-7283
▁somehow	-7284
▁tempted	-7285
▁thalers	-7286
▁uniting	-7287
▁varying	-7288
▁version	-7289
opernican	-7290
represent	-7291
▁Demonstr	-7292
▁Socrates	-7293
▁achieved	-7294
▁agitated	-7295
▁astronom	-7296
▁becoming	-7297
▁confound	-7298
▁conveyed	-7299
▁designed	-7300
▁editions	-7301
▁enclosed	-7302
▁entrance	-7303
▁inquired	-7304
▁intimate	-7305
▁pressing	-7306
▁prevents	-7307
▁register	-7308
▁remedies	-7309
▁sentence	-7310
▁teaching	-7311
▁theories	-7312
▁underlie	-7313
▁unfortun	-7314
▁withhold	-7315
lucidation	-7316
subsistent	-7317
▁Alexander	-7318
▁Augustine	-7319
▁Otherwise	-7320
▁Similarly	-7321
▁abandoned	-7322
▁admitting	-7323
▁appearing	-7324
▁attending	-7325
▁concealed	-7326
▁consisted	-7327
▁convinces	-7328
▁correlate	-7329
▁corrupted	-7330
▁credulity	-7331
▁deceiving	-7332
▁discussed	-7333
▁exercises	-7334
▁generated	-7335
▁governing	-7336
▁machinery	-7337
▁obscurely	-7338
▁originate	-7339
▁physician	-7340
▁prodigies	-7341
▁quickness	-7342
▁typically	-7343
possibility	-7344
▁additional	-7345
▁agreements	-7346
▁coexistent	-7347
▁connecting	-7348
▁contiguous	-7349
▁continuing	-7350
▁elementary	-7351
▁explicitly	-7352
▁infallibly	-7353
▁observable	-7354
▁physicians	-7355
▁preferring	-7356
▁presumably	-7357
▁restricted	-7358
▁subsistent	-7359
▁supporting	-7360
▁undertaken	-7361
▁Definitions	-7362
▁contrariety	-7363
▁inseparably	-7364
▁interrupted	-7365
▁magnificent	-7366
▁maintaining	-7367
▁perceptible	-7368
▁revolutions	-7369
▁transformed	-7370
contradictory	-7371
▁affirmations	-7372
▁analytically	-7373
▁commensurate	-7374
▁communicates	-7375
▁distinctness	-7376
▁expectations	-7377
▁independence	-7378
▁resemblances	-7379
▁significance	-7380
▁specifically	-7381
▁subsequently	-7382
▁inconveniences	-7383
▁predisposition	-7384
.;	-7385
3/	-7386
35	-7387
5)	-7388
58	-7389
8)	-7390
CI	-7391
EN	-7392
He	-7393
–7	-7394
▁&	-7395
▁z	-7396
3).	-7397
III	-7398
ION	-7399
Not	-7400
Pro	-7401
Two	-7402
ago	-7403
aic	-7404
amm	-7405
anc	-7406
aws	-7407
col	-7408
eds	-7409
ené	-7410
gin	-7411
het	-7412
ina	-7413
isl	-7414
mal	-7415
ral	-7416
tot	-7417
who	-7418
ées	-7419
▁51	-7420
▁61	-7421
▁81	-7422
▁AN	-7423
▁Ac	-7424
▁Er	-7425
▁Fl	-7426
▁Ne	-7427
▁Sc	-7428
▁§1	-7429
_...	-7430
ales	-7431
aret	-7432
bond	-7433
comb	-7434
esse	-7435
feel	-7436
gets	-7437
good	-7438
heat	-7439
iard	-7440
idst	-7441
istr	-7442
lied	-7443
line	-7444
nell	-7445
onal	-7446
opes	-7447
oras	-7448
▁15,	-7449
▁164	-7450
▁178	-7451
▁18,	-7452
▁32,	-7453
▁33.	-7454
▁35.	-7455
▁37.	-7456
▁38.	-7457
▁Abs	-7458
▁Jes	-7459
▁[30	-7460
▁[36	-7461
▁bar	-7462
▁che	-7463
▁cog	-7464
▁dom	-7465
▁eat	-7466
▁gat	-7467
▁inh	-7468
▁rap	-7469
▁rub	-7470
▁sav	-7471
▁sit	-7472
▁son	-7473
▁ste	-7474
▁ted	-7475
▁tre	-7476
▁unp	-7477
▁uns	-7478
▁{10	-7479
▁{15	-7480
▁{21	-7481
▁{28	-7482
▁{32	-7483
▁{33	-7484
▁{45	-7485
▁{46	-7486
▁{51	-7487
▁{54	-7488
▁{56	-7489
▁{61	-7490
▁{71	-7491
▁{78	-7492
▁{81	-7493
Every	-7494
Proof	-7495
agger	-7496
anion	-7497
aters	-7498
ensed	-7499
ersed	-7500
fully	-7501
hered	-7502
horse	-7503
icacy	-7504
icago	-7505
icity	-7506
ifies	-7507
itors	-7508
itute	-7509
matic	-7510
orted	-7511
oured	-7512
oused	-7513
sters	-7514
stone	-7515
three	-7516
tries	-7517
uable	-7518
▁Note	-7519
▁addu	-7520
▁axis	-7521
▁beat	-7522
▁cosm	-7523
▁deem	-7524
▁diam	-7525
▁dust	-7526
▁emph	-7527
▁fert	-7528
▁fulf	-7529
▁hint	-7530
▁hurt	-7531
▁idle	-7532
▁inad	-7533
▁irre	-7534
▁land	-7535
▁libr	-7536
▁seal	-7537
▁seat	-7538
▁stat	-7539
▁suit	-7540
▁surm	-7541
▁tied	-7542
▁tran	-7543
▁wine	-7544
ackets	-7545
actual	-7546
advant	-7547
arrass	-7548
atical	-7549
course	-7550
desire	-7551
ensées	-7552
hypoth	-7553
incess	-7554
itatis	-7555
itness	-7556
morrow	-7557
ointed	-7558
plicit	-7559
sified	-7560
uation	-7561
wardly	-7562
▁Earth	-7563
▁Geome	-7564
▁Power	-7565
▁anger	-7566
▁begun	-7567
▁bones	-7568
▁dealt	-7569
▁faint	-7570
▁goods	-7571
▁hasty	-7572
▁hoped	-7573
▁indic	-7574
▁inequ	-7575
▁laugh	-7576
▁metal	-7577
▁model	-7578
▁named	-7579
▁neigh	-7580
▁nostr	-7581
▁oppon	-7582
▁overt	-7583
▁plane	-7584
▁renew	-7585
▁rigid	-7586
▁river	-7587
▁shade	-7588
▁token	-7589
▁trees	-7590
▁tries	-7591
▁unple	-7592
▁vices	-7593
▁vigor	-7594
▁wager	-7595
General	-7596
Leibniz	-7597
argaret	-7598
ciences	-7599
clusion	-7600
concept	-7601
etition	-7602
fulness	-7603
general	-7604
iminate	-7605
itating	-7606
iveness	-7607
mission	-7608
noumena	-7609
osceles	-7610
▁Antith	-7611
▁Baruch	-7612
▁Bodies	-7613
▁France	-7614
▁George	-7615
▁Greeks	-7616
▁Lastly	-7617
▁Others	-7618
▁Powers	-7619
▁Sebond	-7620
▁Surely	-7621
▁advent	-7622
▁antiqu	-7623
▁appell	-7624
▁ascent	-7625
▁astray	-7626
▁attest	-7627
▁blamed	-7628
▁bright	-7629
▁church	-7630
▁combat	-7631
▁compos	-7632
▁config	-7633
▁crafts	-7634
▁denote	-7635
▁depths	-7636
▁driven	-7637
▁elabor	-7638
▁exerts	-7639
▁houses	-7640
▁humors	-7641
▁impact	-7642
▁impose	-7643
▁induce	-7644
▁lately	-7645
▁liquid	-7646
▁manage	-7647
▁obstin	-7648
▁orbits	-7649
▁orders	-7650
▁poison	-7651
▁predic	-7652
▁pretty	-7653
▁profit	-7654
▁prosec	-7655
▁purity	-7656
▁relish	-7657
▁repose	-7658
▁scheme	-7659
▁severe	-7660
▁solved	-7661
▁starts	-7662
▁struck	-7663
▁underm	-7664
▁weaker	-7665
▁winged	-7666
analytic	-7667
aturally	-7668
ialectic	-7669
itations	-7670
rational	-7671
substant	-7672
triangle	-7673
▁Concept	-7674
▁Foucher	-7675
▁January	-7676
▁Physics	-7677
▁Society	-7678
▁artific	-7679
▁ashamed	-7680
▁assumes	-7681
▁breadth	-7682
▁concede	-7683
▁counsel	-7684
▁defense	-7685
▁deprive	-7686
▁disease	-7687
▁dismiss	-7688
▁dryness	-7689
▁evening	-7690
▁figured	-7691
▁foolish	-7692
▁healthy	-7693
▁incline	-7694
▁induced	-7695
▁indulge	-7696
▁informs	-7697
▁initial	-7698
▁letting	-7699
▁notable	-7700
▁parents	-7701
▁parties	-7702
▁persist	-7703
▁pretext	-7704
▁printed	-7705
▁ratione	-7706
▁replies	-7707
▁respond	-7708
▁silence	-7709
▁sincere	-7710
▁sophist	-7711
▁started	-7712
▁tedious	-7713
▁therein	-7714
▁tracing	-7715
▁trusted	-7716
▁unalter	-7717
▁unhappy	-7718
▁unities	-7719
▁utility	-7720
▁visions	-7721
▁winning	-7722
▁workman	-7723
Christian	-7724
aenomenon	-7725
conceived	-7726
eneration	-7727
intuitive	-7728
simultane	-7729
▁Châtelet	-7730
▁External	-7731
▁Mersenne	-7732
▁Relation	-7733
▁agreeing	-7734
▁ambition	-7735
▁artifice	-7736
▁billiard	-7737
▁brackets	-7738
▁cautious	-7739
▁conforms	-7740
▁constitu	-7741
▁delicate	-7742
▁deserved	-7743
▁despised	-7744
▁diseases	-7745
▁educated	-7746
▁embraced	-7747
▁gathered	-7748
▁ideality	-7749
▁incompar	-7750
▁inquirer	-7751
▁limiting	-7752
▁memories	-7753
▁misunder	-7754
▁mutually	-7755
▁overcome	-7756
▁parallel	-7757
▁patience	-7758
▁phantasm	-7759
▁pretends	-7760
▁pretense	-7761
▁reaching	-7762
▁realized	-7763
▁remarked	-7764
▁removing	-7765
▁ridicule	-7766
▁sagacity	-7767
▁shocking	-7768
▁situated	-7769
▁stopping	-7770
▁students	-7771
▁suddenly	-7772
▁suspense	-7773
▁tomorrow	-7774
▁touching	-7775
▁vanishes	-7776
▁virtuous	-7777
appearance	-7778
▁Companion	-7779
▁Oldenburg	-7780
▁Sometimes	-7781
▁abilities	-7782
▁advancing	-7783
▁assenting	-7784
▁attitudes	-7785
▁barbarous	-7786
▁collected	-7787
▁condemned	-7788
▁congruent	-7789
▁deceitful	-7790
▁defective	-7791
▁destitute	-7792
▁disadvant	-7793
▁earnestly	-7794
▁eloquence	-7795
▁embarrass	-7796
▁employing	-7797
▁entangled	-7798
▁exactness	-7799
▁exhibited	-7800
▁fashioned	-7801
▁forgotten	-7802
▁fortunate	-7803
▁furniture	-7804
▁gentlemen	-7805
▁intensive	-7806
▁interrupt	-7807
▁maintains	-7808
▁miserable	-7809
▁possibles	-7810
▁purposive	-7811
▁rendering	-7812
▁suspected	-7813
▁variously	-7814
▁violation	-7815
necessarily	-7816
respondence	-7817
▁accounting	-7818
▁answerable	-7819
▁articulate	-7820
▁beginnings	-7821
▁complaints	-7822
▁conclusive	-7823
▁confession	-7824
▁deficiency	-7825
▁denominate	-7826
▁derivative	-7827
▁destroying	-7828
▁influenced	-7829
▁intentions	-7830
▁occurrence	-7831
▁persuasion	-7832
▁possessing	-7833
▁postulates	-7834
▁preserving	-7835
▁pretending	-7836
▁prodigious	-7837
▁productive	-7838
▁structured	-7839
▁subsisting	-7840
▁thereafter	-7841
hysiological	-7842
metaphysical	-7843
ommunication	-7844
▁Peripatetic	-7845
▁Pyrrhonists	-7846
▁approaching	-7847
▁ascertained	-7848
▁assumptions	-7849
▁inquisitive	-7850
▁ontological	-7851
▁penetration	-7852
▁potentially	-7853
▁principally	-7854
▁recognizing	-7855
▁remembering	-7856
▁spontaneous	-7857
▁straightway	-7858
▁subdivision	-7859
▁superficial	-7860
▁compositions	-7861
▁constitutive	-7862
▁contemporary	-7863
▁deliberation	-7864
▁reciprocally	-7865
Transcendental	-7866
▁constitutions	-7867
▁determinative	-7868
▁	-7869
e	-7870
t	-7871
i	-7872
o	-7873
n	-7874
a	-7875
s	-7876
r	-7877
h	-7878
l	-7879
d	-7880
c	-7881
u	-7882
f	-7883
m	-7884
p	-7885
y	-7886
w	-7887
g	-7888
,	-7889
b	-7890
v	-7891
.	-7892
_	-7893
k	-7894
I	-7895
x	-7896
T	-7897
j	-7898
q	-7899
A	-7900
;	-7901
B	-7902
(	-7903
)	-7904
1	-7905
P	-7906
G	-7907
F	-7908
H	-7909
S	-7910
2	-7911
3	-7912
—	-7913
'	-7914
C	-7915
"	-7916
6	-7917
?	-7918
4	-7919
[	-7920
]	-7921
W	-7922
5	-7923
7	-7924
:	-7925
N	-7926
8	-7927
D	-7928
M	-7929
z	-7930
#	-7931
O	-7932
9	-7933
0	-7934
L	-7935
{	-7936
}	-7937
E	-7938
-	-7939
R	-7940
Y	-7941
V	-7942
U	-7943
*	-7944
/	-7945
J	-7946
§	-7947
–	-7948
K	-7949
!	-7950
X	-7951
>	-7952
<	-7953
é	-7954
Q	-7955
=	-7956
â	-7957
Z	-7958
è	-7959
&	-7960
+	-7961
ç	-7962
α	-7963
τ	-7964
ε	-7965
ι	-7966
ν	-7967
ö	-7968
ί	-7969
ρ	-7970
ê	-7971
ü	-7972
ο	-7973
É	-7974
ä	-7975
λ	-7976
χ	-7977
©	-7978
à	-7979
ë	-7980
ï	-7981
ά	-7982
ή	-7983
η	-7984
κ	-7985
ξ	-7986
π	-7987
υ	-7988
ψ	-7989
ἀ	-7990
ἦ	-7991
ἱ	-7992
ἴ	-7993
ἵ	-7994
ὀ	-7995
ὴ	-7996
