<unk>	0
<s>	0
</s>	0
e▁	-0
▁t	-1
▁th	-2
▁a	-3
s▁	-4
t▁	-5
in	-6
▁o	-7
er	-8
d▁	-9
,▁	-10
on	-11
y▁	-12
▁s	-13
▁the▁	-14
▁i	-15
▁w	-16
en	-17
f▁	-18
▁c	-19
o▁	-20
▁of▁	-21
▁b	-22
▁an	-23
ti	-24
re	-25
▁m	-26
.▁	-27
▁p	-28
▁in	-29
an	-30
r▁	-31
ing	-32
th	-33
▁n	-34
▁f	-35
▁to▁	-36
ou	-37
▁and▁	-38
▁h	-39
at▁	-40
l▁	-41
▁e	-42
tion	-43
▁d	-44
es	-45
ing▁	-46
▁wh	-47
▁that▁	-48
▁in▁	-49
er▁	-50
▁is▁	-51
ed▁	-52
or	-53
es▁	-54
om	-55
ic	-56
ar	-57
h▁	-58
ec	-59
is	-60
at	-61
▁re	-62
ly▁	-63
▁a▁	-64
▁con	-65
▁no	-66
▁_	-67
si	-68
▁u	-69
▁I	-70
re▁	-71
▁the	-72
ce	-73
al	-74
tion▁	-75
ve▁	-76
it	-77
▁it▁	-78
ce▁	-79
ow	-80
is▁	-81
▁on	-82
_▁	-83
as	-84
▁al	-85
el	-86
os	-87
▁ex	-88
▁ha	-89
▁l	-90
al▁	-91
▁wi	-92
▁as▁	-93
▁su	-94
▁be▁	-95
en▁	-96
an▁	-97
ts▁	-98
le▁	-99
us	-100
▁pr	-101
▁not▁	-102
or▁	-103
▁whic	-104
▁I▁	-105
st	-106
▁which▁	-107
▁or▁	-108
ut▁	-109
▁are▁	-110
▁we▁	-111
de	-112
le	-113
od	-114
▁g	-115
ver	-116
▁by▁	-117
▁be	-118
om▁	-119
▁with	-120
im	-121
▁this▁	-122
ther▁	-123
ain	-124
▁un	-125
▁fr	-126
ere▁	-127
Th	-128
on▁	-129
ld▁	-130
▁from▁	-131
ac	-132
am	-133
ent▁	-134
qu	-135
ist	-136
ol	-137
▁have▁	-138
▁ma	-139
pp	-140
ff	-141
ble▁	-142
▁all▁	-143
ent	-144
m▁	-145
ig	-146
▁Th	-147
ir	-148
il	-149
ul	-150
ed	-151
ter	-152
ence▁	-153
iv	-154
stan	-155
oug	-156
▁for▁	-157
▁ou	-158
ould▁	-159
;▁	-160
▁per	-161
▁ac	-162
op	-163
▁with▁	-164
▁they▁	-165
ur	-166
▁can▁	-167
▁but▁	-168
res	-169
▁y	-170
▁de	-171
jec	-172
▁A	-173
sel	-174
ation	-175
▁ob	-176
um	-177
tr	-178
n▁	-179
▁k	-180
aus	-181
ation▁	-182
▁im	-183
▁an▁	-184
▁com	-185
▁sen	-186
▁se	-187
der	-188
ci	-189
ure▁	-190
thing▁	-191
▁our▁	-192
ore▁	-193
dea	-194
▁(	-195
ar▁	-196
now	-197
ll▁	-198
▁thing	-199
▁it	-200
em	-201
ch▁	-202
▁sub	-203
ere	-204
▁B	-205
tic	-206
▁one▁	-207
cep	-208
ity▁	-209
▁sh	-210
▁any▁	-211
▁par	-212
▁only▁	-213
▁G	-214
ose▁	-215
▁bod	-216
▁tr	-217
tain	-218
_.▁	-219
▁int	-220
▁no▁	-221
▁nat	-222
▁exp	-223
▁di	-224
▁wa	-225
▁som	-226
▁he▁	-227
▁reas	-228
▁its▁	-229
ir▁	-230
id	-231
▁you	-232
▁r	-233
▁min	-234
▁what▁	-235
▁know	-236
▁sp	-237
ut	-238
▁,▁	-239
▁ab	-240
▁v	-241
ust▁	-242
og	-243
se▁	-244
out▁	-245
eri	-246
oun	-247
▁F	-248
▁their▁	-249
▁ne	-250
▁so▁	-251
▁ev	-252
▁there▁	-253
▁idea	-254
ame▁	-255
ese▁	-256
▁on▁	-257
ough▁	-258
▁if▁	-259
▁sa	-260
▁objec	-261
▁app	-262
od▁	-263
ht▁	-264
▁me	-265
ess	-266
dg	-267
tions▁	-268
ke▁	-269
se	-270
ther	-271
▁these▁	-272
k▁	-273
▁mo	-274
ter▁	-275
▁at▁	-276
▁caus	-277
ess▁	-278
▁other▁	-279
▁will▁	-280
ow▁	-281
ate▁	-282
▁wor	-283
end	-284
▁for	-285
ag	-286
▁more▁	-287
ver▁	-288
hil	-289
▁would▁	-290
▁But▁	-291
▁has▁	-292
ap	-293
ann	-294
▁must▁	-295
▁them	-296
▁pro	-297
▁same▁	-298
▁his▁	-299
ding▁	-300
▁exist	-301
▁than▁	-302
▁things▁	-303
▁do	-304
▁such▁	-305
▁under	-306
ty▁	-307
ossi	-308
▁qu	-309
▁diff	-310
very▁	-311
▁S	-312
ence	-313
▁them▁	-314
ss	-315
▁For▁	-316
▁you▁	-317
▁or	-318
ear	-319
ure	-320
▁do▁	-321
▁H	-322
pl	-323
▁j	-324
ni	-325
osi	-326
▁An	-327
▁dis	-328
ot▁	-329
▁li	-330
▁being▁	-331
▁may▁	-332
able▁	-333
der▁	-334
▁substan	-335
ely▁	-336
▁inf	-337
ds▁	-338
ted▁	-339
▁those▁	-340
?▁	-341
ally▁	-342
▁P	-343
ore	-344
w▁	-345
▁thin	-346
▁ar	-347
ertain	-348
ive▁	-349
▁without▁	-350
▁[	-351
▁tru	-352
▁mat	-353
▁dist	-354
▁en	-355
▁man	-356
▁understan	-357
▁pre	-358
▁And▁	-359
ib	-360
▁God▁	-361
:▁	-362
▁cann	-363
ces▁	-364
st▁	-365
▁tim	-366
tu	-367
ie	-368
▁comp	-369
]▁	-370
)▁	-371
ies▁	-372
th▁	-373
ect▁	-374
et▁	-375
▁imp	-376
ad	-377
inci	-378
▁cannot▁	-379
▁prop	-380
▁some▁	-381
ly	-382
▁concep	-383
ong	-384
▁when▁	-385
▁The▁	-386
ab	-387
eref	-388
▁ch	-389
▁up	-390
▁my▁	-391
ary▁	-392
▁bec	-393
▁possi	-394
deas	-395
▁us▁	-396
all▁	-397
▁acc	-398
▁nec	-399
ity	-400
▁certain	-401
▁at	-402
▁cons	-403
▁itsel	-404
ous▁	-405
▁sens	-406
▁st	-407
ceiv	-408
▁does▁	-409
▁reason▁	-410
▁experi	-411
min	-412
▁conc	-413
▁W	-414
▁reason	-415
ts	-416
▁nature▁	-417
▁who▁	-418
▁princi	-419
▁pl	-420
▁mind▁	-421
ay	-422
uc	-423
▁thoug	-424
▁ag	-425
de▁	-426
ledg	-427
▁ad	-428
oph	-429
reat	-430
▁als	-431
str	-432
▁some	-433
sion	-434
▁C	-435
a▁	-436
▁was▁	-437
di	-438
▁nothing▁	-439
ations▁	-440
▁differ	-441
ang	-442
osoph	-443
hilosoph	-444
ten	-445
sion▁	-446
▁also▁	-447
lu	-448
tive▁	-449
termin	-450
ical▁	-451
▁rep	-452
▁idea▁	-453
▁N	-454
ves▁	-455
ite▁	-456
▁into▁	-457
▁ano	-458
ces	-459
oll	-460
ea	-461
▁fin	-462
▁pres	-463
▁res	-464
▁him	-465
▁appear	-466
▁determin	-467
..	-468
ch	-469
▁even▁	-470
ost▁	-471
ince▁	-472
ether▁	-473
▁other	-474
ause▁	-475
▁rel	-476
▁sou	-477
▁1	-478
▁consi	-479
▁fir	-480
▁body▁	-481
}▁	-482
▁op	-483
ace▁	-484
▁fac	-485
ight▁	-486
inc	-487
▁philosoph	-488
▁imag	-489
ell	-490
▁theref	-491
▁eff	-492
▁thr	-493
▁necess	-494
one▁	-495
▁reg	-496
▁knowledg	-497
king▁	-498
ain▁	-499
▁bel	-500
tern	-501
▁could▁	-502
▁were▁	-503
ish	-504
iti	-505
▁is	-506
▁comm	-507
ous	-508
▁because▁	-509
▁pow	-510
▁very▁	-511
id▁	-512
▁uni	-513
▁sim	-514
ate	-515
ine▁	-516
tions	-517
ceive▁	-518
▁ideas▁	-519
▁God	-520
▁should▁	-521
ything▁	-522
▁cause▁	-523
▁me▁	-524
ple▁	-525
▁prod	-526
udg	-527
of	-528
ents▁	-529
▁then▁	-530
ither▁	-531
▁foll	-532
▁partic	-533
▁make▁	-534
▁appearan	-535
▁M	-536
▁{	-537
▁giv	-538
▁tw	-539
uman▁	-540
us▁	-541
ong▁	-542
▁been▁	-543
ve	-544
▁through▁	-545
▁supp	-546
▁upon▁	-547
ari	-548
ener	-549
▁infin	-550
▁contr	-551
▁ta	-552
▁since▁	-553
ideas	-554
▁D	-555
▁mind	-556
▁certain▁	-557
▁judg	-558
▁first▁	-559
▁us	-560
▁bet	-561
un	-562
▁sy	-563
est▁	-564
in▁	-565
"▁	-566
▁em	-567
ays▁	-568
▁ass	-569
uch▁	-570
ant▁	-571
▁time▁	-572
▁ref	-573
all	-574
▁know▁	-575
▁distinc	-576
▁L	-577
▁sensi	-578
▁ow	-579
ise▁	-580
▁gr	-581
▁something▁	-582
▁thing▁	-583
▁rem	-584
▁repres	-585
▁most▁	-586
▁human▁	-587
▁gener	-588
ern	-589
ori	-590
),▁	-591
ular▁	-592
▁perf	-593
ici	-594
▁never▁	-595
▁subjec	-596
ans	-597
▁conf	-598
▁cont	-599
▁existence▁	-600
ys	-601
▁inc	-602
▁form	-603
▁way▁	-604
▁It▁	-605
▁two▁	-606
▁"	-607
▁abs	-608
tly▁	-609
ute▁	-610
it▁	-611
ard▁	-612
ection▁	-613
ogni	-614
ach▁	-615
▁alw	-616
▁themsel	-617
▁percep	-618
▁aff	-619
▁O	-620
▁disc	-621
▁yet▁	-622
▁intu	-623
we	-624
igh	-625
ree▁	-626
▁though▁	-627
▁This▁	-628
▁always▁	-629
▁objects▁	-630
ist▁	-631
▁itself▁	-632
▁about▁	-633
▁ins	-634
ast▁	-635
.,▁	-636
▁different▁	-637
▁le	-638
▁how▁	-639
▁pri	-640
▁natur	-641
▁la	-642
▁nam	-643
▁go	-644
oin	-645
▁consider	-646
ans▁	-647
ality▁	-648
ep	-649
▁own▁	-650
ll	-651
ated▁	-652
▁had▁	-653
▁things	-654
cc	-655
▁matter▁	-656
▁possible▁	-657
ance▁	-658
▁nor▁	-659
osition▁	-660
ini	-661
▁des	-662
▁principl	-663
ty	-664
ound▁	-665
ving▁	-666
▁order▁	-667
▁univer	-668
▁imm	-669
wh	-670
▁think▁	-671
▁accor	-672
▁motion▁	-673
ot	-674
▁intui	-675
if	-676
ers▁	-677
ternal▁	-678
▁another▁	-679
▁knowledge▁	-680
▁every▁	-681
▁say▁	-682
▁see▁	-683
▁whether▁	-684
▁man▁	-685
▁body	-686
▁cor	-687
▁betwe	-688
▁E	-689
▁cle	-690
▁all	-691
▁obs	-692
▁much▁	-693
▁object▁	-694
our	-695
ding	-696
▁between▁	-697
▁follow	-698
▁ever	-699
hys	-700
ting▁	-701
ound	-702
▁thought▁	-703
▁condi	-704
▁possib	-705
ell▁	-706
▁who	-707
▁given▁	-708
▁as	-709
ently▁	-710
▁being	-711
▁true▁	-712
▁cogni	-713
▁part▁	-714
▁Wh	-715
▁many▁	-716
▁pure▁	-717
ness▁	-718
▁nature	-719
▁particular▁	-720
▁sti	-721
▁perceiv	-722
▁represent	-723
▁substance▁	-724
▁ess	-725
▁ra	-726
▁inde	-727
▁priori	-728
▁use▁	-729
owe	-730
▁experience▁	-731
▁am▁	-732
▁belie	-733
▁exam	-734
▁qual	-735
▁experience	-736
sequ	-737
▁though	-738
▁bodies▁	-739
▁so	-740
▁cas	-741
▁expl	-742
▁judgm	-743
▁bo	-744
oub	-745
thes	-746
).▁	-747
▁br	-748
▁shall▁	-749
ies	-750
reat▁	-751
▁imagin	-752
▁concern	-753
▁T	-754
tic▁	-755
ely	-756
mon	-757
and▁	-758
▁In▁	-759
##	-760
ex	-761
▁ind	-762
▁arg	-763
▁emp	-764
ond▁	-765
▁according▁	-766
▁each▁	-767
ved▁	-768
▁Pr	-769
▁still▁	-770
▁intell	-771
▁therefore▁	-772
▁power▁	-773
▁sensible▁	-774
oc	-775
▁pas	-776
▁occ	-777
▁find▁	-778
▁str	-779
hen	-780
▁your▁	-781
▁itself	-782
▁great	-783
▁parts▁	-784
▁understanding▁	-785
Phil	-786
▁qualiti	-787
▁concept▁	-788
gn	-789
▁attr	-790
▁exten	-791
▁seem	-792
▁natural▁	-793
edi	-794
ility▁	-795
ves	-796
self▁	-797
▁creat	-798
▁fe	-799
▁great▁	-800
▁contain	-801
▁comple	-802
▁either▁	-803
yl	-804
ect	-805
red▁	-806
erely▁	-807
ations	-808
▁soul▁	-809
▁am	-810
▁mod	-811
ace	-812
▁made▁	-813
▁merely▁	-814
Pr	-815
▁sec	-816
▁doub	-817
▁say	-818
ofar▁	-819
▁like▁	-820
▁principles▁	-821
as▁	-822
▁chang	-823
▁poin	-824
▁spir	-825
ish▁	-826
par	-827
▁obser	-828
qui	-829
ied▁	-830
▁kin	-831
▁that	-832
▁see	-833
▁consequ	-834
▁anything▁	-835
▁sense▁	-836
ub	-837
over	-838
▁ques	-839
ple	-840
▁insofar▁	-841
▁argum	-842
▁syn	-843
▁attrib	-844
▁absol	-845
▁necessary▁	-846
enti	-847
▁law	-848
▁conn	-849
▁general▁	-850
hap	-851
▁world▁	-852
umb	-853
▁dec	-854
ati	-855
▁to	-856
▁dep	-857
▁div	-858
▁enti	-859
▁af	-860
▁happ	-861
kes▁	-862
▁suff	-863
▁produ	-864
ke	-865
▁of	-866
▁el	-867
▁means▁	-868
▁R	-869
Hyl	-870
icul	-871
▁call	-872
▁evid	-873
▁understanding	-874
▁think	-875
osed▁	-876
The▁	-877
▁exist▁	-878
▁fur	-879
▁fig	-880
arily▁	-881
▁If▁	-882
▁def	-883
▁men▁	-884
idea	-885
▁space▁	-886
▁common▁	-887
▁opini	-888
▁sci	-889
▁spec	-890
▁now▁	-891
▁oper	-892
▁actu	-893
▁said▁	-894
▁consci	-895
▁out▁	-896
▁empir	-897
the	-898
▁beg	-899
owever	-900
▁another	-901
▁well▁	-902
▁matter	-903
rely▁	-904
▁time	-905
▁infinite▁	-906
▁pers	-907
▁difficul	-908
▁themselves▁	-909
tap	-910
▁rec	-911
▁here▁	-912
▁ext	-913
▁conclu	-914
▁distinct▁	-915
hysic	-916
▁ideas	-917
ished▁	-918
tim	-919
ists▁	-920
▁him▁	-921
▁real▁	-922
▁where▁	-923
and	-924
▁not	-925
asi	-926
▁sever	-927
▁far▁	-928
▁trans	-929
▁call▁	-930
▁equ	-931
itt	-932
orm	-933
▁will	-934
ately▁	-935
ld	-936
▁fact▁	-937
ties▁	-938
▁seems▁	-939
▁called▁	-940
ond	-941
▁numb	-942
▁concerning▁	-943
▁conceive▁	-944
sity▁	-945
▁therefore	-946
uth	-947
▁facul	-948
▁thus▁	-949
▁2	-950
▁both▁	-951
ort	-952
ingu	-953
tical▁	-954
▁fa	-955
▁mere▁	-956
▁produc	-957
itu	-958
thing	-959
▁whole▁	-960
art	-961
▁cl	-962
▁lim	-963
▁mann	-964
▁everything▁	-965
sp	-966
ic▁	-967
▁bef	-968
▁lif	-969
ental▁	-970
▁perceive▁	-971
▁several▁	-972
▁substance	-973
inu	-974
▁give▁	-975
rec	-976
▁adm	-977
▁under▁	-978
ant	-979
▁this	-980
old▁	-981
▁col	-982
arly▁	-983
▁concepts▁	-984
▁deg	-985
▁II	-986
▁form▁	-987
▁just▁	-988
▁distingu	-989
▁ter	-990
▁regard▁	-991
ers	-992
les▁	-993
▁simple▁	-994
▁necessarily▁	-995
isi	-996
ents	-997
▁up▁	-998
cend	-999
though▁	-1000
▁principle▁	-1001
▁he	-1002
strac	-1003
▁my	-1004
▁den	-1005
▁external▁	-1006
ach	-1007
▁We▁	-1008
▁able▁	-1009
▁found▁	-1010
▁having▁	-1011
know	-1012
▁immedi	-1013
its▁	-1014
icient▁	-1015
igi	-1016
able	-1017
ra	-1018
one	-1019
▁ple	-1020
vi	-1021
▁anim	-1022
▁proper	-1023
▁sense	-1024
▁impossi	-1025
ness	-1026
▁thinking▁	-1027
▁cap	-1028
▁subject▁	-1029
ory▁	-1030
ove▁	-1031
▁soul	-1032
▁less▁	-1033
▁conceiv	-1034
▁present▁	-1035
ul▁	-1036
ative▁	-1037
▁continu	-1038
▁fal	-1039
▁qualities▁	-1040
▁way	-1041
ences▁	-1042
▁ever▁	-1043
▁take▁	-1044
▁univers	-1045
▁sig	-1046
▁auth	-1047
▁least▁	-1048
ard	-1049
▁fre	-1050
▁pleas	-1051
▁causes▁	-1052
ene	-1053
▁resp	-1054
ile▁	-1055
self	-1056
ble	-1057
▁metap	-1058
▁after▁	-1059
cr	-1060
emp	-1061
irc	-1062
▁whose▁	-1063
▁senses▁	-1064
▁might▁	-1065
▁senses	-1066
oo	-1067
te▁	-1068
▁men	-1069
▁empirical▁	-1070
ary	-1071
ay▁	-1072
nif	-1073
rehen	-1074
▁circ	-1075
▁orig	-1076
▁again	-1077
▁Hence▁	-1078
ended▁	-1079
are▁	-1080
▁appearances▁	-1081
▁anal	-1082
▁why▁	-1083
monstr	-1084
▁bodies	-1085
▁expres	-1086
▁Theref	-1087
▁litt	-1088
▁case▁	-1089
ks▁	-1090
▁pur	-1091
▁vie	-1092
▁abstrac	-1093
atever▁	-1094
emb	-1095
▁rather▁	-1096
con	-1097
▁suc	-1098
ected▁	-1099
▁place▁	-1100
▁3	-1101
ally	-1102
ght▁	-1103
ken▁	-1104
▁truth	-1105
▁world	-1106
▁relation▁	-1107
I▁	-1108
them	-1109
▁sup	-1110
▁refl	-1111
▁perhap	-1112
▁understand▁	-1113
▁did▁	-1114
sions▁	-1115
▁notion▁	-1116
▁demonstr	-1117
of▁	-1118
▁disp	-1119
▁laws▁	-1120
▁hence▁	-1121
esc	-1122
ited▁	-1123
##▁	-1124
ful▁	-1125
olog	-1126
ady▁	-1127
▁indiv	-1128
▁motion	-1129
▁inv	-1130
▁tog	-1131
▁cause	-1132
▁materi	-1133
▁Y	-1134
▁little▁	-1135
▁consider▁	-1136
▁intuition▁	-1137
▁makes▁	-1138
▁themselves	-1139
adic	-1140
less▁	-1141
▁neces	-1142
err	-1143
ects▁	-1144
▁good▁	-1145
▁consti	-1146
▁essence▁	-1147
escart	-1148
by▁	-1149
ement▁	-1150
▁kind▁	-1151
▁Le	-1152
▁sm	-1153
▁our	-1154
▁sol	-1155
▁neither▁	-1156
▁existence	-1157
▁produce▁	-1158
▁syst	-1159
ight	-1160
ual▁	-1161
▁among▁	-1162
▁knowledge	-1163
▁lea	-1164
wise▁	-1165
▁accoun	-1166
▁namely	-1167
ication▁	-1168
▁show	-1169
▁requi	-1170
▁conscious	-1171
▁att	-1172
▁lat	-1173
▁agre	-1174
▁come▁	-1175
▁inter	-1176
▁proce	-1177
▁effect▁	-1178
▁attribut	-1179
▁corp	-1180
▁greater▁	-1181
yp	-1182
▁any	-1183
ance	-1184
▁and	-1185
▁spea	-1186
▁connection▁	-1187
▁new▁	-1188
ort▁	-1189
▁manif	-1190
▁follows▁	-1191
▁indeed▁	-1192
▁believe▁	-1193
▁further▁	-1194
ived▁	-1195
▁becom	-1196
▁mathem	-1197
sw	-1198
1.▁	-1199
ourse▁	-1200
▁which	-1201
▁instan	-1202
arr	-1203
rem	-1204
end▁	-1205
yond▁	-1206
▁alone▁	-1207
▁signif	-1208
▁contradic	-1209
ates▁	-1210
thesis▁	-1211
▁before▁	-1212
abl	-1213
▁bl	-1214
▁prov	-1215
▁against▁	-1216
dic	-1217
▁Descart	-1218
▁although▁	-1219
ures▁	-1220
▁ent	-1221
▁infinit	-1222
▁perfect▁	-1223
2.▁	-1224
4.▁	-1225
▁seri	-1226
cendental▁	-1227
ich▁	-1228
▁beyond▁	-1229
▁entirely▁	-1230
▁question▁	-1231
▁answ	-1232
▁vari	-1233
▁considered▁	-1234
ten▁	-1235
▁appe	-1236
▁end	-1237
▁point▁	-1238
▁clear▁	-1239
▁force▁	-1240
▁unity▁	-1241
ip	-1242
...	-1243
eas	-1244
tis	-1245
▁inn	-1246
ings▁	-1247
x▁	-1248
oli	-1249
▁while▁	-1250
▁need▁	-1251
▁fi	-1252
ood▁	-1253
▁adv	-1254
▁depend	-1255
▁oursel	-1256
▁proposi	-1257
▁;▁	-1258
▁der	-1259
▁est	-1260
▁out	-1261
ection	-1262
▁perhaps▁	-1263
3.▁	-1264
ust	-1265
▁truth▁	-1266
▁perception▁	-1267
But▁	-1268
▁mor	-1269
▁one	-1270
▁sel	-1271
▁found	-1272
▁simil	-1273
▁else▁	-1274
▁where	-1275
▁individ	-1276
▁determined▁	-1277
age▁	-1278
ors▁	-1279
ast	-1280
als▁	-1281
▁alre	-1282
▁change▁	-1283
ob	-1284
▁U	-1285
▁id	-1286
▁ear	-1287
ards▁	-1288
▁manner▁	-1289
omp	-1290
erence▁	-1291
▁himself▁	-1292
▁number▁	-1293
ome	-1294
ility	-1295
▁there	-1296
▁action▁	-1297
ad▁	-1298
▁easi	-1299
▁impres	-1300
▁origin	-1301
▁cognition▁	-1302
5.▁	-1303
the▁	-1304
▁err	-1305
▁act▁	-1306
which▁	-1307
▁whatever▁	-1308
▁already▁	-1309
▁capable▁	-1310
▁Therefore	-1311
br	-1312
omen	-1313
▁Con	-1314
tain▁	-1315
ey▁	-1316
man	-1317
tisf	-1318
▁That▁	-1319
▁satisf	-1320
▁state▁	-1321
▁taken▁	-1322
▁respect▁	-1323
av	-1324
pr	-1325
ism	-1326
niz	-1327
▁excep	-1328
▁mathema	-1329
▁wr	-1330
▁absolut	-1331
▁thought	-1332
▁clearly▁	-1333
▁metaphysic	-1334
▁perceived▁	-1335
6.▁	-1336
quir	-1337
▁hyp	-1338
▁opinion	-1339
▁possibility▁	-1340
ane	-1341
ide▁	-1342
▁cre	-1343
▁asser	-1344
thetic▁	-1345
▁remain	-1346
▁corpore	-1347
ality	-1348
▁A▁	-1349
▁ru	-1350
▁posi	-1351
▁absur	-1352
▁follow▁	-1353
▁evident▁	-1354
oy	-1355
tiv	-1356
ibniz	-1357
▁begin	-1358
▁long▁	-1359
▁separ	-1360
▁doubt▁	-1361
▁quite▁	-1362
▁substances▁	-1363
iz	-1364
upp	-1365
that▁	-1366
▁however	-1367
ded	-1368
thel	-1369
▁ser	-1370
▁purp	-1371
▁myself▁	-1372
▁discover	-1373
▁impossible▁	-1374
7.▁	-1375
▁ey	-1376
▁opp	-1377
▁sur	-1378
est	-1379
ses▁	-1380
din	-1381
▁sk	-1382
▁Thus▁	-1383
▁succes	-1384
▁appearances	-1385
▁appl	-1386
▁suppose▁	-1387
em▁	-1388
▁char	-1389
▁often▁	-1390
▁absolute▁	-1391
▁doc	-1392
▁hypo	-1393
▁resul	-1394
up	-1395
▁direc	-1396
▁words▁	-1397
▁intuition	-1398
▁conditions▁	-1399
▁philosophy▁	-1400
▁cr	-1401
ded▁	-1402
▁To▁	-1403
▁parts	-1404
▁others▁	-1405
ds	-1406
."▁	-1407
▁dra	-1408
▁universal▁	-1409
▁Ar	-1410
▁seem▁	-1411
▁example	-1412
▁sensation▁	-1413
ame	-1414
rom▁	-1415
▁term	-1416
▁possible	-1417
▁substances	-1418
duc	-1419
▁ang	-1420
▁Now▁	-1421
▁too▁	-1422
▁every	-1423
▁minds▁	-1424
▁objects	-1425
▁judgment▁	-1426
▁sufficient▁	-1427
▁pos	-1428
▁sing	-1429
▁known▁	-1430
▁prove▁	-1431
▁faculty▁	-1432
ech	-1433
▁doctr	-1434
▁fl	-1435
ating▁	-1436
▁space	-1437
▁establ	-1438
▁actions▁	-1439
▁thoughts▁	-1440
ill	-1441
▁occa	-1442
ously▁	-1443
▁tur	-1444
▁object	-1445
▁Leibniz	-1446
8.▁	-1447
ur▁	-1448
▁org	-1449
ning▁	-1450
▁then	-1451
▁atten	-1452
▁extension▁	-1453
▁et	-1454
▁life▁	-1455
et	-1456
sive▁	-1457
▁reality▁	-1458
9.▁	-1459
▁etc	-1460
▁mean	-1461
▁power	-1462
▁really▁	-1463
▁absolutely▁	-1464
▁immediately▁	-1465
▁are	-1466
▁ign	-1467
▁corporeal▁	-1468
ue▁	-1469
el▁	-1470
side▁	-1471
▁ought▁	-1472
▁series▁	-1473
▁imagine▁	-1474
,"▁	-1475
are	-1476
ens	-1477
ned▁	-1478
▁belong	-1479
▁appear▁	-1480
ge▁	-1481
▁16	-1482
▁val	-1483
▁effects▁	-1484
ough	-1485
▁wat	-1486
ences	-1487
▁put▁	-1488
▁ignor	-1489
▁constit	-1490
▁He▁	-1491
▁together▁	-1492
▁necessity▁	-1493
▁pe	-1494
▁magn	-1495
▁invol	-1496
▁proper▁	-1497
▁account▁	-1498
▁disco	-1499
ections▁	-1500
▁actually▁	-1501
▁philosophy	-1502
▁philosophers▁	-1503
▁aw	-1504
▁exc	-1505
henomen	-1506
▁easily▁	-1507
▁condition▁	-1508
▁difference▁	-1509
▁affir	-1510
▁once▁	-1511
▁religi	-1512
▁opinion▁	-1513
▁There▁	-1514
▁abstract▁	-1515
▁synthetic▁	-1516
ubl	-1517
ateg	-1518
▁assum	-1519
▁show▁	-1520
#▁	-1521
▁tri	-1522
▁inquir	-1523
▁right▁	-1524
▁notions▁	-1525
▁reasoning▁	-1526
0.▁	-1527
cy▁	-1528
ice▁	-1529
ides▁	-1530
▁derived▁	-1531
▁ourselves▁	-1532
▁perceptions▁	-1533
▁mir	-1534
▁name▁	-1535
▁appearance▁	-1536
au	-1537
▁co	-1538
▁supposed▁	-1539
▁In	-1540
crib	-1541
▁degre	-1542
▁charac	-1543
▁contrary▁	-1544
▁desi	-1545
▁hand	-1546
▁lear	-1547
▁except▁	-1548
▁explain	-1549
▁subject	-1550
▁phenomen	-1551
▁produced▁	-1552
irtu	-1553
▁prec	-1554
verthel	-1555
▁intellig	-1556
ine	-1557
ures	-1558
▁aris	-1559
▁mean▁	-1560
▁person	-1561
▁magnitu	-1562
il▁	-1563
ked▁	-1564
ties	-1565
▁Nat	-1566
▁conv	-1567
▁high	-1568
▁occur	-1569
ep▁	-1570
ment▁	-1571
▁peop	-1572
ought▁	-1573
▁They▁	-1574
▁place	-1575
▁prece	-1576
▁word▁	-1577
▁observ	-1578
▁spirit	-1579
▁become▁	-1580
▁degree▁	-1581
▁argument▁	-1582
▁del	-1583
▁others	-1584
▁within▁	-1585
▁explain▁	-1586
▁extension	-1587
▁material▁	-1588
▁individual▁	-1589
'▁	-1590
▁hear	-1591
▁circum	-1592
knowledg	-1593
▁conceived▁	-1594
ful	-1595
ith	-1596
ted	-1597
ably▁	-1598
owed▁	-1599
▁All▁	-1600
▁light▁	-1601
...]▁	-1602
▁like	-1603
▁meth	-1604
▁virtu	-1605
▁constan	-1606
▁proposition▁	-1607
Pro	-1608
▁As▁	-1609
▁use	-1610
ined▁	-1611
tioned▁	-1612
▁identi	-1613
▁qualities	-1614
cid	-1615
ture▁	-1616
▁happen	-1617
▁determine▁	-1618
▁Sp	-1619
▁So▁	-1620
most▁	-1621
▁system▁	-1622
▁arguments▁	-1623
▁attribute▁	-1624
▁J	-1625
▁gl	-1626
ind▁	-1627
▁mem	-1628
▁mis	-1629
▁view	-1630
▁These▁	-1631
▁representation▁	-1632
....	-1633
ism▁	-1634
ular	-1635
▁life	-1636
▁categ	-1637
▁confus	-1638
▁figure	-1639
▁receiv	-1640
▁underst	-1641
▁transcendental▁	-1642
▁[▁	-1643
▁You	-1644
▁self	-1645
▁over▁	-1646
▁presupp	-1647
▁science▁	-1648
▁imagination▁	-1649
sions	-1650
▁comb	-1651
▁shap	-1652
▁freed	-1653
▁consciousness▁	-1654
16	-1655
edit	-1656
▁hel	-1657
▁sch	-1658
ided▁	-1659
oses▁	-1660
▁carr	-1661
▁prob	-1662
▁mirac	-1663
▁predic	-1664
▁former▁	-1665
▁second▁	-1666
▁otherwise▁	-1667
▁synthesis▁	-1668
▁ge	-1669
ook▁	-1670
▁pain	-1671
▁skep	-1672
▁etern	-1673
▁beings▁	-1674
▁various▁	-1675
▁operations▁	-1676
▁consequently▁	-1677
▁ful	-1678
▁[...]▁	-1679
▁common	-1680
▁exists▁	-1681
▁single▁	-1682
▁judgments▁	-1683
ory	-1684
ily▁	-1685
tane	-1686
▁hop	-1687
▁tow	-1688
▁plac	-1689
▁rest	-1690
▁defini	-1691
▁judge▁	-1692
▁three▁	-1693
▁principles	-1694
spec	-1695
ters▁	-1696
▁What▁	-1697
▁similar▁	-1698
als	-1699
▁Ne	-1700
▁sc	-1701
ible	-1702
orm▁	-1703
resp	-1704
▁unknow	-1705
▁However	-1706
▁contains▁	-1707
▁discover▁	-1708
▁circumstan	-1709
ors	-1710
ose	-1711
sub	-1712
reas	-1713
▁let▁	-1714
ounds▁	-1715
▁names▁	-1716
▁created▁	-1717
▁greatest▁	-1718
▁4	-1719
im▁	-1720
▁17	-1721
▁bas	-1722
▁mar	-1723
ateri	-1724
ying▁	-1725
▁Prop	-1726
▁consists▁	-1727
▁eas	-1728
▁ration	-1729
erf	-1730
▁ap	-1731
pend	-1732
sed▁	-1733
▁dur	-1734
▁what	-1735
▁commun	-1736
hysical▁	-1737
▁better▁	-1738
▁consist	-1739
▁latter▁	-1740
Wh	-1741
▁V	-1742
um▁	-1743
til▁	-1744
▁above▁	-1745
▁motions▁	-1746
▁existing▁	-1747
oe	-1748
ta	-1749
▁av	-1750
▁rul	-1751
echan	-1752
▁set▁	-1753
▁analy	-1754
▁inclu	-1755
▁influ	-1756
▁analog	-1757
▁answer▁	-1758
▁complet	-1759
▁Descartes	-1760
ef	-1761
anti	-1762
▁false	-1763
▁admit▁	-1764
▁sensib	-1765
▁author▁	-1766
▁general	-1767
ind	-1768
▁divine▁	-1769
▁imagination	-1770
▁metaphysics▁	-1771
ista	-1772
▁liv	-1773
▁prim	-1774
▁doubt	-1775
▁geome	-1776
owever▁	-1777
▁causes	-1778
▁effect	-1779
▁until▁	-1780
▁making▁	-1781
▁universe	-1782
les	-1783
esti	-1784
iness▁	-1785
▁view▁	-1786
▁cogniz	-1787
▁import	-1788
▁corresp	-1789
▁objective▁	-1790
▁distinguish▁	-1791
ently	-1792
▁true	-1793
vious▁	-1794
▁author	-1795
▁triang	-1796
▁enough▁	-1797
▁eternal▁	-1798
▁universe▁	-1799
▁dre	-1800
▁log	-1801
▁wis	-1802
▁dece	-1803
▁exac	-1804
▁equal▁	-1805
▁mechan	-1806
▁acknowledg	-1807
▁following▁	-1808
▁Tr	-1809
ious▁	-1810
▁main	-1811
▁real	-1812
▁mista	-1813
▁move▁	-1814
▁rest▁	-1815
▁figure▁	-1816
▁By▁	-1817
▁Thus	-1818
▁manifold▁	-1819
▁mathematic	-1820
▁Proposition▁	-1821
▁K	-1822
unc	-1823
dequ	-1824
▁ded	-1825
▁thir	-1826
▁words	-1827
▁proof▁	-1828
▁nothing	-1829
▁contained▁	-1830
▁mom	-1831
Proof	-1832
tice▁	-1833
▁incon	-1834
▁false▁	-1835
▁unless▁	-1836
▁comprehen	-1837
▁perception	-1838
p▁	-1839
king	-1840
res▁	-1841
asis▁	-1842
▁coun	-1843
▁fore	-1844
▁want▁	-1845
▁attemp	-1846
▁anyone▁	-1847
▁observe▁	-1848
eng	-1849
▁hea	-1850
▁tou	-1851
▁You▁	-1852
▁publ	-1853
▁same	-1854
▁When▁	-1855
▁free▁	-1856
▁moral▁	-1857
▁specul	-1858
▁course▁	-1859
▁proceed▁	-1860
▁affected▁	-1861
It▁	-1862
ack▁	-1863
oid▁	-1864
▁have	-1865
▁From▁	-1866
▁proof	-1867
isible▁	-1868
▁agree▁	-1869
▁equally▁	-1870
▁propositions▁	-1871
lem	-1872
reme▁	-1873
▁extr	-1874
▁obsc	-1875
▁deny▁	-1876
▁basis▁	-1877
▁concepts	-1878
eds▁	-1879
▁fut	-1880
ward▁	-1881
▁prac	-1882
times▁	-1883
▁quanti	-1884
▁suffici	-1885
▁species▁	-1886
▁reasoning	-1887
ber	-1888
ern▁	-1889
tive	-1890
▁Par	-1891
▁go▁	-1892
▁ask▁	-1893
▁good	-1894
▁modif	-1895
▁outside▁	-1896
▁agreement▁	-1897
▁On▁	-1898
iety▁	-1899
▁few▁	-1900
▁sour	-1901
▁subs	-1902
sible▁	-1903
▁himself	-1904
ev	-1905
sity	-1906
vers	-1907
▁unc	-1908
ercep	-1909
▁people▁	-1910
▁certainly▁	-1911
▁represent▁	-1912
▁attributes▁	-1913
ne	-1914
▁arr	-1915
exist	-1916
▁mank	-1917
dinary▁	-1918
▁actual▁	-1919
▁independ	-1920
▁neverthel	-1921
▁neg	-1922
▁hold▁	-1923
▁order	-1924
▁present	-1925
▁however▁	-1926
▁thereby▁	-1927
▁doctrine▁	-1928
An	-1929
▁Hum	-1930
thesis	-1931
ination▁	-1932
versity▁	-1933
▁result▁	-1934
▁infinite	-1935
▁unknown▁	-1936
▁complete▁	-1937
ote▁	-1938
ether	-1939
▁poss	-1940
▁last▁	-1941
▁resol	-1942
igible▁	-1943
▁propor	-1944
▁certainty▁	-1945
▁determination▁	-1946
ken	-1947
▁jus	-1948
▁rea	-1949
▁stu	-1950
econd	-1951
itiqu	-1952
▁dream	-1953
▁contain▁	-1954
▁completely▁	-1955
for▁	-1956
▁cho	-1957
▁impr	-1958
itted▁	-1959
▁bring▁	-1960
▁preser	-1961
▁finite▁	-1962
▁properties▁	-1963
**	-1964
ov	-1965
soe	-1966
deav	-1967
utes▁	-1968
▁appr	-1969
▁law▁	-1970
▁meas	-1971
▁endeav	-1972
▁commonly▁	-1973
▁understood▁	-1974
▁Ch	-1975
▁fo	-1976
des▁	-1977
▁har	-1978
▁case	-1979
▁susp	-1980
▁past▁	-1981
▁advant	-1982
▁arise▁	-1983
▁gives▁	-1984
▁original▁	-1985
ise	-1986
ated	-1987
iar▁	-1988
orts▁	-1989
▁here	-1990
▁long	-1991
▁read	-1992
▁easy▁	-1993
▁instr	-1994
▁rule▁	-1995
▁ways▁	-1996
▁perfec	-1997
▁spirit▁	-1998
▁united▁	-1999
▁apprehen	-2000
▁properly▁	-2001
▁conscious▁	-2002
▁sometimes▁	-2003
▁difficulty▁	-2004
ven	-2005
▁te	-2006
▁end▁	-2007
ution▁	-2008
▁accid	-2009
▁imperf	-2010
▁person▁	-2011
▁appears▁	-2012
▁conclude▁	-2013
ced▁	-2014
ith▁	-2015
▁cla	-2016
ends▁	-2017
ines▁	-2018
▁empl	-2019
▁second	-2020
▁conform	-2021
▁remains▁	-2022
▁ut	-2023
▁forms▁	-2024
▁resemb	-2025
▁whatsoe	-2026
▁thinking	-2027
▁rational▁	-2028
li	-2029
app	-2030
und	-2031
▁19	-2032
▁ann	-2033
▁rev	-2034
▁prev	-2035
▁voli	-2036
erred▁	-2037
▁destr	-2038
▁affirm	-2039
▁exists	-2040
▁system	-2041
▁concept	-2042
▁depend▁	-2043
▁geometr	-2044
▁powers▁	-2045
II	-2046
###▁	-2047
form	-2048
mony▁	-2049
▁rules▁	-2050
▁beginning▁	-2051
ix	-2052
own▁	-2053
▁intr	-2054
▁alter	-2055
▁testi	-2056
ishing▁	-2057
▁action	-2058
▁animal▁	-2059
▁extent▁	-2060
▁skeptic	-2061
▁Descartes▁	-2062
old	-2063
angu	-2064
lely▁	-2065
▁How▁	-2066
▁again▁	-2067
▁indeed	-2068
▁examine▁	-2069
▁question	-2070
▁distinction▁	-2071
▁distinguished▁	-2072
Cor	-2073
▁dr	-2074
ogniz	-2075
▁else	-2076
▁thes	-2077
▁done▁	-2078
▁minds	-2079
▁beings	-2080
▁terms▁	-2081
▁meaning▁	-2082
▁extended▁	-2083
▁{2	-2084
ment	-2085
▁Is▁	-2086
▁too	-2087
▁var	-2088
osing▁	-2089
▁alone	-2090
▁used▁	-2091
▁comes▁	-2092
▁belong▁	-2093
▁complex▁	-2094
▁spirits▁	-2095
▁immediate▁	-2096
tif	-2097
▁(▁	-2098
erim	-2099
umer	-2100
ples▁	-2101
anted▁	-2102
▁event▁	-2103
▁solely▁	-2104
▁philosophical▁	-2105
her	-2106
▁bu	-2107
▁gu	-2108
▁Now	-2109
ency▁	-2110
▁prof	-2111
▁adequ	-2112
▁allow▁	-2113
▁conduc	-2114
▁shown▁	-2115
▁limits▁	-2116
▁proved▁	-2117
▁immateri	-2118
▁distinctly▁	-2119
▁perfection▁	-2120
In▁	-2121
arg	-2122
oy▁	-2123
▁fam	-2124
▁fall	-2125
▁wisd	-2126
oined▁	-2127
▁langu	-2128
▁none▁	-2129
▁manner	-2130
▁preten	-2131
▁proble	-2132
▁efficient▁	-2133
17	-2134
ical	-2135
▁For	-2136
ially▁	-2137
ision▁	-2138
▁tell▁	-2139
uction▁	-2140
▁absurd	-2141
▁receive▁	-2142
▁produces▁	-2143
▁appearance	-2144
▁influence▁	-2145
▁perceptions	-2146
▁sufficiently▁	-2147
oz	-2148
ath	-2149
▁we	-2150
titu	-2151
▁ill	-2152
▁Reas	-2153
▁feel	-2154
▁pass	-2155
▁rejec	-2156
▁seen▁	-2157
▁whom▁	-2158
▁small▁	-2159
▁remain▁	-2160
▁truths▁	-2161
▁happens▁	-2162
▁difficult▁	-2163
▁nevertheless▁	-2164
bod	-2165
ne▁	-2166
ood	-2167
agre	-2168
▁draw	-2169
osite▁	-2170
where▁	-2171
▁heat▁	-2172
▁knows▁	-2173
▁serve▁	-2174
▁method▁	-2175
▁belongs▁	-2176
▁attention▁	-2177
▁reference▁	-2178
sig	-2179
▁ke	-2180
▁enc	-2181
▁desig	-2182
▁limit	-2183
▁whole	-2184
▁ascrib	-2185
▁begin▁	-2186
▁freedom▁	-2187
▁recogniz	-2188
▁together	-2189
▁occasion▁	-2190
▁intellect▁	-2191
▁perceives▁	-2192
▁determinate▁	-2193
ma	-2194
lig	-2195
nam	-2196
▁{6	-2197
And▁	-2198
inoz	-2199
ress	-2200
▁Nor▁	-2201
▁inst	-2202
▁such	-2203
isely▁	-2204
▁sort▁	-2205
▁correc	-2206
▁science	-2207
▁surely▁	-2208
▁regards▁	-2209
▁sensation	-2210
xi	-2211
esi	-2212
to▁	-2213
ects	-2214
omin	-2215
plic	-2216
▁Uni	-2217
eing▁	-2218
tial▁	-2219
▁acqu	-2220
▁addi	-2221
▁part	-2222
icate▁	-2223
▁feel▁	-2224
ounded▁	-2225
▁disagre	-2226
▁entire▁	-2227
▁experim	-2228
▁degrees▁	-2229
ud	-2230
▁{4	-2231
▁Sch	-2232
▁mul	-2233
▁off	-2234
▁conj	-2235
▁exce	-2236
▁said	-2237
▁work	-2238
▁best▁	-2239
▁liber	-2240
▁actions	-2241
▁almost▁	-2242
▁memory▁	-2243
▁cognition	-2244
▁identity▁	-2245
▁received▁	-2246
reg	-2247
reh	-2248
▁{3	-2249
irst	-2250
use▁	-2251
iness	-2252
tual▁	-2253
▁Yet▁	-2254
▁coll	-2255
▁fact	-2256
ultane	-2257
▁pass▁	-2258
▁before	-2259
▁myself	-2260
▁number	-2261
▁sentim	-2262
▁speak▁	-2263
▁readily▁	-2264
▁likewise▁	-2265
▁pleasure▁	-2266
▁intelligible▁	-2267
);▁	-2268
omm	-2269
ove	-2270
ates	-2271
▁Loc	-2272
▁bes	-2273
▁mov	-2274
▁ren	-2275
ands▁	-2276
▁turn▁	-2277
▁work▁	-2278
▁assent▁	-2279
▁future▁	-2280
▁resembl	-2281
▁theolog	-2282
▁precisely▁	-2283
▁sensations▁	-2284
age	-2285
▁{5	-2286
▁{8	-2287
ave▁	-2288
led▁	-2289
▁her▁	-2290
▁laws	-2291
▁subt	-2292
quire▁	-2293
ually▁	-2294
derstan	-2295
ically▁	-2296
▁infer▁	-2297
▁inner▁	-2298
▁regard	-2299
▁truly▁	-2300
▁constitu	-2301
▁highest▁	-2302
▁judgment	-2303
▁thoughts	-2304
▁internal▁	-2305
kel	-2306
llu	-2307
▁{7	-2308
▁tas	-2309
▁pref	-2310
▁espec	-2311
▁hope▁	-2312
▁love▁	-2313
oreover	-2314
tained▁	-2315
▁takes▁	-2316
▁succession▁	-2317
anscendental▁	-2318
ark	-2319
ass	-2320
▁De	-2321
▁]▁	-2322
ders▁	-2323
▁hard	-2324
▁mach	-2325
▁plain	-2326
▁touch	-2327
▁regres	-2328
▁virtue▁	-2329
▁requires▁	-2330
▁causality▁	-2331
▁perfectly▁	-2332
§▁	-2333
Of▁	-2334
enetr	-2335
ustom	-2336
▁care	-2337
ories▁	-2338
▁Pure▁	-2339
▁point	-2340
▁essence	-2341
▁happen▁	-2342
▁evidence▁	-2343
▁especially▁	-2344
▁established▁	-2345
tig	-2346
ecul	-2347
▁add▁	-2348
▁kind	-2349
▁more	-2350
▁clear	-2351
▁oblig	-2352
osition	-2353
▁Nature▁	-2354
▁desire▁	-2355
▁namely▁	-2356
▁satisfac	-2357
▁supreme▁	-2358
▁whereas▁	-2359
▁conception▁	-2360
ri	-2361
sy	-2362
0}▁	-2363
2}▁	-2364
3}▁	-2365
8}▁	-2366
9}▁	-2367
▁let	-2368
▁spe	-2369
▁tot	-2370
erkel	-2371
▁illu	-2372
▁incl	-2373
▁over	-2374
▁Spinoz	-2375
▁plain▁	-2376
▁longer▁	-2377
▁contrary	-2378
▁primary▁	-2379
▁Philosoph	-2380
▁positive▁	-2381
▁uncertain	-2382
▁creatures▁	-2383
▁important▁	-2384
▁particular	-2385
▁phenomena▁	-2386
ng	-2387
1}▁	-2388
4}▁	-2389
▁Ex	-2390
▁ir	-2391
brid	-2392
▁can	-2393
▁fan	-2394
ised▁	-2395
▁writ	-2396
▁lies▁	-2397
▁pain▁	-2398
▁sound	-2399
▁term▁	-2400
▁physic	-2401
▁rather	-2402
▁souls▁	-2403
▁brought▁	-2404
▁considering▁	-2405
▁represented▁	-2406
5}▁	-2407
ning	-2408
our▁	-2409
▁bor	-2410
▁bre	-2411
▁dev	-2412
▁max	-2413
here▁	-2414
▁star	-2415
▁accur	-2416
▁full▁	-2417
hapter▁	-2418
▁answer	-2419
▁Leibniz▁	-2420
▁obvious▁	-2421
▁explained▁	-2422
▁conclusion▁	-2423
▁foundation▁	-2424
▁infinitely▁	-2425
▁mathematical▁	-2426
▁6	-2427
ied	-2428
op▁	-2429
out	-2430
ulg	-2431
ince	-2432
ompan	-2433
▁Let▁	-2434
▁first	-2435
▁says▁	-2436
▁third▁	-2437
▁union▁	-2438
▁moment▁	-2439
▁simultane	-2440
▁reflection	-2441
▁contradiction	-2442
ft▁	-2443
ns▁	-2444
lean	-2445
▁boo	-2446
▁now	-2447
ense▁	-2448
▁whol	-2449
▁soon▁	-2450
ential▁	-2451
▁perman	-2452
▁water▁	-2453
▁knowing▁	-2454
▁reasons▁	-2455
▁variety▁	-2456
▁constant▁	-2457
red	-2458
tog	-2459
▁No	-2460
ead▁	-2461
▁dim	-2462
idity▁	-2463
ities▁	-2464
▁gover	-2465
▁pecul	-2466
▁employ	-2467
▁modes▁	-2468
▁times▁	-2469
leanthes	-2470
▁absurd▁	-2471
▁depends▁	-2472
▁confused▁	-2473
▁magnitude▁	-2474
▁naturally▁	-2475
▁operation▁	-2476
▁hypothesis▁	-2477
▁reflection▁	-2478
▁7	-2479
ip▁	-2480
ite	-2481
rup	-2482
tur	-2483
▁om	-2484
▁sl	-2485
tell	-2486
▁wea	-2487
ative	-2488
idity	-2489
vely▁	-2490
▁leng	-2491
▁were	-2492
▁altog	-2493
▁help▁	-2494
remely▁	-2495
▁error▁	-2496
▁sight▁	-2497
▁works▁	-2498
▁purpose▁	-2499
▁quantity▁	-2500
▁required▁	-2501
!▁	-2502
ash	-2503
orp	-2504
▁Un	-2505
ides	-2506
▁cur	-2507
▁mon	-2508
▁sun	-2509
This▁	-2510
▁diss	-2511
▁memb	-2512
▁prog	-2513
▁succe	-2514
tively▁	-2515
▁Berkel	-2516
▁assert▁	-2517
Cleanthes	-2518
▁quality▁	-2519
▁faculties▁	-2520
▁definition▁	-2521
▁consciousness	-2522
▁difficulties▁	-2523
ug	-2524
▁5	-2525
6}▁	-2526
ins	-2527
pre	-2528
ath▁	-2529
empl	-2530
▁fri	-2531
ured▁	-2532
▁Our▁	-2533
▁situ	-2534
ambrid	-2535
▁acts▁	-2536
▁allow	-2537
▁exclu	-2538
▁compar	-2539
▁conting	-2540
▁images▁	-2541
▁notice▁	-2542
▁thinks▁	-2543
ications▁	-2544
▁exactly▁	-2545
▁instance	-2546
▁opinions▁	-2547
7}▁	-2548
ick	-2549
isc	-2550
ass▁	-2551
▁vol	-2552
atter	-2553
ises▁	-2554
ision	-2555
uted▁	-2556
▁apt▁	-2557
▁well	-2558
▁draw▁	-2559
▁mode▁	-2560
▁organ	-2561
▁reach	-2562
▁based▁	-2563
▁arises▁	-2564
▁distinct	-2565
▁learned▁	-2566
▁creatures	-2567
▁everyone▁	-2568
▁perceived	-2569
▁relations▁	-2570
▁University▁	-2571
▁altogether▁	-2572
▁philosophers	-2573
for	-2574
oid	-2575
▁ant	-2576
▁hol	-2577
▁sle	-2578
▁sug	-2579
▁tal	-2580
ately	-2581
▁buil	-2582
ishes▁	-2583
tioned	-2584
▁down▁	-2585
▁eyes▁	-2586
▁unity	-2587
erning▁	-2588
▁avoid▁	-2589
▁related▁	-2590
▁possibly▁	-2591
▁principle	-2592
am▁	-2593
▁Se	-2594
udic	-2595
▁Or▁	-2596
▁priv	-2597
ender▁	-2598
▁small	-2599
arding▁	-2600
econdly	-2601
itique▁	-2602
▁Since▁	-2603
▁apply▁	-2604
▁presum	-2605
▁reach▁	-2606
▁acquain	-2607
▁origin▁	-2608
▁animals▁	-2609
▁besides▁	-2610
▁ignorant▁	-2611
▁observed▁	-2612
▁regarded▁	-2613
▁particles▁	-2614
▁consequence▁	-2615
ey	-2616
eni	-2617
diff	-2618
ome▁	-2619
ply▁	-2620
thy▁	-2621
▁exer	-2622
thetic	-2623
▁Part▁	-2624
▁Such▁	-2625
▁hand▁	-2626
▁former	-2627
▁image▁	-2628
▁outer▁	-2629
▁animals	-2630
▁belief▁	-2631
▁events▁	-2632
▁Chapter▁	-2633
▁becomes▁	-2634
▁preceding▁	-2635
▁testimony▁	-2636
▁discovered▁	-2637
▁mathematics▁	-2638
_?▁	-2639
bit	-2640
ltim	-2641
uce▁	-2642
ange▁	-2643
ather	-2644
▁anci	-2645
▁chap	-2646
▁stud	-2647
acity▁	-2648
isible	-2649
substan	-2650
▁grant▁	-2651
viously▁	-2652
▁formed▁	-2653
▁wholly▁	-2654
▁express▁	-2655
▁whereby▁	-2656
▁Therefore▁	-2657
▁character▁	-2658
▁independent▁	-2659
We▁	-2660
leg	-2661
per	-2662
ref	-2663
▁ro	-2664
anch	-2665
▁ide	-2666
ants▁	-2667
▁furn	-2668
▁sun▁	-2669
▁these	-2670
▁sorts▁	-2671
▁stand▁	-2672
▁reality	-2673
▁allowed▁	-2674
▁someone▁	-2675
▁adequate▁	-2676
▁judgments	-2677
▁impossible	-2678
▁constitutes▁	-2679
▁consideration▁	-2680
ics	-2681
ion	-2682
▁{1	-2683
▁ver	-2684
▁ones	-2685
▁infer	-2686
▁seek▁	-2687
▁side▁	-2688
▁uncon	-2689
ecting▁	-2690
▁toward▁	-2691
▁contempl	-2692
▁immaterial▁	-2693
8,▁	-2694
ree	-2695
omy▁	-2696
▁Arn	-2697
ourse	-2698
▁hist	-2699
▁tast	-2700
▁after	-2701
▁persu	-2702
▁teach	-2703
▁Princi	-2704
▁leave▁	-2705
▁prior▁	-2706
ability▁	-2707
▁colors▁	-2708
▁living▁	-2709
▁possess	-2710
▁saying▁	-2711
▁endeavor▁	-2712
▁determines▁	-2713
act▁	-2714
▁But	-2715
▁lin	-2716
▁bene	-2717
▁dang	-2718
▁lie▁	-2719
▁narr	-2720
▁repl	-2721
▁appar	-2722
▁look▁	-2723
▁shows▁	-2724
▁solid▁	-2725
▁Moreover	-2726
▁consist▁	-2727
▁instead▁	-2728
▁limited▁	-2729
▁metaphysics	-2730
▁sensibility	-2731
▁observation▁	-2732
mo	-2733
cip	-2734
etap	-2735
ill▁	-2736
ims▁	-2737
▁squ	-2738
istot	-2739
judic	-2740
reati	-2741
▁Hume	-2742
▁apar	-2743
▁less	-2744
▁defin	-2745
▁Human▁	-2746
▁accord	-2747
▁carry▁	-2748
▁constr	-2749
▁empty▁	-2750
▁refer▁	-2751
▁increas	-2752
▁applied▁	-2753
▁necessity	-2754
▁ordinary▁	-2755
▁religion▁	-2756
▁continued▁	-2757
▁predicate▁	-2758
▁impression▁	-2759
▁mechanical▁	-2760
▁consequences▁	-2761
▁metaphysical▁	-2762
sh	-2763
0,▁	-2764
ict▁	-2765
▁exh	-2766
fter▁	-2767
▁only	-2768
▁famil	-2769
▁line▁	-2770
ination	-2771
cerning▁	-2772
▁organs▁	-2773
▁render▁	-2774
ological▁	-2775
▁argument	-2776
▁changes▁	-2777
▁founded▁	-2778
▁religion	-2779
▁character	-2780
▁maintain▁	-2781
▁necessary	-2782
▁peculiar▁	-2783
▁position▁	-2784
▁relative▁	-2785
▁happiness▁	-2786
▁regarding▁	-2787
▁whatsoever	-2788
▁constitute▁	-2789
▁subjective▁	-2790
▁substantial▁	-2791
ebr	-2792
usc	-2793
▁IV	-2794
atur	-2795
thin	-2796
▁has	-2797
▁iss	-2798
aces▁	-2799
ories	-2800
▁temp	-2801
▁vulg	-2802
▁earth	-2803
▁along▁	-2804
▁incomp	-2805
▁sound▁	-2806
▁angles▁	-2807
▁analogy▁	-2808
▁anything	-2809
▁connected▁	-2810
▁expresses▁	-2811
▁conformity▁	-2812
▁reasonings▁	-2813
▁acknowledge▁	-2814
▁speculative▁	-2815
▁]	-2816
Def	-2817
ile	-2818
▁[3	-2819
▁po	-2820
alog	-2821
oduc	-2822
oms▁	-2823
ven▁	-2824
wise	-2825
▁Of▁	-2826
ages▁	-2827
▁word	-2828
▁Medit	-2829
▁ultim	-2830
itable▁	-2831
▁discus	-2832
▁moved▁	-2833
▁affirm▁	-2834
▁grounds▁	-2835
▁pretend▁	-2836
▁require▁	-2837
▁sciences▁	-2838
▁impressions▁	-2839
▁philosopher▁	-2840
aor	-2841
idd	-2842
For▁	-2843
ause	-2844
crip	-2845
ery▁	-2846
▁nex	-2847
▁tex	-2848
▁won	-2849
▁pret	-2850
▁sugg	-2851
▁accep	-2852
▁affor	-2853
▁color	-2854
▁diver	-2855
▁frequ	-2856
▁light	-2857
titude▁	-2858
▁further	-2859
▁remote▁	-2860
▁conduct▁	-2861
▁dispute▁	-2862
▁individu	-2863
▁involve▁	-2864
derstanding	-2865
▁essential▁	-2866
▁practical▁	-2867
▁accordance▁	-2868
▁proposition	-2869
▁determinations▁	-2870
eg	-2871
ief	-2872
ms▁	-2873
alec	-2874
eld▁	-2875
gain	-2876
ture	-2877
ues▁	-2878
▁but	-2879
▁dog	-2880
Philo	-2881
▁repe	-2882
▁scar	-2883
▁thor	-2884
wards▁	-2885
▁Press	-2886
▁left▁	-2887
▁schem	-2888
▁state	-2889
▁added▁	-2890
▁active▁	-2891
▁differ▁	-2892
▁extraor	-2893
▁formal▁	-2894
▁occurs▁	-2895
▁placed▁	-2896
▁proofs▁	-2897
▁seeing▁	-2898
▁composed▁	-2899
▁distance▁	-2900
▁infinity▁	-2901
▁involves▁	-2902
▁reasonable▁	-2903
▁disagreement▁	-2904
▁contradiction▁	-2905
ue	-2906
ward	-2907
▁Let	-2908
▁loo	-2909
▁non	-2910
tory▁	-2911
what▁	-2912
▁cold	-2913
intell	-2914
tains▁	-2915
urther	-2916
▁fall▁	-2917
▁retur	-2918
ending▁	-2919
▁moves▁	-2920
▁occur▁	-2921
▁assume▁	-2922
▁effects	-2923
▁spirits	-2924
▁wisdom▁	-2925
▁appercep	-2926
▁logical▁	-2927
▁mankind▁	-2928
▁prejudic	-2929
▁creation▁	-2930
▁provided▁	-2931
▁application▁	-2932
▁circumstances▁	-2933
5]▁	-2934
▁axi	-2935
▁elem	-2936
▁heat	-2937
▁impl	-2938
▁led▁	-2939
▁deduc	-2940
▁fire▁	-2941
▁keep▁	-2942
▁ones▁	-2943
▁sure▁	-2944
ectual▁	-2945
▁color▁	-2946
▁drawn▁	-2947
▁rememb	-2948
unction▁	-2949
▁Aristot	-2950
▁innate▁	-2951
▁instrum	-2952
▁points▁	-2953
▁princip	-2954
▁progres	-2955
▁ascribe▁	-2956
▁signify▁	-2957
▁support▁	-2958
▁ourselves	-2959
▁triangle▁	-2960
▁establish▁	-2961
▁constantly▁	-2962
8]▁	-2963
9]▁	-2964
ail	-2965
ays	-2966
ice	-2967
lim	-2968
▁pi	-2969
icac	-2970
▁cop	-2971
▁may	-2972
eded▁	-2973
▁anti	-2974
▁ceas	-2975
▁she▁	-2976
▁ways	-2977
▁year	-2978
ested▁	-2979
fully▁	-2980
▁impul	-2981
▁lack▁	-2982
▁next▁	-2983
▁enter▁	-2984
▁method	-2985
▁shape▁	-2986
▁compreh	-2987
▁convinc	-2988
▁strong▁	-2989
▁taking▁	-2990
▁correspon	-2991
▁magnitude	-2992
▁opposite▁	-2993
▁advantage▁	-2994
▁affections▁	-2995
1]▁	-2996
4]▁	-2997
6]▁	-2998
ich	-2999
▁"▁	-3000
▁Al	-3001
ial▁	-3002
ize▁	-3003
quis	-3004
▁(16	-3005
▁Chr	-3006
▁hum	-3007
▁lab	-3008
ement	-3009
▁medi	-3010
There▁	-3011
tional▁	-3012
▁frame▁	-3013
▁motions	-3014
▁simply▁	-3015
▁source▁	-3016
▁uncondi	-3017
▁signific	-3018
▁intellect	-3019
▁concerned▁	-3020
▁objections▁	-3021
▁supposition▁	-3022
▁demonstration▁	-3023
▁Transcendental▁	-3024
82	-3025
ge	-3026
3,▁	-3027
ngl	-3028
ark▁	-3029
▁act	-3030
▁enl	-3031
arge▁	-3032
▁sum▁	-3033
▁unif	-3034
differ	-3035
eding▁	-3036
tible▁	-3037
▁given	-3038
▁struc	-3039
▁finds▁	-3040
▁kinds▁	-3041
▁penetr	-3042
▁valid▁	-3043
▁expect▁	-3044
▁mankind	-3045
▁purpose	-3046
▁identity	-3047
▁towards▁	-3048
▁addition▁	-3049
▁entertain	-3050
▁secondary▁	-3051
▁regression▁	-3052
▁sensibility▁	-3053
3]▁	-3054
7]▁	-3055
If▁	-3056
Sch	-3057
if▁	-3058
ton	-3059
▁)▁	-3060
ccor	-3061
▁New	-3062
▁No▁	-3063
▁fix	-3064
▁loc	-3065
▁Phil	-3066
▁name	-3067
▁hard▁	-3068
▁modes	-3069
▁treat	-3070
▁Being▁	-3071
▁change	-3072
▁colors	-3073
▁conjec	-3074
▁later▁	-3075
▁strong	-3076
▁create▁	-3077
▁follows	-3078
▁joined▁	-3079
▁cognize▁	-3080
▁occasion	-3081
▁plainly▁	-3082
▁speaking	-3083
▁manifest▁	-3084
▁belonging▁	-3085
▁categories▁	-3086
to	-3087
▁—	-3088
0]▁	-3089
fin	-3090
obb	-3091
iber	-3092
sive	-3093
tics	-3094
▁An▁	-3095
ared▁	-3096
▁decl	-3097
artesi	-3098
vestig	-3099
▁amoun	-3100
▁assur	-3101
▁inten	-3102
▁secre	-3103
▁sees▁	-3104
ability	-3105
▁Reason▁	-3106
▁Spinoza	-3107
▁direct▁	-3108
▁moving▁	-3109
▁concern▁	-3110
▁figures▁	-3111
▁liberty▁	-3112
▁persons▁	-3113
▁something	-3114
cy	-3115
irm	-3116
led	-3117
ocr	-3118
ool	-3119
wor	-3120
hild	-3121
will	-3122
▁air	-3123
▁hon	-3124
▁leg	-3125
cely▁	-3126
olium	-3127
▁stri	-3128
eness▁	-3129
inally	-3130
▁away▁	-3131
▁insen	-3132
▁medit	-3133
▁wish▁	-3134
bility▁	-3135
▁claim▁	-3136
▁truths	-3137
▁ground▁	-3138
▁infinity	-3139
▁inquire▁	-3140
▁creature▁	-3141
▁separate▁	-3142
▁authority▁	-3143
▁hypothesis	-3144
▁instances▁	-3145
▁Concerning▁	-3146
In	-3147
yr	-3148
cie	-3149
▁Ad	-3150
not▁	-3151
teri	-3152
ustr	-3153
▁mix	-3154
▁und	-3155
▁war	-3156
▁Engl	-3157
▁air▁	-3158
▁piec	-3159
▁remo	-3160
▁righ	-3161
▁try▁	-3162
sight▁	-3163
▁shape	-3164
▁short	-3165
▁water	-3166
▁doing▁	-3167
▁encoun	-3168
▁explan	-3169
▁leads▁	-3170
▁freedom	-3171
▁inquiry	-3172
▁notions	-3173
▁spiritu	-3174
▁content▁	-3175
▁investig	-3176
▁provide▁	-3177
▁visible▁	-3178
▁admitted▁	-3179
▁scarcely▁	-3180
▁sensations	-3181
go	-3182
.)▁	-3183
On▁	-3184
lat	-3185
els▁	-3186
▁eng	-3187
▁fav	-3188
ected	-3189
ered▁	-3190
onous	-3191
sible	-3192
▁purs	-3193
▁lead▁	-3194
▁names	-3195
▁wise▁	-3196
▁earth▁	-3197
▁holds▁	-3198
▁Cartesi	-3199
▁circle▁	-3200
▁destroy	-3201
▁eternal	-3202
▁accompan	-3203
▁confess▁	-3204
▁measure▁	-3205
▁analytic▁	-3206
▁previously▁	-3207
▁perfections▁	-3208
▁universally▁	-3209
▁representations	-3210
1,▁	-3211
2]▁	-3212
isp	-3213
▁vi	-3214
ief▁	-3215
ists	-3216
▁bus	-3217
▁edi	-3218
▁red	-3219
nihil	-3220
separ	-3221
▁cent	-3222
▁perm	-3223
ained▁	-3224
▁Accor	-3225
▁Again	-3226
▁error	-3227
▁cases▁	-3228
▁limit▁	-3229
▁obscur	-3230
▁annihil	-3231
▁similar	-3232
▁inquiry▁	-3233
▁illusion▁	-3234
▁ignorance▁	-3235
▁inference▁	-3236
▁published▁	-3237
▁questions▁	-3238
▁satisfied▁	-3239
▁separated▁	-3240
▁perceiving▁	-3241
▁conditioned▁	-3242
▁consequently	-3243
▁pu	-3244
▁Ess	-3245
▁fic	-3246
▁scr	-3247
arch▁	-3248
▁Idea	-3249
▁desp	-3250
▁fash	-3251
▁larg	-3252
▁made	-3253
terly▁	-3254
▁above	-3255
▁acqui	-3256
▁deser	-3257
▁faith	-3258
▁apart▁	-3259
▁transl	-3260
quisite▁	-3261
▁perhaps	-3262
▁persuad	-3263
▁Berkeley	-3264
▁Section▁	-3265
▁example▁	-3266
▁satisfy▁	-3267
▁utterly▁	-3268
▁certainty	-3269
▁comprehend▁	-3270
▁conclusions▁	-3271
▁considerable▁	-3272
▁constitution▁	-3273
▁extraordinary▁	-3274
te	-3275
osm	-3276
ugn	-3277
unt	-3278
▁es	-3279
ock▁	-3280
▁own	-3281
▁wit	-3282
aint▁	-3283
tical	-3284
▁One▁	-3285
▁saw▁	-3286
▁unit	-3287
▁usel	-3288
reason	-3289
▁agree	-3290
▁arbit	-3291
▁gave▁	-3292
▁regul	-3293
▁restr	-3294
▁thous	-3295
enever▁	-3296
▁Rather	-3297
▁arrang	-3298
▁dialec	-3299
▁faith▁	-3300
▁latter	-3301
▁repugn	-3302
▁rests▁	-3303
▁usual▁	-3304
▁Further	-3305
▁convers	-3306
▁giving▁	-3307
▁useful▁	-3308
substance	-3309
▁ancient▁	-3310
▁granted▁	-3311
▁relation	-3312
▁believed▁	-3313
▁correspond	-3314
ird	-3315
sim	-3316
bjec	-3317
evid	-3318
ould	-3319
sist	-3320
▁beh	-3321
▁hor	-3322
▁mas	-3323
▁top	-3324
First	-3325
ities	-3326
sign▁	-3327
▁heav	-3328
▁none	-3329
▁thus	-3330
▁tran	-3331
dered▁	-3332
ontane	-3333
▁cold▁	-3334
▁deriv	-3335
▁displ	-3336
▁rise▁	-3337
▁sleep	-3338
▁arbitr	-3339
▁Consequ	-3340
▁coexist	-3341
▁efficac	-3342
▁matters▁	-3343
▁obliged▁	-3344
▁Philonous	-3345
▁included▁	-3346
▁previous▁	-3347
▁subjects▁	-3348
▁principal▁	-3349
▁production▁	-3350
▁proportion▁	-3351
▁determining▁	-3352
14	-3353
ph	-3354
Dem	-3355
Ess	-3356
cap	-3357
ew▁	-3358
ren	-3359
new▁	-3360
▁III	-3361
▁Lat	-3362
▁The	-3363
▁ali	-3364
▁dem	-3365
auld▁	-3366
where	-3367
▁See▁	-3368
▁clos	-3369
▁must	-3370
▁rule	-3371
▁surf	-3372
▁your	-3373
action	-3374
ingly▁	-3375
▁annex	-3376
▁bare▁	-3377
▁brain	-3378
▁child	-3379
▁read▁	-3380
▁void▁	-3381
▁affect▁	-3382
▁insepar	-3383
▁narrow▁	-3384
▁perfect	-3385
ositions▁	-3386
▁accustom	-3387
▁attempt▁	-3388
▁existed▁	-3389
▁thorough	-3390
▁beginning	-3391
▁duration▁	-3392
▁phenomena	-3393
▁thousand▁	-3394
▁intellectual▁	-3395
pe	-3396
tt	-3397
ack	-3398
ced	-3399
sol	-3400
▁15	-3401
▁lo	-3402
ign▁	-3403
peri	-3404
ters	-3405
ult▁	-3406
▁cal	-3407
▁enj	-3408
▁van	-3409
alebr	-3410
▁Hobb	-3411
▁art▁	-3412
▁fire	-3413
▁prem	-3414
▁stra	-3415
ances▁	-3416
dingly	-3417
▁Book▁	-3418
▁Here▁	-3419
▁Hume▁	-3420
▁evil▁	-3421
▁exhib	-3422
▁fear▁	-3423
▁speak	-3424
icated▁	-3425
sively▁	-3426
▁immort	-3427
▁inform	-3428
▁meant▁	-3429
▁assign▁	-3430
▁remove▁	-3431
▁subsist	-3432
alebranch	-3433
▁material	-3434
▁prevent▁	-3435
▁regular▁	-3436
▁concerns▁	-3437
▁controver	-3438
▁directly▁	-3439
▁employed▁	-3440
▁passions▁	-3441
▁physical▁	-3442
▁proceeds▁	-3443
▁whenever▁	-3444
▁categories	-3445
▁satisfaction▁	-3446
15	-3447
To▁	-3448
ved	-3449
▁:▁	-3450
All▁	-3451
deed	-3452
ics▁	-3453
osed	-3454
with	-3455
▁Hyl	-3456
▁mut	-3457
ogene	-3458
▁eyes	-3459
▁get▁	-3460
matter	-3461
urely▁	-3462
▁Locke	-3463
▁exerc	-3464
▁numer	-3465
▁assent	-3466
▁degree	-3467
▁design	-3468
▁disput	-3469
▁excell	-3470
▁final▁	-3471
▁large▁	-3472
▁superi	-3473
........	-3474
▁during▁	-3475
▁errors▁	-3476
▁perform	-3477
▁reject▁	-3478
▁utmost▁	-3479
▁Arnauld▁	-3480
▁endowed▁	-3481
▁indiffer	-3482
▁usually▁	-3483
▁eternity▁	-3484
▁followed▁	-3485
▁referred▁	-3486
▁relations	-3487
▁assurance▁	-3488
▁producing▁	-3489
▁requisite▁	-3490
▁accustomed▁	-3491
▁combination▁	-3492
▁intelligent▁	-3493
▁signification▁	-3494
ide	-3495
ost	-3496
rel	-3497
▁Mr	-3498
▁Or	-3499
ings	-3500
oly▁	-3501
opri	-3502
oss▁	-3503
▁Cor	-3504
▁awa	-3505
▁hou	-3506
▁swe	-3507
▁two	-3508
▁wal	-3509
ized▁	-3510
ology	-3511
▁unav	-3512
usion▁	-3513
▁fail▁	-3514
▁goes▁	-3515
▁knew▁	-3516
▁socie	-3517
▁reply▁	-3518
determin	-3519
taining▁	-3520
▁Though▁	-3521
▁subtle▁	-3522
▁comparis	-3523
▁capacity▁	-3524
▁attributes	-3525
▁sensitive▁	-3526
▁mathematics	-3527
▁represents▁	-3528
▁presupposes▁	-3529
▁demonstration	-3530
2,▁	-3531
des	-3532
nec	-3533
sci	-3534
sen	-3535
▁ph	-3536
body	-3537
isti	-3538
sign	-3539
▁cri	-3540
▁ing	-3541
▁pun	-3542
What▁	-3543
ought	-3544
ught▁	-3545
▁arch	-3546
▁fram	-3547
▁free	-3548
▁gras	-3549
▁inex	-3550
▁old▁	-3551
▁serv	-3552
ering▁	-3553
ments▁	-3554
▁conve	-3555
▁force	-3556
▁inher	-3557
▁plane	-3558
▁reduc	-3559
▁step▁	-3560
▁Locke▁	-3561
▁blind▁	-3562
▁forth▁	-3563
▁justif	-3564
▁memory	-3565
▁powers	-3566
▁realm▁	-3567
▁short▁	-3568
▁views▁	-3569
▁attain▁	-3570
▁hardly▁	-3571
▁higher▁	-3572
▁unavoid	-3573
etaphysic	-3574
▁triangle	-3575
▁willing▁	-3576
▁continue▁	-3577
▁faculties	-3578
▁familiar▁	-3579
▁solution▁	-3580
▁synthesis	-3581
▁supposing▁	-3582
▁incomprehen	-3583
▁intuitions▁	-3584
▁successive▁	-3585
▁apprehension▁	-3586
▁circumstances	-3587
Cr	-3588
asm	-3589
oci	-3590
▁was	-3591
ished	-3592
ored▁	-3593
▁embr	-3594
▁eye▁	-3595
▁fill	-3596
▁grad	-3597
▁proc	-3598
▁prom	-3599
ising▁	-3600
ubstan	-3601
▁appro	-3602
▁artif	-3603
▁care▁	-3604
▁least	-3605
▁note▁	-3606
▁sight	-3607
▁vain▁	-3608
ections	-3609
▁Deity▁	-3610
▁close▁	-3611
▁fancy▁	-3612
▁resist	-3613
▁specif	-3614
▁transi	-3615
Scholium	-3616
reatise▁	-3617
▁account	-3618
▁uniform	-3619
▁vulgar▁	-3620
▁confused	-3621
▁finally▁	-3622
▁obscure▁	-3623
▁reflect▁	-3624
▁sciences	-3625
▁spontane	-3626
▁strange▁	-3627
▁cognized▁	-3628
▁definite▁	-3629
▁property▁	-3630
▁speaking▁	-3631
▁recognize▁	-3632
▁Principles▁	-3633
▁frequently▁	-3634
▁understands▁	-3635
▁demonstrated▁	-3636
13	-3637
Ax	-3638
pi	-3639
9,▁	-3640
adam	-3641
arch	-3642
but▁	-3643
sens	-3644
▁asc	-3645
▁hab	-3646
irst▁	-3647
▁This	-3648
▁best	-3649
▁wax▁	-3650
ically	-3651
▁Hylas	-3652
▁back▁	-3653
▁born▁	-3654
▁bound	-3655
▁earli	-3656
▁event	-3657
▁four▁	-3658
▁ideal	-3659
▁revol	-3660
ecause▁	-3661
▁Reason	-3662
▁imprin	-3663
▁learn▁	-3664
▁piece▁	-3665
▁sounds	-3666
▁using▁	-3667
▁acting▁	-3668
▁contrib	-3669
▁meaning	-3670
▁passes▁	-3671
▁return▁	-3672
▁species	-3673
▁stands▁	-3674
▁taught▁	-3675
▁rightly▁	-3676
▁teaches▁	-3677
▁Whatever▁	-3678
▁Malebranch	-3679
▁convinced▁	-3680
▁generally▁	-3681
▁objection▁	-3682
▁operations	-3683
▁presented▁	-3684
▁whatsoever▁	-3685
▁demonstrate▁	-3686
18	-3687
43	-3688
dem	-3689
erg	-3690
ily	-3691
men	-3692
oms	-3693
greg	-3694
iver	-3695
sis▁	-3696
ynam	-3697
▁bul	-3698
▁hin	-3699
▁pic	-3700
body▁	-3701
ling▁	-3702
objec	-3703
▁aim▁	-3704
▁also	-3705
▁deal	-3706
▁done	-3707
▁hund	-3708
▁peri	-3709
econd▁	-3710
going▁	-3711
icial▁	-3712
▁came▁	-3713
▁known	-3714
▁means	-3715
icable▁	-3716
perceiv	-3717
▁Nature	-3718
▁Those▁	-3719
▁fixed▁	-3720
▁raise▁	-3721
▁school	-3722
Secondly	-3723
▁figures	-3724
▁retain▁	-3725
▁sphere▁	-3726
▁arising▁	-3727
▁divided▁	-3728
▁eternity	-3729
▁opposed▁	-3730
▁perceive	-3731
vertheless	-3732
▁instance▁	-3733
▁language▁	-3734
▁preserve▁	-3735
▁conditions	-3736
▁extremely▁	-3737
▁mentioned▁	-3738
▁multitude▁	-3739
▁situation▁	-3740
▁skepticism	-3741
▁cognitions▁	-3742
▁resemblance▁	-3743
oh	-3744
As▁	-3745
kep	-3746
nip	-3747
urr	-3748
vol	-3749
▁On	-3750
▁[2	-3751
Now▁	-3752
acke	-3753
eing	-3754
mony	-3755
▁Def	-3756
▁unf	-3757
Demea	-3758
oral▁	-3759
strat	-3760
▁dark	-3761
▁fear	-3762
▁gent	-3763
▁reve	-3764
▁sort	-3765
▁surr	-3766
▁viol	-3767
ining▁	-3768
▁occup	-3769
▁perpe	-3770
▁recon	-3771
▁souls	-3772
▁times	-3773
Cambrid	-3774
species	-3775
tivity▁	-3776
ularly▁	-3777
▁conver	-3778
▁danger	-3779
▁remark	-3780
▁subtle	-3781
▁years▁	-3782
▁attend▁	-3783
▁content	-3784
▁length▁	-3785
▁partly▁	-3786
▁search▁	-3787
▁serves▁	-3788
▁underta	-3789
▁appropri	-3790
▁contrast	-3791
▁finding▁	-3792
▁hypothes	-3793
▁insight▁	-3794
▁passage▁	-3795
▁sources▁	-3796
▁apparent▁	-3797
▁recourse▁	-3798
▁discourse▁	-3799
▁diversity▁	-3800
▁evidently▁	-3801
▁perfection	-3802
▁acquainted▁	-3803
▁alteration▁	-3804
▁attributed▁	-3805
▁objectively▁	-3806
▁propositions	-3807
20	-3808
mp	-3809
no	-3810
aul	-3811
thr	-3812
▁Re	-3813
▁sw	-3814
atis	-3815
iter	-3816
medi	-3817
▁At▁	-3818
▁de▁	-3819
▁gen	-3820
atici	-3821
ices▁	-3822
irdly	-3823
sing▁	-3824
▁Can▁	-3825
▁Why▁	-3826
▁due▁	-3827
▁firm	-3828
▁pron	-3829
▁weak	-3830
itique	-3831
▁bear▁	-3832
▁benef	-3833
▁compl	-3834
▁deal▁	-3835
▁dimin	-3836
▁forms	-3837
▁held▁	-3838
▁incap	-3839
▁multi	-3840
▁puts▁	-3841
▁surpr	-3842
nowledg	-3843
▁brain▁	-3844
▁innate	-3845
▁study▁	-3846
▁theore	-3847
▁corpusc	-3848
▁places▁	-3849
▁problem	-3850
▁reader▁	-3851
▁seemed▁	-3852
▁sought▁	-3853
▁square▁	-3854
▁through	-3855
▁wanted▁	-3856
inations▁	-3857
▁changed▁	-3858
▁implies▁	-3859
▁mention▁	-3860
▁precise▁	-3861
▁uniform▁	-3862
▁analysis▁	-3863
▁causality	-3864
▁infinitum	-3865
▁probable▁	-3866
▁synthetic	-3867
▁carefully▁	-3868
▁explaining▁	-3869
▁expression▁	-3870
▁acknowledged▁	-3871
▁modifications▁	-3872
▁distinguishing▁	-3873
2▁	-3874
A▁	-3875
.]▁	-3876
4,▁	-3877
acc	-3878
adi	-3879
pic	-3880
▁Sh	-3881
...▁	-3882
ech▁	-3883
ogit	-3884
olas	-3885
▁Sim	-3886
▁eye	-3887
▁fel	-3888
▁wan	-3889
That▁	-3890
When▁	-3891
ously	-3892
▁astr	-3893
▁deri	-3894
▁fail	-3895
▁func	-3896
▁grav	-3897
▁lay▁	-3898
▁off▁	-3899
Coroll	-3900
ology▁	-3901
ounce▁	-3902
▁omnip	-3903
▁open▁	-3904
▁terms	-3905
idence▁	-3906
▁aside▁	-3907
▁chain▁	-3908
▁countr	-3909
▁exact▁	-3910
▁friend	-3911
▁needs▁	-3912
▁touch▁	-3913
▁unthin	-3914
▁wisdom	-3915
▁afford▁	-3916
▁begins▁	-3917
▁brings▁	-3918
▁denied▁	-3919
▁derive▁	-3920
▁forced▁	-3921
▁justly▁	-3922
▁minute▁	-3923
▁advance▁	-3924
▁carried▁	-3925
▁destroy▁	-3926
▁include▁	-3927
▁arguments	-3928
▁condition	-3929
▁deceived▁	-3930
▁different	-3931
▁inconceiv	-3932
▁everything	-3933
▁materials▁	-3934
▁permanent▁	-3935
▁understood	-3936
00	-3937
act	-3938
air	-3939
pow	-3940
agon	-3941
ars▁	-3942
more	-3943
▁coh	-3944
▁flu	-3945
▁mag	-3946
▁ner	-3947
▁pop	-3948
▁vit	-3949
this▁	-3950
▁cosm	-3951
▁educ	-3952
▁este	-3953
▁four	-3954
▁ill▁	-3955
bility	-3956
cepts▁	-3957
iction	-3958
▁Scrip	-3959
▁book▁	-3960
▁decre	-3961
▁mark▁	-3962
▁right	-3963
▁smell	-3964
▁sole▁	-3965
▁stand	-3966
▁stop▁	-3967
▁After▁	-3968
▁thinks	-3969
▁Cambrid	-3970
▁bounds▁	-3971
▁coming▁	-3972
▁confirm	-3973
▁finally	-3974
▁miracul	-3975
▁worthy▁	-3976
▁miracle▁	-3977
▁theologi	-3978
▁ignorance	-3979
▁inferred▁	-3980
▁presence▁	-3981
▁proposed▁	-3982
▁ultimate▁	-3983
▁religious▁	-3984
▁remaining▁	-3985
▁insensible▁	-3986
▁predicates▁	-3987
▁Nevertheless	-3988
▁apperception	-3989
▁composition▁	-3990
▁consequences	-3991
19	-3992
55	-3993
80	-3994
85	-3995
aly	-3996
aut	-3997
oss	-3998
tun	-3999
vel	-4000
▁**	-4001
▁if	-4002
▁od	-4003
igh▁	-4004
ines	-4005
llog	-4006
▁3,▁	-4007
▁amb	-4008
▁day	-4009
▁lik	-4010
▁put	-4011
▁spr	-4012
inal▁	-4013
▁reck	-4014
orted▁	-4015
ouble▁	-4016
▁admit	-4017
▁conce	-4018
▁confl	-4019
▁task▁	-4020
ominal▁	-4021
▁belief	-4022
▁conser	-4023
▁fully▁	-4024
▁people	-4025
▁taste▁	-4026
▁train▁	-4027
▁volunt	-4028
whether▁	-4029
▁confess	-4030
▁contriv	-4031
▁describ	-4032
▁doubts▁	-4033
▁faculty	-4034
▁fashion	-4035
▁modern▁	-4036
▁natural	-4037
▁secret▁	-4038
▁theory▁	-4039
▁deceive▁	-4040
▁hundred▁	-4041
▁language	-4042
▁operate▁	-4043
▁reduced▁	-4044
▁unintell	-4045
▁volition	-4046
▁happiness	-4047
▁progress▁	-4048
▁resolved▁	-4049
▁somewhat▁	-4050
▁suitable▁	-4051
▁absurdity▁	-4052
▁composite▁	-4053
▁conjoined▁	-4054
▁connection	-4055
▁considered	-4056
▁depending▁	-4057
▁incapable▁	-4058
▁structure▁	-4059
▁abstracted▁	-4060
▁afterwards▁	-4061
▁comparison▁	-4062
▁dependence▁	-4063
▁inferences▁	-4064
▁originally▁	-4065
▁possibility	-4066
▁conjunction▁	-4067
▁Understanding	-4068
ks	-4069
rh	-4070
▁§	-4071
ung	-4072
▁ba	-4073
▁by	-4074
anim	-4075
auti	-4076
ompl	-4077
▁Wor	-4078
▁bir	-4079
▁ele	-4080
▁pus	-4081
▁ste	-4082
ersti	-4083
ests▁	-4084
▁Plat	-4085
▁fit▁	-4086
▁forg	-4087
▁moti	-4088
▁stat	-4089
▁sure	-4090
aries▁	-4091
namely	-4092
necess	-4093
▁devel	-4094
▁distr	-4095
▁escap	-4096
▁hear▁	-4097
▁immut	-4098
▁resem	-4099
▁sides	-4100
icious▁	-4101
▁Ideas▁	-4102
▁aggreg	-4103
▁noted▁	-4104
▁points	-4105
▁because	-4106
▁choose▁	-4107
▁forces▁	-4108
▁instruc	-4109
▁physics	-4110
Cambridge	-4111
▁distant▁	-4112
▁extended	-4113
▁nonethel	-4114
▁physics▁	-4115
▁pleasure	-4116
▁problem▁	-4117
▁solidity	-4118
▁accurate▁	-4119
▁critique▁	-4120
▁morality▁	-4121
▁otherwise	-4122
▁transcend	-4123
▁believing▁	-4124
▁considers▁	-4125
▁expressed▁	-4126
▁spiritual▁	-4127
▁supremely▁	-4128
▁conceiving▁	-4129
▁mathematici	-4130
▁skepticism▁	-4131
▁difficulties	-4132
▁representation	-4133
83	-4134
▁'	-4135
arb	-4136
imp	-4137
own	-4138
sec	-4139
til	-4140
uit	-4141
▁Di	-4142
▁Sy	-4143
dom▁	-4144
ild▁	-4145
irit	-4146
tice	-4147
▁And	-4148
▁lac	-4149
▁maj	-4150
▁rid	-4151
omple	-4152
▁does	-4153
▁glob	-4154
▁moun	-4155
▁pros	-4156
▁sequ	-4157
▁succ	-4158
iefly▁	-4159
orpore	-4160
ption▁	-4161
▁Even▁	-4162
▁Natur	-4163
▁admir	-4164
▁beaut	-4165
▁cases	-4166
▁decep	-4167
▁ends▁	-4168
▁insig	-4169
▁main▁	-4170
▁talk▁	-4171
▁Newton	-4172
▁animal	-4173
▁cannot	-4174
▁disapp	-4175
▁enumer	-4176
▁falseh	-4177
▁ground	-4178
▁simple	-4179
ounding▁	-4180
▁Finally	-4181
▁accompl	-4182
▁arrive▁	-4183
▁barely▁	-4184
▁evident	-4185
▁extend▁	-4186
▁mental▁	-4187
▁omnipot	-4188
▁purely▁	-4189
▁states▁	-4190
▁annexed▁	-4191
▁creation	-4192
▁distance	-4193
▁duration	-4194
▁outward▁	-4195
▁pleased▁	-4196
▁replied▁	-4197
▁supersti	-4198
▁operation	-4199
▁validity▁	-4200
▁Cambridge▁	-4201
▁Philosophy	-4202
▁extensive▁	-4203
▁imperfect▁	-4204
▁inquiries▁	-4205
▁intuitive▁	-4206
▁differences▁	-4207
▁particularly▁	-4208
▁representing▁	-4209
▁communication▁	-4210
10	-4211
84	-4212
aw	-4213
i▁	-4214
▁X	-4215
De▁	-4216
],▁	-4217
eth	-4218
so▁	-4219
▁Am	-4220
▁Pe	-4221
▁yi	-4222
11.▁	-4223
12.▁	-4224
New▁	-4225
ton▁	-4226
yrrh	-4227
▁1,▁	-4228
▁Div	-4229
▁arm	-4230
▁ran	-4231
▁siz	-4232
▁sof	-4233
▁sum	-4234
inter	-4235
usion	-4236
▁deta	-4237
▁obst	-4238
▁plan	-4239
materi	-4240
▁moved	-4241
▁parta	-4242
▁path▁	-4243
▁taste	-4244
▁vice▁	-4245
abstrac	-4246
asmuch▁	-4247
atural▁	-4248
stratum	-4249
▁deceiv	-4250
▁length	-4251
▁places	-4252
▁series	-4253
▁transf	-4254
▁wills▁	-4255
plicity▁	-4256
▁admits▁	-4257
▁became▁	-4258
▁illustr	-4259
▁proves▁	-4260
▁weight▁	-4261
▁Nothing▁	-4262
▁construc	-4263
▁introduc	-4264
▁machine▁	-4265
▁passion▁	-4266
▁removed▁	-4267
▁special▁	-4268
▁inconsist	-4269
▁miracles▁	-4270
▁provides▁	-4271
▁purposes▁	-4272
▁remember▁	-4273
▁unperceiv	-4274
▁attempted▁	-4275
▁consisting▁	-4276
▁sentiments▁	-4277
▁nonetheless▁	-4278
▁intelligence▁	-4279
▁unconditioned▁	-4280
▁considerations▁	-4281
24	-4282
89	-4283
me	-4284
**▁	-4285
?"▁	-4286
anc	-4287
ery	-4288
tit	-4289
tui	-4290
—_▁	-4291
▁Cl	-4292
▁ed	-4293
ided	-4294
ion▁	-4295
oes▁	-4296
ows▁	-4297
▁sin	-4298
▁sor	-4299
From▁	-4300
erson	-4301
rest▁	-4302
tics▁	-4303
▁both	-4304
▁deep	-4305
▁foot	-4306
▁fund	-4307
▁near	-4308
▁pred	-4309
▁run▁	-4310
▁snow	-4311
hysici	-4312
lying▁	-4313
owing▁	-4314
scious	-4315
tively	-4316
ustom▁	-4317
▁disor	-4318
▁energ	-4319
▁lose▁	-4320
▁meet▁	-4321
▁pursu	-4322
▁quick	-4323
▁chief▁	-4324
▁heaven	-4325
▁syllog	-4326
▁contemp	-4327
▁denomin	-4328
▁imagine	-4329
▁likely▁	-4330
▁public▁	-4331
▁quality	-4332
▁strict▁	-4333
▁unable▁	-4334
▁waking▁	-4335
Philosoph	-4336
▁Knowledg	-4337
▁acquire▁	-4338
▁correct▁	-4339
▁feeling▁	-4340
▁forever▁	-4341
▁mistaken	-4342
▁mistake▁	-4343
▁opinions	-4344
▁passions	-4345
▁possess▁	-4346
▁useless▁	-4347
▁acquired▁	-4348
▁resemble▁	-4349
▁accidents▁	-4350
▁dangerous▁	-4351
▁difference	-4352
▁uncertain▁	-4353
▁unthinking▁	-4354
▁Consequently	-4355
▁continually▁	-4356
▁probability▁	-4357
50	-4358
54	-4359
Re	-4360
b▁	-4361
els	-4362
mis	-4363
tly	-4364
10.▁	-4365
any▁	-4366
imer	-4367
man▁	-4368
oth▁	-4369
▁199	-4370
▁2.▁	-4371
▁cel	-4372
▁emo	-4373
Thus▁	-4374
atic▁	-4375
iven▁	-4376
ordin	-4377
▁Are▁	-4378
▁His▁	-4379
▁athe	-4380
▁prud	-4381
▁unex	-4382
Hence▁	-4383
enced▁	-4384
ounded	-4385
▁Kant▁	-4386
▁intim	-4387
▁near▁	-4388
▁room▁	-4389
▁stric	-4390
▁uses▁	-4391
ements▁	-4392
inging▁	-4393
omogene	-4394
▁Latin▁	-4395
▁Space▁	-4396
▁appreh	-4397
▁attach	-4398
▁aware▁	-4399
▁corrup	-4400
▁fundam	-4401
▁logic▁	-4402
▁result	-4403
▁sides▁	-4404
▁stone▁	-4405
▁sublim	-4406
▁supern	-4407
▁table▁	-4408
▁teach▁	-4409
▁Substan	-4410
▁caused▁	-4411
▁leaves▁	-4412
▁motive▁	-4413
▁schema▁	-4414
▁speech▁	-4415
▁assumed▁	-4416
▁conceive	-4417
▁creature	-4418
▁existing	-4419
▁forward▁	-4420
▁geometry	-4421
▁members▁	-4422
▁passive▁	-4423
▁subjects	-4424
▁attempts▁	-4425
▁business▁	-4426
▁essences▁	-4427
▁mistaken▁	-4428
▁superior▁	-4429
▁actuality▁	-4430
▁obscurity▁	-4431
▁conditioned	-4432
▁observation	-4433
▁opposition▁	-4434
▁presuppose▁	-4435
▁communicate▁	-4436
▁explanation▁	-4437
▁explication▁	-4438
▁geometrical▁	-4439
▁inseparable▁	-4440
▁modification▁	-4441
▁corresponding▁	-4442
12	-4443
1▁	-4444
53	-4445
5,▁	-4446
equ	-4447
▁du	-4448
14.▁	-4449
16.▁	-4450
17.▁	-4451
Disc	-4452
eps▁	-4453
here	-4454
ons▁	-4455
ples	-4456
skep	-4457
some	-4458
tigu	-4459
▁),▁	-4460
▁7,▁	-4461
▁Bes	-4462
▁Sen	-4463
▁],▁	-4464
▁god	-4465
▁por	-4466
arily	-4467
even▁	-4468
ever▁	-4469
nific	-4470
▁Supp	-4471
▁fair	-4472
▁heal	-4473
▁midd	-4474
▁once	-4475
▁sett	-4476
▁size	-4477
▁tend	-4478
▁vers	-4479
matic▁	-4480
percep	-4481
uting▁	-4482
▁Objec	-4483
▁Only▁	-4484
▁aband	-4485
▁shown	-4486
action▁	-4487
erring▁	-4488
legomen	-4489
vation▁	-4490
▁Indeed	-4491
▁angles	-4492
▁assign	-4493
▁cease▁	-4494
▁custom	-4495
▁death▁	-4496
▁dissol	-4497
▁govern	-4498
▁issue▁	-4499
▁organs	-4500
▁proved	-4501
atively▁	-4502
ishment▁	-4503
▁Christi	-4504
▁deliber	-4505
▁divide▁	-4506
▁larger▁	-4507
▁suspici	-4508
▁carries▁	-4509
▁earlier▁	-4510
▁extends▁	-4511
▁harmony▁	-4512
▁hearing▁	-4513
▁history▁	-4514
▁natures▁	-4515
▁produced	-4516
▁renders▁	-4517
▁attended▁	-4518
▁divisible	-4519
▁division▁	-4520
▁goodness▁	-4521
▁increase▁	-4522
▁powerful▁	-4523
▁conclusion	-4524
▁deduction▁	-4525
▁discovery▁	-4526
▁intuitions	-4527
▁observing▁	-4528
▁Accordingly	-4529
▁Malebranche	-4530
▁containing▁	-4531
▁thoroughly▁	-4532
23	-4533
40	-4534
46	-4535
47	-4536
87	-4537
cil	-4538
ix▁	-4539
uni	-4540
wo▁	-4541
ze▁	-4542
▁El	-4543
iety	-4544
less	-4545
ting	-4546
▁saf	-4547
▁sal	-4548
▁spo	-4549
▁yet	-4550
Madam	-4551
alile	-4552
ances	-4553
eness	-4554
from▁	-4555
ondon	-4556
▁day▁	-4557
▁econ	-4558
▁met▁	-4559
▁past	-4560
▁side	-4561
elled▁	-4562
itten▁	-4563
▁agent	-4564
▁dynam	-4565
▁recep	-4566
▁since	-4567
▁surve	-4568
▁tradi	-4569
ocrates	-4570
▁circle	-4571
▁fallac	-4572
▁field▁	-4573
▁finite	-4574
▁future	-4575
▁going▁	-4576
▁habit▁	-4577
▁notion	-4578
▁pains▁	-4579
▁perple	-4580
▁wrong▁	-4581
utation▁	-4582
▁Letter▁	-4583
▁anticip	-4584
▁benevol	-4585
▁choice▁	-4586
▁claims▁	-4587
▁design▁	-4588
▁develop	-4589
▁scienti	-4590
▁command▁	-4591
▁communic	-4592
▁putting▁	-4593
▁succeed▁	-4594
substratum	-4595
▁combined▁	-4596
▁completen	-4597
▁conceived	-4598
▁convince▁	-4599
▁empirical	-4600
▁examined▁	-4601
▁interest▁	-4602
▁particle▁	-4603
▁probably▁	-4604
▁volition▁	-4605
▁Cartesian▁	-4606
▁distinctly	-4607
▁succession	-4608
▁consistent▁	-4609
▁immediately	-4610
▁impressions	-4611
▁transition▁	-4612
▁immortality▁	-4613
▁independently▁	-4614
▁simultaneously▁	-4615
Le	-4616
Qu	-4617
:]▁	-4618
Con	-4619
III	-4620
The	-4621
ety	-4622
ims	-4623
ode	-4624
omy	-4625
uff	-4626
we▁	-4627
▁1▁	-4628
▁er	-4629
ets▁	-4630
ime▁	-4631
que▁	-4632
xfor	-4633
▁(17	-4634
▁Do▁	-4635
▁ask	-4636
▁dil	-4637
▁far	-4638
adequ	-4639
cept▁	-4640
ible▁	-4641
ower▁	-4642
▁Fren	-4643
▁Kant	-4644
▁age▁	-4645
▁brea	-4646
▁fing	-4647
▁imit	-4648
▁prin	-4649
▁refr	-4650
▁vent	-4651
▁yell	-4652
estly▁	-4653
inomy▁	-4654
insic▁	-4655
iting▁	-4656
tness▁	-4657
▁Deity	-4658
▁about	-4659
▁annul	-4660
▁ball▁	-4661
▁laid▁	-4662
▁logic	-4663
▁ordin	-4664
▁sake▁	-4665
▁vast▁	-4666
active▁	-4667
▁Compan	-4668
▁bears▁	-4669
▁began▁	-4670
▁calls▁	-4671
▁heard▁	-4672
▁infall	-4673
▁maxim▁	-4674
▁mixed▁	-4675
▁absurdi	-4676
▁appeal▁	-4677
▁axioms▁	-4678
▁employ▁	-4679
▁gentlem	-4680
▁please▁	-4681
▁raised▁	-4682
▁without	-4683
existence	-4684
▁Secondly	-4685
▁conform▁	-4686
▁consists	-4687
▁deduced▁	-4688
▁exhibit▁	-4689
▁illusion	-4690
▁perform▁	-4691
▁suspect▁	-4692
▁bringing▁	-4693
▁elements▁	-4694
▁equality▁	-4695
▁examples▁	-4696
▁geometry▁	-4697
▁imagined▁	-4698
▁intermedi	-4699
▁solidity▁	-4700
▁totality▁	-4701
▁affection▁	-4702
▁assertion▁	-4703
▁direction▁	-4704
▁persuaded▁	-4705
▁sentiment▁	-4706
▁signified▁	-4707
▁contingent▁	-4708
▁uniformity▁	-4709
▁empirically▁	-4710
▁examination▁	-4711
▁intelligible	-4712
56	-4713
>▁	-4714
ew	-4715
ht	-4716
ox	-4717
igu	-4718
▁_(	-4719
13.▁	-4720
ages	-4721
avag	-4722
ged▁	-4723
isib	-4724
oin▁	-4725
ope▁	-4726
vely	-4727
▁1.▁	-4728
▁II▁	-4729
▁My▁	-4730
▁Rel	-4731
▁art	-4732
▁bro	-4733
▁bur	-4734
▁det	-4735
▁mer	-4736
▁pat	-4737
▁pra	-4738
Medit	-4739
aled▁	-4740
ature	-4741
ayed▁	-4742
emed▁	-4743
used▁	-4744
▁beas	-4745
▁borr	-4746
▁emin	-4747
▁iden	-4748
▁negl	-4749
▁open	-4750
▁says	-4751
itive▁	-4752
person	-4753
▁death	-4754
▁deman	-4755
▁fores	-4756
▁liken	-4757
▁simpl	-4758
▁sweet	-4759
▁took▁	-4760
However	-4761
ession▁	-4762
evident	-4763
▁Saint▁	-4764
▁actual	-4765
▁compon	-4766
▁desire	-4767
▁house▁	-4768
▁occurr	-4769
▁round▁	-4770
▁treat▁	-4771
▁agreed▁	-4772
▁concurr	-4773
▁conveni	-4774
▁custom▁	-4775
▁discour	-4776
▁inform▁	-4777
▁insist▁	-4778
▁liable▁	-4779
▁sounds▁	-4780
▁suppose	-4781
▁Spinoza▁	-4782
▁extravag	-4783
▁homogene	-4784
▁inexplic	-4785
▁instant▁	-4786
▁moreover	-4787
▁popular▁	-4788
▁written▁	-4789
▁Aristotle	-4790
▁accidents	-4791
▁asserted▁	-4792
▁assuming▁	-4793
▁concerned	-4794
▁exercise▁	-4795
▁inasmuch▁	-4796
▁pertains▁	-4797
▁tendency▁	-4798
▁wherever▁	-4799
▁difficulty	-4800
▁functions▁	-4801
▁signifies▁	-4802
▁suspicion▁	-4803
▁volitions▁	-4804
▁maintained▁	-4805
▁proceeding▁	-4806
▁throughout▁	-4807
▁appropriate▁	-4808
▁disposition▁	-4809
▁contemplation▁	-4810
▁distinguishes▁	-4811
▁impossibility▁	-4812
27	-4813
dd	-4814
ive	-4815
ma▁	-4816
pas	-4817
syn	-4818
uch	-4819
▁2▁	-4820
▁Ma	-4821
▁fu	-4822
15.▁	-4823
caus	-4824
ift▁	-4825
ols▁	-4826
oved	-4827
▁App	-4828
▁Bac	-4829
▁Bay	-4830
▁Mod	-4831
▁Sup	-4832
▁cul	-4833
▁her	-4834
▁vel	-4835
accor	-4836
aced▁	-4837
haps▁	-4838
isms▁	-4839
such▁	-4840
ution	-4841
▁Not▁	-4842
▁Pref	-4843
▁Thom	-4844
▁myst	-4845
▁shad	-4846
Princi	-4847
antly▁	-4848
ights▁	-4849
istic▁	-4850
tance▁	-4851
yrrhon	-4852
▁First	-4853
▁enjoy	-4854
▁initi	-4855
▁irreg	-4856
▁parad	-4857
▁remed	-4858
▁self▁	-4859
▁versa	-4860
▁would	-4861
ceding▁	-4862
eneral▁	-4863
▁astron	-4864
▁chimer	-4865
▁events	-4866
▁expect	-4867
▁hands▁	-4868
▁heart▁	-4869
▁lines▁	-4870
▁please	-4871
▁speech	-4872
▁virtue	-4873
▁wonder	-4874
▁yield▁	-4875
Section▁	-4876
▁believe	-4877
▁contigu	-4878
▁danger▁	-4879
▁excite▁	-4880
▁existed	-4881
▁maxims▁	-4882
▁member▁	-4883
▁thesis▁	-4884
▁turned▁	-4885
although▁	-4886
▁amounts▁	-4887
▁defined▁	-4888
▁doctrine	-4889
▁evidence	-4890
▁letters▁	-4891
▁nominal▁	-4892
▁readers▁	-4893
▁showing▁	-4894
▁subsist▁	-4895
Prolegomen	-4896
according▁	-4897
▁Berkeley▁	-4898
▁authority	-4899
▁disposed▁	-4900
▁inherent▁	-4901
▁intended▁	-4902
▁occurred▁	-4903
▁arbitrary▁	-4904
▁comparing▁	-4905
▁dependent▁	-4906
▁doctrines▁	-4907
▁imagining▁	-4908
▁imprinted▁	-4909
▁suggested▁	-4910
▁voluntary▁	-4911
▁accurately▁	-4912
▁characters▁	-4913
▁similarity▁	-4914
understanding	-4915
▁apprehension	-4916
▁corresponds▁	-4917
▁dialectical▁	-4918
▁differently▁	-4919
▁expressions▁	-4920
▁foundations▁	-4921
▁comprehended▁	-4922
▁comprehension	-4923
▁correspondence▁	-4924
▁presupposition▁	-4925
0▁	-4926
42	-4927
gr	-4928
ns	-4929
God	-4930
bel	-4931
gan	-4932
hab	-4933
occ	-4934
eced	-4935
etyp	-4936
ext▁	-4937
orph	-4938
ren▁	-4939
ric▁	-4940
sych	-4941
▁2,▁	-4942
▁3.▁	-4943
▁Ass	-4944
▁].▁	-4945
▁adj	-4946
▁bot	-4947
▁fab	-4948
▁fle	-4949
▁mal	-4950
▁pal	-4951
▁typ	-4952
aged▁	-4953
itted	-4954
odeic	-4955
power	-4956
pped▁	-4957
tures	-4958
uces▁	-4959
▁Epic	-4960
▁With	-4961
▁curi	-4962
▁evil	-4963
▁hidd	-4964
▁hope	-4965
▁last	-4966
▁need	-4967
▁scen	-4968
▁soph	-4969
aying▁	-4970
ighten	-4971
there▁	-4972
ulate▁	-4973
▁Adam▁	-4974
▁Then▁	-4975
▁artic	-4976
▁dimen	-4977
▁disci	-4978
▁entit	-4979
▁fruit	-4980
▁grant	-4981
▁ingen	-4982
▁mass▁	-4983
▁plan▁	-4984
▁poten	-4985
▁rever	-4986
ication	-4987
terior▁	-4988
▁Every▁	-4989
▁First▁	-4990
▁Peter▁	-4991
▁beauti	-4992
▁better	-4993
▁built▁	-4994
▁concre	-4995
▁grasp▁	-4996
▁marks▁	-4997
▁propen	-4998
▁termin	-4999
▁trace▁	-5000
▁transm	-5001
▁vital▁	-5002
▁apodeic	-5003
▁degrees	-5004
▁easier▁	-5005
▁friend▁	-5006
▁mutual▁	-5007
▁nearer▁	-5008
▁perplex	-5009
▁restric	-5010
▁ridicul	-5011
conscious	-5012
▁Because▁	-5013
▁Natural▁	-5014
▁Supreme▁	-5015
▁assured▁	-5016
▁closely▁	-5017
▁curious▁	-5018
▁dealing▁	-5019
▁despite▁	-5020
▁immense▁	-5021
▁interrup	-5022
▁motives▁	-5023
▁sensible	-5024
▁subordin	-5025
▁compared▁	-5026
▁efficacy▁	-5027
▁explained	-5028
▁practice▁	-5029
▁profound▁	-5030
▁straight▁	-5031
▁Metaphysic	-5032
▁confusion▁	-5033
▁excellent▁	-5034
▁imaginary▁	-5035
▁possesses▁	-5036
▁understand	-5037
▁Furthermore	-5038
▁Meditation▁	-5039
▁everywhere▁	-5040
▁experiment▁	-5041
▁hypotheses▁	-5042
▁ordinarily▁	-5043
▁recognized▁	-5044
▁simplicity▁	-5045
▁ultimately▁	-5046
▁circumstance▁	-5047
▁cosmological▁	-5048
▁intermediate▁	-5049
▁proportional▁	-5050
▁signification	-5051
▁contradictory▁	-5052
22	-5053
25	-5054
45	-5055
57	-5056
79	-5057
86	-5058
Ex	-5059
ae	-5060
ca	-5061
By▁	-5062
ned	-5063
oul	-5064
▁Cr	-5065
▁vo	-5066
**.▁	-5067
.:]▁	-5068
18.▁	-5069
How▁	-5070
ansl	-5071
atio	-5072
cipr	-5073
conn	-5074
ert▁	-5075
esit	-5076
hip▁	-5077
iew▁	-5078
ined	-5079
isab	-5080
oper	-5081
oses	-5082
side	-5083
tory	-5084
veni	-5085
▁4.▁	-5086
▁8,▁	-5087
▁Joh	-5088
▁age	-5089
▁med	-5090
▁mel	-5091
▁pap	-5092
▁sil	-5093
▁viv	-5094
adly▁	-5095
intui	-5096
ither	-5097
lies▁	-5098
osite	-5099
sider	-5100
thics	-5101
▁been	-5102
▁exec	-5103
▁find	-5104
▁scru	-5105
▁sudd	-5106
▁when	-5107
▁wind	-5108
London	-5109
anced▁	-5110
ciproc	-5111
ential	-5112
inity▁	-5113
▁ages▁	-5114
▁capac	-5115
▁credi	-5116
▁five▁	-5117
▁hesit	-5118
▁high▁	-5119
▁human	-5120
▁lost▁	-5121
▁notic	-5122
▁rules	-5123
atible▁	-5124
erable▁	-5125
erhaps▁	-5126
orable▁	-5127
skeptic	-5128
▁alter▁	-5129
▁associ	-5130
▁blood▁	-5131
▁conten	-5132
▁distur	-5133
▁major▁	-5134
▁reckon	-5135
▁sleep▁	-5136
▁turns▁	-5137
tically▁	-5138
▁anteced	-5139
▁deduce▁	-5140
▁demand▁	-5141
▁impulse	-5142
▁letter▁	-5143
▁liberty	-5144
▁necessi	-5145
▁needed▁	-5146
▁nobody▁	-5147
▁obtain▁	-5148
▁passed▁	-5149
▁passion	-5150
▁subsequ	-5151
▁witness	-5152
▁Without▁	-5153
▁ability▁	-5154
▁differs▁	-5155
▁display▁	-5156
▁everyone	-5157
▁judging▁	-5158
▁numbers▁	-5159
▁quantity	-5160
▁trouble▁	-5161
▁Concepts▁	-5162
▁advantage	-5163
▁allowing▁	-5164
▁assigned▁	-5165
▁attribute	-5166
▁category▁	-5167
▁children▁	-5168
▁discourse	-5169
▁disputes▁	-5170
▁encounter	-5171
▁involved▁	-5172
▁precedes▁	-5173
▁rendered▁	-5174
▁smallest▁	-5175
▁specific▁	-5176
▁supposes▁	-5177
▁affections	-5178
▁agreeable▁	-5179
▁determined	-5180
▁divisible▁	-5181
▁falsehood▁	-5182
▁impression	-5183
▁possessed▁	-5184
▁reasonings	-5185
▁regression	-5186
▁supported▁	-5187
derstanding▁	-5188
▁correspond▁	-5189
▁distinction	-5190
▁remarkable▁	-5191
▁experiments▁	-5192
▁fundamental▁	-5193
▁indivisible▁	-5194
▁completeness▁	-5195
▁imperfection▁	-5196
29	-5197
34	-5198
62	-5199
67	-5200
=▁	-5201
Sp	-5202
be	-5203
1)▁	-5204
acu	-5205
aph	-5206
hie	-5207
icr	-5208
not	-5209
ope	-5210
ret	-5211
ry▁	-5212
19.▁	-5213
alf▁	-5214
auld	-5215
ectu	-5216
eget	-5217
fic▁	-5218
iny▁	-5219
ones	-5220
pres	-5221
ury▁	-5222
▁6,▁	-5223
▁big	-5224
▁bit	-5225
▁fit	-5226
Theod	-5227
read▁	-5228
real▁	-5229
thema	-5230
uing▁	-5231
▁What	-5232
▁ages	-5233
▁away	-5234
▁bulk	-5235
▁chos	-5236
▁cour	-5237
▁deny	-5238
▁head	-5239
▁join	-5240
▁love	-5241
▁mode	-5242
▁post	-5243
▁stic	-5244
igible	-5245
second	-5246
▁abstr	-5247
▁achie	-5248
▁fine▁	-5249
▁firm▁	-5250
▁moder	-5251
▁remar	-5252
▁size▁	-5253
▁stone	-5254
▁tree▁	-5255
▁troub	-5256
▁valid	-5257
▁veget	-5258
▁veloc	-5259
▁works	-5260
Thirdly	-5261
teriori	-5262
▁alike▁	-5263
▁altern	-5264
▁angel▁	-5265
▁argue▁	-5266
▁books▁	-5267
▁extern	-5268
▁favor▁	-5269
▁honor▁	-5270
▁introd	-5271
▁local▁	-5272
▁moment	-5273
▁prepar	-5274
▁subsum	-5275
▁undoub	-5276
▁worth▁	-5277
▁Arnauld	-5278
▁Besides	-5279
▁Divine▁	-5280
▁beauty▁	-5281
▁dreams▁	-5282
▁firmly▁	-5283
▁hidden▁	-5284
▁indefin	-5285
▁instinc	-5286
▁lesser▁	-5287
▁middle▁	-5288
▁reasons	-5289
▁refers▁	-5290
Corollary	-5291
anslated▁	-5292
standing▁	-5293
▁English▁	-5294
▁diverse▁	-5295
▁division	-5296
▁economy▁	-5297
▁foreign▁	-5298
▁impenetr	-5299
▁impulse▁	-5300
▁interven	-5301
▁justice▁	-5302
▁manifold	-5303
▁picture▁	-5304
▁prescrib	-5305
▁process▁	-5306
▁reciproc	-5307
▁touched▁	-5308
▁treated▁	-5309
▁whoever▁	-5310
preceding▁	-5311
▁activity▁	-5312
▁expected▁	-5313
▁formally▁	-5314
▁includes▁	-5315
▁inconveni	-5316
▁likeness▁	-5317
▁measures▁	-5318
▁questions	-5319
▁sequence▁	-5320
▁coherence▁	-5321
▁contingent	-5322
▁encounter▁	-5323
▁foregoing▁	-5324
▁gradually▁	-5325
▁perpetual▁	-5326
▁posteriori	-5327
▁properties	-5328
▁skeptical▁	-5329
▁subjected▁	-5330
▁advantages▁	-5331
▁conjecture▁	-5332
▁importance▁	-5333
▁necessarily	-5334
▁repugnance▁	-5335
▁resistance▁	-5336
▁systematic▁	-5337
▁affirmation▁	-5338
▁intelligence	-5339
▁surrounding▁	-5340
▁uncertainty▁	-5341
▁conversation▁	-5342
▁determination	-5343
▁inexplicable▁	-5344
▁transcendent▁	-5345
58	-5346
Ch	-5347
Di	-5348
Tr	-5349
bl	-5350
sa	-5351
▁<	-5352
div	-5353
eli	-5354
ock	-5355
ou▁	-5356
ues	-5357
▁na	-5358
Repl	-5359
dian	-5360
how▁	-5361
imin	-5362
ouch	-5363
pon▁	-5364
see▁	-5365
▁Pro	-5366
▁aug	-5367
▁cau	-5368
▁got	-5369
▁pol	-5370
▁rig	-5371
acket	-5372
erit▁	-5373
ishes	-5374
pleas	-5375
with▁	-5376
▁Publ	-5377
▁bad▁	-5378
▁cred	-5379
▁depr	-5380
▁down	-5381
▁feat	-5382
▁got▁	-5383
▁help	-5384
▁line	-5385
▁micr	-5386
▁nour	-5387
▁path	-5388
▁poli	-5389
▁stup	-5390
entity	-5391
establ	-5392
spirit	-5393
tures▁	-5394
▁foot▁	-5395
▁fortu	-5396
▁gain▁	-5397
▁indic	-5398
▁join▁	-5399
▁live▁	-5400
▁twent	-5401
▁wills	-5402
Descart	-5403
utions▁	-5404
▁acute▁	-5405
▁attain	-5406
▁course	-5407
▁falls▁	-5408
▁insuff	-5409
▁offer▁	-5410
▁proced	-5411
▁propag	-5412
▁reader	-5413
▁streng	-5414
▁trust▁	-5415
▁useful	-5416
▁white▁	-5417
ositions	-5418
perience	-5419
▁French▁	-5420
▁analogy	-5421
▁around▁	-5422
▁curiosi	-5423
▁deliver	-5424
▁energy▁	-5425
▁filled▁	-5426
▁freely▁	-5427
▁inadequ	-5428
▁judged▁	-5429
▁miracle	-5430
▁nearly▁	-5431
▁paradox	-5432
▁persons	-5433
▁prevent	-5434
▁secure▁	-5435
▁supply▁	-5436
▁unknown	-5437
Critique▁	-5438
orporeal▁	-5439
▁compare▁	-5440
▁looking▁	-5441
▁planets▁	-5442
▁product▁	-5443
▁reading▁	-5444
▁reconcil	-5445
▁seeming▁	-5446
▁suffice▁	-5447
▁totally▁	-5448
▁attained▁	-5449
▁confined▁	-5450
▁corporeal	-5451
▁directed▁	-5452
▁dogmatic▁	-5453
▁formerly▁	-5454
▁grounded▁	-5455
▁personal▁	-5456
▁theology▁	-5457
▁transform	-5458
▁definition	-5459
▁impressed▁	-5460
▁including▁	-5461
▁penetrate▁	-5462
▁pronounce▁	-5463
▁Philosophy▁	-5464
▁applicable▁	-5465
▁assertions▁	-5466
▁collection▁	-5467
▁consequence	-5468
▁continuous▁	-5469
▁definitions	-5470
▁introduced▁	-5471
▁miraculous▁	-5472
▁philosopher	-5473
▁reasonably▁	-5474
▁discoveries▁	-5475
▁indifferent▁	-5476
▁unavoidable▁	-5477
▁apperception▁	-5478
▁observations▁	-5479
33	-5480
44	-5481
60	-5482
75	-5483
88	-5484
ro	-5485
avi	-5486
ier	-5487
omb	-5488
osc	-5489
ses	-5490
aces	-5491
ail▁	-5492
air▁	-5493
apol	-5494
ils▁	-5495
tius	-5496
▁Bod	-5497
▁Ger	-5498
▁few	-5499
▁new	-5500
▁rer	-5501
▁run	-5502
▁sty	-5503
▁ten	-5504
▁wax	-5505
▁win	-5506
ares▁	-5507
direc	-5508
icit▁	-5509
throp	-5510
trans	-5511
▁Gree	-5512
▁High	-5513
▁Intr	-5514
▁Judg	-5515
▁agit	-5516
▁earn	-5517
▁genu	-5518
▁hung	-5519
▁inev	-5520
▁plau	-5521
▁resi	-5522
▁ship	-5523
▁turn	-5524
▁warm	-5525
ables▁	-5526
anded▁	-5527
apolis	-5528
iding▁	-5529
▁Truth	-5530
▁Your▁	-5531
▁claim	-5532
▁cogit	-5533
▁equiv	-5534
▁hands	-5535
▁inven	-5536
▁late▁	-5537
▁revel	-5538
▁sets▁	-5539
▁ship▁	-5540
▁went▁	-5541
▁worth	-5542
dering▁	-5543
ective▁	-5544
▁Galile	-5545
▁Hobbes	-5546
▁Where▁	-5547
▁affair	-5548
▁ambigu	-5549
▁annul▁	-5550
▁called	-5551
▁feels▁	-5552
▁flame▁	-5553
▁forces	-5554
▁gross▁	-5555
▁happy▁	-5556
▁limits	-5557
▁period	-5558
▁ready▁	-5559
▁tastes	-5560
▁total▁	-5561
▁value▁	-5562
▁wants▁	-5563
▁wrote▁	-5564
▁Hobbes▁	-5565
▁Second▁	-5566
▁Thomas▁	-5567
▁agrees▁	-5568
▁amount▁	-5569
▁antagon	-5570
▁argues▁	-5571
▁effort▁	-5572
▁famous▁	-5573
▁framed▁	-5574
▁highly▁	-5575
▁limited	-5576
▁microsc	-5577
▁misery▁	-5578
▁notwith	-5579
▁obscure	-5580
▁prefer▁	-5581
▁remains	-5582
▁remark▁	-5583
essential	-5584
▁Letters▁	-5585
▁Neither▁	-5586
▁Thought▁	-5587
▁category	-5588
▁contact▁	-5589
▁edition▁	-5590
▁entered▁	-5591
▁leaving▁	-5592
▁passing▁	-5593
▁proving▁	-5594
▁resolve▁	-5595
▁smaller▁	-5596
▁society▁	-5597
▁venture▁	-5598
▁absurdity	-5599
▁anywhere▁	-5600
▁circular▁	-5601
▁critical▁	-5602
▁esteemed▁	-5603
▁exterior▁	-5604
▁function▁	-5605
▁governed▁	-5606
▁imagines▁	-5607
▁imperfect	-5608
▁negative▁	-5609
▁obtained▁	-5610
▁presents▁	-5611
▁receives▁	-5612
▁strictly▁	-5613
▁subtlety▁	-5614
▁testimony	-5615
▁treatise▁	-5616
Meditations	-5617
▁Scripture▁	-5618
▁conceives▁	-5619
▁concluded▁	-5620
▁confirmed▁	-5621
▁continual▁	-5622
▁discovers▁	-5623
▁examining▁	-5624
▁occasions▁	-5625
▁organized▁	-5626
▁pretended▁	-5627
▁receiving▁	-5628
▁artificial▁	-5629
▁indivisible	-5630
▁perfections	-5631
▁phenomenon▁	-5632
▁resembling▁	-5633
▁scientific▁	-5634
▁conceivable▁	-5635
▁definitions▁	-5636
▁exclusively▁	-5637
▁extravagant▁	-5638
▁nevertheless	-5639
▁combinations▁	-5640
▁determinations	-5641
▁mathematicians▁	-5642
28	-5643
35	-5644
49	-5645
59	-5646
74	-5647
Se	-5648
he	-5649
ym	-5650
▁z	-5651
ap▁	-5652
bur	-5653
eff	-5654
hor	-5655
ign	-5656
ire	-5657
no▁	-5658
ump	-5659
▁St	-5660
Our▁	-5661
ads▁	-5662
ency	-5663
ens▁	-5664
ick▁	-5665
imag	-5666
ious	-5667
ird▁	-5668
ited	-5669
ror▁	-5670
thly	-5671
ucre	-5672
▁170	-5673
▁add	-5674
▁asp	-5675
▁civ	-5676
▁fea	-5677
▁inj	-5678
▁met	-5679
▁sac	-5680
▁tit	-5681
▁tod	-5682
ating	-5683
ental	-5684
exten	-5685
ithme	-5686
ship▁	-5687
tile▁	-5688
▁Clar	-5689
▁_(16	-5690
▁acts	-5691
▁adop	-5692
▁arm▁	-5693
▁bott	-5694
▁even	-5695
▁pay▁	-5696
concep	-5697
idence	-5698
ighty▁	-5699
motion	-5700
since▁	-5701
usted▁	-5702
▁Being	-5703
▁Ideas	-5704
▁Most▁	-5705
▁Were▁	-5706
▁With▁	-5707
▁alike	-5708
▁awake	-5709
▁felt▁	-5710
▁gross	-5711
▁head▁	-5712
▁loss▁	-5713
▁told▁	-5714
▁wide▁	-5715
Finally	-5716
ackett▁	-5717
▁Their▁	-5718
▁archit	-5719
▁asked▁	-5720
▁assist	-5721
▁dream▁	-5722
▁enlarg	-5723
▁forese	-5724
▁grace▁	-5725
▁insist	-5726
▁merit▁	-5727
▁rerum▁	-5728
▁respon	-5729
Moreover	-5730
▁English	-5731
▁Pyrrhon	-5732
▁adding▁	-5733
▁beforeh	-5734
▁convey▁	-5735
▁counter	-5736
▁denies▁	-5737
▁enable▁	-5738
▁fitted▁	-5739
▁matters	-5740
▁society	-5741
▁traces▁	-5742
sensation	-5743
▁analytic	-5744
▁archetyp	-5745
▁clearer▁	-5746
▁conclude	-5747
▁demands▁	-5748
▁furnish▁	-5749
▁position	-5750
▁precede▁	-5751
▁results▁	-5752
▁straight	-5753
▁sublime▁	-5754
▁systems▁	-5755
▁building▁	-5756
▁conflict▁	-5757
▁darkness▁	-5758
▁difficult	-5759
▁diminish▁	-5760
▁indicate▁	-5761
▁intuited▁	-5762
▁problems▁	-5763
▁singular▁	-5764
▁According▁	-5765
▁absolutely	-5766
▁beautiful▁	-5767
▁cognitions	-5768
▁identical▁	-5769
▁performed▁	-5770
▁privation▁	-5771
▁proceeded▁	-5772
▁proportion	-5773
established▁	-5774
▁Translated▁	-5775
▁contribute▁	-5776
▁prejudices▁	-5777
▁reflecting▁	-5778
▁accompanied▁	-5779
▁presupposed▁	-5780
▁acquaintance▁	-5781
▁supernatural▁	-5782
▁unconditioned	-5783
)—	-5784
6▁	-5785
78	-5786
ft	-5787
–9	-5788
▁9	-5789
6,▁	-5790
An▁	-5791
bs▁	-5792
dra	-5793
iar	-5794
▁So	-5795
▁ep	-5796
▁ur	-5797
Let▁	-5798
acy▁	-5799
pate	-5800
reed	-5801
refl	-5802
umin	-5803
vel▁	-5804
zed▁	-5805
▁5.▁	-5806
▁Log	-5807
▁deb	-5808
▁ris	-5809
Essay	-5810
ains▁	-5811
arbar	-5812
avid▁	-5813
empir	-5814
ensur	-5815
like▁	-5816
ommod	-5817
▁11,▁	-5818
▁16,▁	-5819
▁Syst	-5820
▁adap	-5821
▁clou	-5822
▁devo	-5823
▁dogm	-5824
▁gold	-5825
▁mine	-5826
▁move	-5827
▁obvi	-5828
▁seen	-5829
▁sin▁	-5830
▁tell	-5831
▁upon	-5832
Indian	-5833
ishop▁	-5834
ommon▁	-5835
tious▁	-5836
▁Does▁	-5837
▁Some▁	-5838
▁Upon▁	-5839
▁compr	-5840
▁dark▁	-5841
▁depar	-5842
▁fanci	-5843
▁horse	-5844
▁immov	-5845
▁impar	-5846
▁inqui	-5847
▁parti	-5848
▁push▁	-5849
▁scrut	-5850
▁sorts	-5851
▁weak▁	-5852
▁young	-5853
Leibniz	-5854
essence	-5855
tation▁	-5856
worthy▁	-5857
▁Elisab	-5858
▁acted▁	-5859
▁active	-5860
▁agent▁	-5861
▁atoms▁	-5862
▁condem	-5863
▁dreams	-5864
▁enough	-5865
▁horse▁	-5866
▁recomm	-5867
▁signs▁	-5868
▁superf	-5869
▁throw▁	-5870
▁vision	-5871
▁write▁	-5872
Critique	-5873
inations	-5874
ucretius	-5875
without▁	-5876
▁accept▁	-5877
▁allows▁	-5878
▁define▁	-5879
▁dispute	-5880
▁gotten▁	-5881
▁happens	-5882
▁looked▁	-5883
▁mysteri	-5884
▁nerves▁	-5885
▁period▁	-5886
▁physici	-5887
▁regular	-5888
▁respect	-5889
▁scholas	-5890
▁seldom▁	-5891
perience▁	-5892
▁Perhaps▁	-5893
▁Whether▁	-5894
▁absence▁	-5895
▁accommod	-5896
▁addition	-5897
▁applies▁	-5898
▁approach	-5899
▁decrees▁	-5900
▁denying▁	-5901
▁deserve▁	-5902
▁discern▁	-5903
▁elements	-5904
▁embrace▁	-5905
▁endless▁	-5906
▁falsity▁	-5907
▁justify▁	-5908
▁leading▁	-5909
▁nowhere▁	-5910
▁partake▁	-5911
▁pertain▁	-5912
▁reached▁	-5913
▁validity	-5914
existence▁	-5915
▁Knowledge	-5916
▁accident▁	-5917
▁advanced▁	-5918
▁arranged▁	-5919
▁influence	-5920
▁mentioned	-5921
▁numerous▁	-5922
▁preceded▁	-5923
▁standard▁	-5924
▁stronger▁	-5925
▁writings▁	-5926
Prolegomena	-5927
▁accounted▁	-5928
▁continues▁	-5929
▁entertain▁	-5930
▁gentleman▁	-5931
▁immaterial	-5932
▁immutable▁	-5933
▁individual	-5934
▁invisible▁	-5935
▁obviously▁	-5936
▁preserved▁	-5937
▁primitive▁	-5938
etaphysical▁	-5939
▁Publishing▁	-5940
▁assumption▁	-5941
▁boundaries▁	-5942
▁confidence▁	-5943
▁preference▁	-5944
▁individuals▁	-5945
▁instruments▁	-5946
▁satisfactory▁	-5947
▁speculations▁	-5948
37	-5949
52	-5950
66	-5951
72	-5952
77	-5953
D▁	-5954
gu	-5955
▁8	-5956
aes	-5957
erv	-5958
esp	-5959
ict	-5960
inf	-5961
ipp	-5962
rif	-5963
uci	-5964
▁=▁	-5965
▁Ab	-5966
▁Ge	-5967
Nor▁	-5968
ants	-5969
terd	-5970
ths▁	-5971
ued▁	-5972
▁).▁	-5973
▁169	-5974
▁Dem	-5975
▁Emo	-5976
▁Thr	-5977
▁ast	-5978
▁bal	-5979
▁cra	-5980
▁did	-5981
▁fat	-5982
▁she	-5983
Objec	-5984
Reply	-5985
absol	-5986
cause	-5987
liber	-5988
ments	-5989
over▁	-5990
quisi	-5991
ress▁	-5992
space	-5993
they▁	-5994
when▁	-5995
▁Adam	-5996
▁Mind	-5997
▁drin	-5998
▁enem	-5999
▁harm	-6000
▁many	-6001
▁rese	-6002
▁slow	-6003
Theref	-6004
These▁	-6005
atever	-6006
itude▁	-6007
nature	-6008
olium▁	-6009
omorph	-6010
rance▁	-6011
ration	-6012
tivity	-6013
uction	-6014
▁Analy	-6015
▁Bayle	-6016
▁Both▁	-6017
▁Other	-6018
▁Time▁	-6019
▁adds▁	-6020
▁atoms	-6021
▁desir	-6022
▁expan	-6023
▁flame	-6024
▁grasp	-6025
▁lest▁	-6026
▁rank▁	-6027
▁sent▁	-6028
▁watch	-6029
edness▁	-6030
eripate	-6031
reatise	-6032
▁Cause▁	-6033
▁Essays	-6034
▁blame▁	-6035
▁bound▁	-6036
▁convey	-6037
▁critic	-6038
▁cultiv	-6039
▁diseas	-6040
▁early▁	-6041
▁glory▁	-6042
▁ideal▁	-6043
▁imply▁	-6044
▁indisp	-6045
▁inferi	-6046
▁misery	-6047
▁modern	-6048
▁obstac	-6049
▁seeks▁	-6050
▁skill▁	-6051
▁start▁	-6052
Socrates	-6053
▁Company	-6054
▁Newton▁	-6055
▁angels▁	-6056
▁anthrop	-6057
▁chosen▁	-6058
▁conduct	-6059
▁copies▁	-6060
▁created	-6061
▁credit▁	-6062
▁decree▁	-6063
▁detail▁	-6064
▁discern	-6065
▁fairly▁	-6066
▁gladly▁	-6067
▁grounds	-6068
▁harmony	-6069
▁innumer	-6070
▁organiz	-6071
▁potenti	-6072
▁pursue▁	-6073
▁recall▁	-6074
▁refute▁	-6075
▁schools	-6076
▁success	-6077
▁survey▁	-6078
▁willing	-6079
▁Hackett▁	-6080
▁affords▁	-6081
▁confuse▁	-6082
▁desires▁	-6083
▁essences	-6084
▁forming▁	-6085
▁incomple	-6086
▁miracles	-6087
▁modified	-6088
▁negation	-6089
▁probable	-6090
▁seeking▁	-6091
▁skeptic▁	-6092
▁unreason	-6093
▁writing▁	-6094
perception	-6095
▁Although▁	-6096
▁Lucretius	-6097
▁abstruse▁	-6098
▁answered▁	-6099
▁antinomy▁	-6100
▁ascertain	-6101
▁destroys▁	-6102
▁emotions▁	-6103
▁idealism▁	-6104
▁inclined▁	-6105
▁movement▁	-6106
▁negation▁	-6107
▁persuade▁	-6108
▁yourself▁	-6109
▁Aristotle▁	-6110
▁Christian▁	-6111
▁affecting▁	-6112
▁apprehend▁	-6113
▁conception	-6114
▁endeavors▁	-6115
▁exception▁	-6116
▁furnished▁	-6117
▁insignific	-6118
▁prejudice▁	-6119
▁production	-6120
▁variation▁	-6121
▁composition	-6122
▁consequent▁	-6123
▁examination	-6124
▁generation▁	-6125
▁permanence▁	-6126
▁probability	-6127
▁absurdities▁	-6128
▁alterations▁	-6129
▁apprehended▁	-6130
▁constituted▁	-6131
▁inclination▁	-6132
▁incorporeal▁	-6133
▁consideration	-6134
▁unperceiving▁	-6135
▁demonstrations	-6136
▁inconceivable▁	-6137
▁investigation▁	-6138
▁unintelligible▁	-6139
30	-6140
64	-6141
69	-6142
S▁	-6143
fe	-6144
ia	-6145
ac▁	-6146
ata	-6147
bor	-6148
ext	-6149
ote	-6150
ras	-6151
ull	-6152
ume	-6153
▁5▁	-6154
▁Gr	-6155
▁da	-6156
▁§▁	-6157
You▁	-6158
ade▁	-6159
ange	-6160
burg	-6161
ept▁	-6162
eth▁	-6163
fter	-6164
happ	-6165
ison	-6166
istr	-6167
itim	-6168
prim	-6169
real	-6170
tus▁	-6171
uel▁	-6172
ured	-6173
▁2:▁	-6174
▁Aes	-6175
▁Dur	-6176
▁Eff	-6177
▁Mon	-6178
▁VII	-6179
▁clo	-6180
▁dom	-6181
▁had	-6182
▁why	-6183
aries	-6184
cing▁	-6185
emma▁	-6186
fied▁	-6187
ions▁	-6188
iteri	-6189
iver▁	-6190
lucid	-6191
▁13,▁	-6192
▁Ever	-6193
▁asle	-6194
▁back	-6195
▁cond	-6196
▁geni	-6197
▁hold	-6198
▁king	-6199
▁moon	-6200
▁much	-6201
▁ours	-6202
▁plen	-6203
▁retr	-6204
▁shar	-6205
▁soft	-6206
▁soon	-6207
▁step	-6208
▁tang	-6209
▁ten▁	-6210
▁whit	-6211
Since▁	-6212
alled▁	-6213
appear	-6214
being▁	-6215
finite	-6216
inear▁	-6217
other▁	-6218
tless▁	-6219
while▁	-6220
▁John▁	-6221
▁below	-6222
▁blind	-6223
▁city▁	-6224
▁coher	-6225
▁copy▁	-6226
▁decis	-6227
▁fancy	-6228
▁gone▁	-6229
▁house	-6230
▁kept▁	-6231
▁labor	-6232
▁liter	-6233
▁press	-6234
▁psych	-6235
▁save▁	-6236
▁still	-6237
▁uneas	-6238
▁white	-6239
▁wood▁	-6240
▁wrong	-6241
entity▁	-6242
estial▁	-6243
itably▁	-6244
▁Essay▁	-6245
▁exhaus	-6246
▁explic	-6247
▁extrem	-6248
▁lives▁	-6249
▁natura	-6250
▁noble▁	-6251
▁noise▁	-6252
▁projec	-6253
▁proofs	-6254
▁states	-6255
▁vulgar	-6256
ishable▁	-6257
sibility	-6258
▁Bishop▁	-6259
▁Scholas	-6260
▁asking▁	-6261
▁chance▁	-6262
▁complex	-6263
▁contact	-6264
▁derived	-6265
▁enters▁	-6266
▁escape▁	-6267
▁expand▁	-6268
▁industr	-6269
▁inhere▁	-6270
▁linked▁	-6271
▁machine	-6272
▁observe	-6273
▁occult▁	-6274
▁plants▁	-6275
▁presump	-6276
▁reduce▁	-6277
▁removed	-6278
▁repeat▁	-6279
▁reward▁	-6280
▁useless	-6281
▁wonder▁	-6282
ightened▁	-6283
philosoph	-6284
transcend	-6285
▁Preface▁	-6286
▁affected	-6287
▁affects▁	-6288
▁chiefly▁	-6289
▁methods▁	-6290
▁neglect▁	-6291
▁portion▁	-6292
▁premise▁	-6293
▁reaches▁	-6294
▁section▁	-6295
▁springs▁	-6296
Discourse▁	-6297
▁ascribed▁	-6298
▁believes▁	-6299
▁changing▁	-6300
▁confusion	-6301
▁entering▁	-6302
▁existent▁	-6303
▁happened▁	-6304
▁inference	-6305
▁objection	-6306
▁operates▁	-6307
▁situation	-6308
▁transfer▁	-6309
▁admirable▁	-6310
▁celestial▁	-6311
▁confessed▁	-6312
▁conjecture	-6313
▁destroyed▁	-6314
▁dynamical▁	-6315
▁preserves▁	-6316
▁procedure▁	-6317
▁underlies▁	-6318
▁adequately▁	-6319
▁conclusions	-6320
▁exposition▁	-6321
▁government▁	-6322
▁limitation▁	-6323
▁manifestly▁	-6324
▁propensity▁	-6325
▁supposition	-6326
▁conformable▁	-6327
▁encountered▁	-6328
▁experienced▁	-6329
▁homogeneous▁	-6330
▁innumerable▁	-6331
▁particulars▁	-6332
▁reflections▁	-6333
▁significant▁	-6334
▁subordinate▁	-6335
▁theoretical▁	-6336
▁translation▁	-6337
▁discoverable▁	-6338
▁incompatible▁	-6339
▁inconsistent▁	-6340
▁successively▁	-6341
▁Understanding▁	-6342
▁understandings▁	-6343
70	-6344
73	-6345
AT	-6346
la	-6347
—▁	-6348
;_▁	-6349
Now	-6350
].▁	-6351
any	-6352
clu	-6353
he▁	-6354
mix	-6355
sed	-6356
sy▁	-6357
▁10	-6358
▁7▁	-6359
▁He	-6360
▁VI	-6361
▁[[	-6362
▁ve	-6363
23.▁	-6364
ake▁	-6365
cent	-6366
comp	-6367
erni	-6368
ian▁	-6369
let▁	-6370
oke▁	-6371
ool▁	-6372
temp	-6373
tum▁	-6374
uted	-6375
▁Boy	-6376
▁Ide	-6377
▁cub	-6378
▁emb	-6379
▁fol	-6380
▁whe	-6381
acuum	-6382
deed▁	-6383
ernic	-6384
first	-6385
ones▁	-6386
pure▁	-6387
saac▁	-6388
under	-6389
▁Arch	-6390
▁New▁	-6391
▁aid▁	-6392
▁chem	-6393
▁ears	-6394
▁encl	-6395
▁fles	-6396
▁from	-6397
▁guil	-6398
▁hour	-6399
▁sent	-6400
▁smoo	-6401
▁unus	-6402
after▁	-6403
atter▁	-6404
eping▁	-6405
esterd	-6406
eting▁	-6407
ority▁	-6408
▁Hence	-6409
▁Holy▁	-6410
▁Lady▁	-6411
▁alleg	-6412
▁apart	-6413
▁avoid	-6414
▁bless	-6415
▁blood	-6416
▁bread	-6417
▁deep▁	-6418
▁dilig	-6419
▁empty	-6420
▁equal	-6421
▁fair▁	-6422
▁fill▁	-6423
▁kinds	-6424
▁lines	-6425
▁medic	-6426
▁propr	-6427
▁sect▁	-6428
▁seems	-6429
▁sign▁	-6430
▁solid	-6431
▁stars	-6432
▁subtr	-6433
▁unequ	-6434
▁union	-6435
opernic	-6436
▁While▁	-6437
▁build▁	-6438
▁daily▁	-6439
▁enjoy▁	-6440
▁errone	-6441
▁idols▁	-6442
▁little	-6443
▁marvel	-6444
▁maxims	-6445
▁naked▁	-6446
▁occurs	-6447
▁persua	-6448
▁slight	-6449
▁sphere	-6450
▁square	-6451
▁style▁	-6452
▁theory	-6453
▁topic▁	-6454
▁watch▁	-6455
material	-6456
quiring▁	-6457
▁advance	-6458
▁bodily▁	-6459
▁causal▁	-6460
▁changes	-6461
▁clearly	-6462
▁descend	-6463
▁discipl	-6464
▁distrib	-6465
▁divisib	-6466
▁empiric	-6467
▁inward▁	-6468
▁marked▁	-6469
▁master▁	-6470
▁multipl	-6471
▁numbers	-6472
▁profess	-6473
▁stated▁	-6474
▁termed▁	-6475
▁vision▁	-6476
▁withdra	-6477
intuition	-6478
knowledge	-6479
▁Peripate	-6480
▁Suppose▁	-6481
▁abstract	-6482
▁benefit▁	-6483
▁briefly▁	-6484
▁declare▁	-6485
▁doubted▁	-6486
▁drawing▁	-6487
▁engaged▁	-6488
▁exclude▁	-6489
▁falling▁	-6490
▁genuine▁	-6491
▁imagined	-6492
▁lacking▁	-6493
▁noticed▁	-6494
▁powerful	-6495
▁private▁	-6496
▁purposes	-6497
▁remarks▁	-6498
▁research	-6499
▁talking▁	-6500
▁whatever	-6501
necessary▁	-6502
▁bestowed▁	-6503
▁deduction	-6504
▁determine	-6505
▁entitled▁	-6506
▁observes▁	-6507
▁predicate	-6508
▁regulate▁	-6509
▁remained▁	-6510
▁respects▁	-6511
▁sentiment	-6512
▁simplest▁	-6513
▁suffices▁	-6514
▁universal	-6515
▁weakness▁	-6516
▁Principle▁	-6517
▁analogies▁	-6518
▁cognizing▁	-6519
▁discovered	-6520
▁intrinsic▁	-6521
▁occurring▁	-6522
▁repugnant▁	-6523
▁resulting▁	-6524
Indianapolis	-6525
▁controversy	-6526
▁corpuscles▁	-6527
▁explicated▁	-6528
▁inadequate▁	-6529
▁intimately▁	-6530
▁materially▁	-6531
▁separation▁	-6532
consciousness	-6533
▁attributing▁	-6534
▁discovering▁	-6535
▁productions▁	-6536
▁progression▁	-6537
Philosophical▁	-6538
▁anthropomorph	-6539
▁communicated▁	-6540
▁experimental▁	-6541
▁simultaneous▁	-6542
▁universality▁	-6543
▁demonstrative▁	-6544
▁characteristic▁	-6545
1/	-6546
1–	-6547
36	-6548
38	-6549
48	-6550
4▁	-6551
No	-6552
ON	-6553
bs	-6554
zz	-6555
7,▁	-6556
So▁	-6557
acy	-6558
ank	-6559
cul	-6560
ham	-6561
ia▁	-6562
iew	-6563
nis	-6564
ogr	-6565
ons	-6566
ysi	-6567
§.▁	-6568
▁3▁	-6569
▁B▁	-6570
▁Dr	-6571
▁Mo	-6572
▁ga	-6573
.),▁	-6574
21.▁	-6575
25.▁	-6576
26.▁	-6577
Yet▁	-6578
ata▁	-6579
bly▁	-6580
ems▁	-6581
ler▁	-6582
mans	-6583
ques	-6584
scep	-6585
ume▁	-6586
way▁	-6587
▁Rom	-6588
▁aim	-6589
▁bad	-6590
▁dut	-6591
▁low	-6592
▁pul	-6593
▁reb	-6594
▁set	-6595
▁uns	-6596
▁vic	-6597
being	-6598
igion	-6599
ites▁	-6600
itive	-6601
ulari	-6602
wards	-6603
which	-6604
zing▁	-6605
▁Here	-6606
▁May▁	-6607
▁Some	-6608
▁able	-6609
▁anat	-6610
▁clas	-6611
▁faul	-6612
▁flow	-6613
▁gard	-6614
▁pati	-6615
▁plur	-6616
▁push	-6617
▁rich	-6618
▁subm	-6619
▁tene	-6620
▁trav	-6621
Ethics	-6622
arest▁	-6623
eared▁	-6624
ident▁	-6625
object	-6626
tradic	-6627
▁Bacon	-6628
▁Oxfor	-6629
▁arise	-6630
▁dead▁	-6631
▁enabl	-6632
▁favor	-6633
▁fluid	-6634
▁hence	-6635
▁oppor	-6636
▁prosp	-6637
▁third	-6638
▁walk▁	-6639
aining▁	-6640
ishment	-6641
thought	-6642
titute▁	-6643
▁Ariew▁	-6644
▁David▁	-6645
▁Isaac▁	-6646
▁basic▁	-6647
▁behavi	-6648
▁child▁	-6649
▁choice	-6650
▁conces	-6651
▁confir	-6652
▁deals▁	-6653
▁entire	-6654
▁errors	-6655
▁guide▁	-6656
▁hopes▁	-6657
▁labor▁	-6658
▁looks▁	-6659
▁subdiv	-6660
▁suscep	-6661
▁united	-6662
▁unite▁	-6663
▁weight	-6664
ailable▁	-6665
oduction	-6666
▁Certain	-6667
▁Thirdly	-6668
▁arithme	-6669
▁country	-6670
▁criteri	-6671
▁decide▁	-6672
▁decreas	-6673
▁defect▁	-6674
▁depends	-6675
▁disturb	-6676
▁engage▁	-6677
▁fourth▁	-6678
▁granted	-6679
▁hearing	-6680
▁hinder▁	-6681
▁legitim	-6682
▁lively▁	-6683
▁mistake	-6684
▁pleases	-6685
▁pronoun	-6686
▁raises▁	-6687
▁refuse▁	-6688
▁reveal▁	-6689
▁servant	-6690
▁spread▁	-6691
▁suited▁	-6692
▁whether	-6693
▁willed▁	-6694
▁yesterd	-6695
Descartes	-6696
Whatever▁	-6697
▁abandon▁	-6698
▁altered▁	-6699
▁authors▁	-6700
▁calling▁	-6701
▁careful▁	-6702
▁complete	-6703
▁connect▁	-6704
▁contend▁	-6705
▁hardness	-6706
▁heavens▁	-6707
▁interpre	-6708
▁mixture▁	-6709
▁observed	-6710
▁pleases▁	-6711
▁positive	-6712
▁presume▁	-6713
▁propose▁	-6714
▁refrain▁	-6715
▁success▁	-6716
▁theology	-6717
▁wanting▁	-6718
▁Highness▁	-6719
▁accepted▁	-6720
▁approach▁	-6721
▁attention	-6722
▁borrowed▁	-6723
▁complain▁	-6724
▁decision▁	-6725
▁frequent▁	-6726
▁indefinit	-6727
▁permanent	-6728
▁starting▁	-6729
▁subsumed▁	-6730
determined▁	-6731
▁Substance▁	-6732
▁community▁	-6733
▁compelled▁	-6734
▁component▁	-6735
▁experiment	-6736
▁furnishes▁	-6737
▁instrument	-6738
▁intention▁	-6739
▁permitted▁	-6740
▁resembles▁	-6741
▁beforehand▁	-6742
▁combination	-6743
▁discussion▁	-6744
▁instrument▁	-6745
▁occasional▁	-6746
▁recognizes▁	-6747
▁resemblance	-6748
▁ridiculous▁	-6749
▁speculation	-6750
▁succeeding▁	-6751
▁Meditations▁	-6752
▁arrangement▁	-6753
▁comprehends▁	-6754
▁consciously▁	-6755
▁contrivance▁	-6756
▁entertained▁	-6757
▁instruction▁	-6758
▁spontaneity▁	-6759
▁susceptible▁	-6760
▁theologians▁	-6761
▁constituting▁	-6762
▁continuation▁	-6763
▁inconceivable	-6764
transcendental▁	-6765
▁insignificant▁	-6766
▁thoroughgoing▁	-6767
21	-6768
26	-6769
Ar	-6770
ak	-6771
co	-6772
my	-6773
._▁	-6774
4)▁	-6775
>>▁	-6776
No▁	-6777
asc	-6778
ert	-6779
ger	-6780
ils	-6781
ked	-6782
lex	-6783
pro	-6784
▁11	-6785
▁Br	-6786
▁Qu	-6787
22.▁	-6788
24.▁	-6789
God▁	-6790
ably	-6791
ared	-6792
eded	-6793
ilit	-6794
illi	-6795
imed	-6796
ire▁	-6797
lue▁	-6798
sely	-6799
taig	-6800
test	-6801
weal	-6802
▁1:▁	-6803
▁6.▁	-6804
▁9,▁	-6805
▁Ant	-6806
▁Col	-6807
▁Sci	-6808
▁Tex	-6809
▁ban	-6810
▁cav	-6811
▁dry	-6812
▁et▁	-6813
▁hat	-6814
▁las	-6815
▁vap	-6816
▁§.▁	-6817
Book▁	-6818
alter	-6819
ched▁	-6820
cile▁	-6821
ened▁	-6822
epher	-6823
habit	-6824
ights	-6825
itly▁	-6826
itude	-6827
ommun	-6828
sense	-6829
sever	-6830
simil	-6831
time▁	-6832
▁Auth	-6833
▁Caes	-6834
▁Men▁	-6835
▁Meth	-6836
▁Pier	-6837
▁Repl	-6838
▁Two▁	-6839
▁abst	-6840
▁afra	-6841
▁come	-6842
▁err▁	-6843
▁fix▁	-6844
▁gods	-6845
▁gran	-6846
▁grow	-6847
▁leis	-6848
▁note	-6849
▁quar	-6850
▁rece	-6851
▁red▁	-6852
▁summ	-6853
▁surp	-6854
▁than	-6855
▁tong	-6856
Dialog	-6857
acing▁	-6858
acted▁	-6859
aints▁	-6860
ators▁	-6861
ectual	-6862
esion▁	-6863
itable	-6864
iving▁	-6865
kened▁	-6866
princi	-6867
titude	-6868
▁Idea▁	-6869
▁Mind▁	-6870
▁Since	-6871
▁abund	-6872
▁bold▁	-6873
▁dare▁	-6874
▁days▁	-6875
▁entel	-6876
▁exemp	-6877
▁flow▁	-6878
▁forth	-6879
▁gold▁	-6880
▁guess	-6881
▁heter	-6882
▁holy▁	-6883
▁immen	-6884
▁never	-6885
▁overl	-6886
▁proph	-6887
▁round	-6888
▁secur	-6889
▁skill	-6890
▁snow▁	-6891
▁stead	-6892
▁table	-6893
▁unlim	-6894
▁vary▁	-6895
.......	-6896
elling▁	-6897
liberty	-6898
▁Associ	-6899
▁Dialog	-6900
▁Other▁	-6901
▁Which▁	-6902
▁anyone	-6903
▁arose▁	-6904
▁centur	-6905
▁correl	-6906
▁extent	-6907
▁inanim	-6908
▁indisc	-6909
▁invari	-6910
▁lying▁	-6911
▁monad▁	-6912
▁obstin	-6913
▁onesel	-6914
▁piety▁	-6915
▁should	-6916
▁stick▁	-6917
▁sweet▁	-6918
▁thirst	-6919
▁voice▁	-6920
▁young▁	-6921
evident▁	-6922
iciency▁	-6923
istence▁	-6924
▁abandon	-6925
▁augment	-6926
▁beasts▁	-6927
▁center▁	-6928
▁chapter	-6929
▁company	-6930
▁edition	-6931
▁gained▁	-6932
▁gravity	-6933
▁height▁	-6934
▁histori	-6935
▁indirec	-6936
▁judges▁	-6937
▁melanch	-6938
▁members	-6939
▁natures	-6940
▁pattern	-6941
▁permit▁	-6942
▁praise▁	-6943
▁predisp	-6944
▁purposi	-6945
▁showed▁	-6946
▁suffer▁	-6947
▁surface	-6948
▁texture	-6949
▁thence▁	-6950
▁virtues	-6951
▁yellow▁	-6952
▁General▁	-6953
▁Through▁	-6954
▁accident	-6955
▁balance▁	-6956
▁desired▁	-6957
▁exceeds▁	-6958
▁fashion▁	-6959
▁gravity▁	-6960
▁idealism	-6961
▁morality	-6962
▁offered▁	-6963
▁refined▁	-6964
▁refuted▁	-6965
▁settled▁	-6966
▁suggest▁	-6967
▁surface▁	-6968
▁wherein▁	-6969
▁workmans	-6970
Corollary▁	-6971
experience	-6972
▁Critique▁	-6973
▁certainly	-6974
▁contrast▁	-6975
▁discovery	-6976
▁faithful▁	-6977
▁fictions▁	-6978
▁generally	-6979
▁instinct▁	-6980
▁machines▁	-6981
▁measured▁	-6982
▁particles	-6983
▁passages▁	-6984
▁renounce▁	-6985
▁revealed▁	-6986
▁skeptics▁	-6987
▁sleeping▁	-6988
▁strongly▁	-6989
▁surfaces▁	-6990
▁volitions	-6991
difference▁	-6992
▁attentive▁	-6993
▁cognitive▁	-6994
▁countless▁	-6995
▁curiosity▁	-6996
▁greatness▁	-6997
▁heterogene	-6998
▁indetermin	-6999
▁initially▁	-7000
▁invention▁	-7001
▁mechanism▁	-7002
▁mediately▁	-7003
▁reconcile▁	-7004
▁referring▁	-7005
▁reflected▁	-7006
▁separable▁	-7007
▁similarly▁	-7008
▁sufficient	-7009
▁surprised▁	-7010
▁willingly▁	-7011
▁Experience▁	-7012
▁Meditations	-7013
▁Metaphysics	-7014
▁Objections▁	-7015
▁antecedent▁	-7016
▁assistance▁	-7017
▁contradict▁	-7018
▁controversi	-7019
▁established	-7020
▁existences▁	-7021
▁illustrate▁	-7022
▁particulars	-7023
▁resolution▁	-7024
▁separately▁	-7025
▁theological▁	-7026
▁traditional▁	-7027
▁intervention▁	-7028
Transcendental▁	-7029
▁unintelligible	-7030
▁contradictions▁	-7031
▁demonstrations▁	-7032
39	-7033
3▁	-7034
63	-7035
65	-7036
fl	-7037
]]▁	-7038
aff	-7039
amp	-7040
ike	-7041
mod	-7042
opp	-7043
orr	-7044
ual	-7045
usi	-7046
ute	-7047
–17	-7048
▁En	-7049
▁Fr	-7050
▁Pl	-7051
▁kn	-7052
20.▁	-7053
ater	-7054
che▁	-7055
gold	-7056
icer	-7057
ised	-7058
isms	-7059
mpir	-7060
octr	-7061
vere	-7062
ving	-7063
▁Aug	-7064
▁Ded	-7065
▁Mar	-7066
▁Pow	-7067
▁Ref	-7068
▁Reg	-7069
▁Rob	-7070
▁fer	-7071
▁foc	-7072
▁jud	-7073
▁lod	-7074
▁mou	-7075
▁pen	-7076
accid	-7077
angle	-7078
ator▁	-7079
come▁	-7080
dely▁	-7081
gener	-7082
ired▁	-7083
itici	-7084
oumen	-7085
possi	-7086
tible	-7087
uses▁	-7088
▁1989	-7089
▁Four	-7090
▁Had▁	-7091
▁Set▁	-7092
▁atom	-7093
▁awar	-7094
▁bit▁	-7095
▁book	-7096
▁cand	-7097
▁clar	-7098
▁crim	-7099
▁desc	-7100
▁elev	-7101
▁fool	-7102
▁into	-7103
▁iron	-7104
▁just	-7105
▁mill	-7106
▁mort	-7107
▁musc	-7108
▁owe▁	-7109
▁prep	-7110
▁shoc	-7111
▁symp	-7112
▁terr	-7113
▁verb	-7114
▁void	-7115
▁want	-7116
active	-7117
aring▁	-7118
earch▁	-7119
istinc	-7120
orary▁	-7121
quiry▁	-7122
sively	-7123
tained	-7124
▁Pray▁	-7125
▁aston	-7126
▁duly▁	-7127
▁ease▁	-7128
▁half▁	-7129
▁heart	-7130
▁indub	-7131
▁knows	-7132
▁promp	-7133
▁prove	-7134
▁unto▁	-7135
Second▁	-7136
anding▁	-7137
iction▁	-7138
present	-7139
tually▁	-7140
univers	-7141
▁abuse▁	-7142
▁analys	-7143
▁ascend	-7144
▁axioms	-7145
▁count▁	-7146
▁diminu	-7147
▁doubts	-7148
▁fault▁	-7149
▁gather	-7150
▁ingenu	-7151
▁limbs▁	-7152
▁loves▁	-7153
▁machin	-7154
▁nerves	-7155
▁night▁	-7156
▁owing▁	-7157
▁perish	-7158
▁posit▁	-7159
▁prodig	-7160
▁rectil	-7161
▁scene▁	-7162
▁shapes	-7163
▁share▁	-7164
▁smell▁	-7165
▁solve▁	-7166
▁sovere	-7167
▁stars▁	-7168
▁stock▁	-7169
▁stones	-7170
▁sugges	-7171
▁travel	-7172
▁yellow	-7173
interrup	-7174
ological	-7175
▁Christ▁	-7176
▁Oxford▁	-7177
▁Pierre▁	-7178
▁adhere▁	-7179
▁ascend▁	-7180
▁assure▁	-7181
▁bottom▁	-7182
▁concur▁	-7183
▁contrar	-7184
▁deeply▁	-7185
▁defend▁	-7186
▁excuse▁	-7187
▁fallen▁	-7188
▁history	-7189
▁illumin	-7190
▁intend▁	-7191
▁learned	-7192
▁lowest▁	-7193
▁mighty▁	-7194
▁passive	-7195
▁perish▁	-7196
▁prevail	-7197
▁remedy▁	-7198
▁resist▁	-7199
▁sensed▁	-7200
▁speaks▁	-7201
▁strike▁	-7202
▁support	-7203
▁twenty▁	-7204
▁wished▁	-7205
abstract▁	-7206
extension	-7207
oduction▁	-7208
▁Archimed	-7209
▁Religion	-7210
▁answers▁	-7211
▁concreto	-7212
▁confine▁	-7213
▁doubting	-7214
▁entelech	-7215
▁framing▁	-7216
▁intense▁	-7217
▁interest	-7218
▁manifest	-7219
▁necessit	-7220
▁orderly▁	-7221
▁organic▁	-7222
▁painful▁	-7223
▁proposed	-7224
▁rejects▁	-7225
▁relative	-7226
▁schools▁	-7227
▁secondly	-7228
▁serious▁	-7229
▁service▁	-7230
▁setting▁	-7231
▁suffers▁	-7232
▁texture▁	-7233
▁turning▁	-7234
▁yourself	-7235
erception▁	-7236
skepticism	-7237
▁accounts▁	-7238
▁ancients▁	-7239
▁appeared▁	-7240
▁completed	-7241
▁composite	-7242
▁connects▁	-7243
▁doubtful▁	-7244
▁exception	-7245
▁inferior▁	-7246
▁informed▁	-7247
▁modified▁	-7248
▁objective	-7249
▁occasions	-7250
▁pleasant▁	-7251
▁privation	-7252
▁rejected▁	-7253
▁spiritual	-7254
▁supports▁	-7255
▁thorough▁	-7256
▁Aristoteli	-7257
▁answering▁	-7258
▁asserting▁	-7259
▁correctly▁	-7260
▁dialectic▁	-7261
▁education▁	-7262
▁explicate▁	-7263
▁formation▁	-7264
▁immovable▁	-7265
▁indiscerni	-7266
▁irregular▁	-7267
▁numerical▁	-7268
▁positions▁	-7269
▁sentiments	-7270
▁succeeded▁	-7271
▁successive	-7272
▁treatment▁	-7273
▁triangles▁	-7274
▁uninterrup	-7275
▁wonderful▁	-7276
▁Associated▁	-7277
▁generality▁	-7278
▁incomplete▁	-7279
▁individuals	-7280
▁objectively	-7281
▁punishment▁	-7282
▁reciprocal▁	-7283
▁variations▁	-7284
▁arbitrarily▁	-7285
▁benevolence▁	-7286
▁coexistence▁	-7287
▁constrained▁	-7288
▁demonstrated	-7289
▁efficacious▁	-7290
▁presumption▁	-7291
▁speculation▁	-7292
▁Consequently▁	-7293
▁accomplished▁	-7294
▁simultaneity▁	-7295
▁superstition▁	-7296
6/	-7297
68	-7298
76	-7299
8/	-7300
9/	-7301
ax	-7302
sm	-7303
é▁	-7304
2)▁	-7305
Let	-7306
Prs	-7307
agr	-7308
eds	-7309
icy	-7310
inn	-7311
ler	-7312
ord	-7313
un▁	-7314
use	-7315
▁.▁	-7316
▁Be	-7317
▁If	-7318
▁Op	-7319
▁rh	-7320
_."▁	-7321
abor	-7322
acul	-7323
ands	-7324
ane▁	-7325
arif	-7326
arly	-7327
desi	-7328
embl	-7329
ify▁	-7330
ises	-7331
judg	-7332
lds▁	-7333
mann	-7334
ord▁	-7335
orum	-7336
osit	-7337
poin	-7338
prac	-7339
redi	-7340
ship	-7341
soul	-7342
▁4,▁	-7343
▁Her	-7344
▁Man	-7345
▁Syn	-7346
▁avo	-7347
▁ens	-7348
▁fif	-7349
▁his	-7350
▁mad	-7351
▁ont	-7352
▁pea	-7353
▁poe	-7354
▁sag	-7355
Oxfor	-7356
hold▁	-7357
ibly▁	-7358
infer	-7359
inion	-7360
ixth▁	-7361
just▁	-7362
ometr	-7363
oper▁	-7364
osing	-7365
uary▁	-7366
▁25,▁	-7367
▁28,▁	-7368
▁Disc	-7369
▁Its▁	-7370
▁Like	-7371
▁Man▁	-7372
▁Mash	-7373
▁Sir▁	-7374
▁Who▁	-7375
▁beg▁	-7376
▁chec	-7377
▁cut▁	-7378
▁guid	-7379
▁make	-7380
▁nobl	-7381
▁quie	-7382
▁rati	-7383
▁reli	-7384
▁repr	-7385
▁scal	-7386
▁seas	-7387
▁sick	-7388
▁swif	-7389
▁vary	-7390
▁vols	-7391
▁wise	-7392
After▁	-7393
Oxford	-7394
alent▁	-7395
alism▁	-7396
aving▁	-7397
depend	-7398
entia▁	-7399
exist▁	-7400
hysics	-7401
indeed	-7402
oumena	-7403
subjec	-7404
table▁	-7405
umber▁	-7406
▁Have▁	-7407
▁Latin	-7408
▁Madam	-7409
▁Organ	-7410
▁Paris	-7411
▁Where	-7412
▁basis	-7413
▁bulk▁	-7414
▁cast▁	-7415
▁chall	-7416
▁cover	-7417
▁died▁	-7418
▁divin	-7419
▁endow	-7420
▁essay	-7421
▁face▁	-7422
▁glimp	-7423
▁gods▁	-7424
▁grace	-7425
▁habit	-7426
▁infan	-7427
▁lives	-7428
▁monad	-7429
▁often	-7430
▁play▁	-7431
▁super	-7432
▁years	-7433
acting▁	-7434
entary▁	-7435
except▁	-7436
orical▁	-7437
orious▁	-7438
passes▁	-7439
tended▁	-7440
tunity▁	-7441
▁Epicur	-7442
▁Platon	-7443
▁Third▁	-7444
▁advers	-7445
▁always	-7446
▁angle▁	-7447
▁arises	-7448
▁assump	-7449
▁barbar	-7450
▁beasts	-7451
▁birth▁	-7452
▁celebr	-7453
▁denied	-7454
▁formed	-7455
▁fortun	-7456
▁heavy▁	-7457
▁improv	-7458
▁incess	-7459
▁interv	-7460
▁keeps▁	-7461
▁narrow	-7462
▁organ▁	-7463
▁plants	-7464
▁precip	-7465
▁speed▁	-7466
▁spend▁	-7467
▁spent▁	-7468
▁steps▁	-7469
▁temper	-7470
▁transp	-7471
Theodicy	-7472
ilities▁	-7473
insofar▁	-7474
question	-7475
solidity	-7476
▁Common▁	-7477
▁Essays▁	-7478
▁Indeed▁	-7479
▁Shepher	-7480
▁afraid▁	-7481
▁arisen▁	-7482
▁ceases▁	-7483
▁closer▁	-7484
▁essenti	-7485
▁esteem▁	-7486
▁exceed▁	-7487
▁falsity	-7488
▁feeling	-7489
▁grants▁	-7490
▁greater	-7491
▁issues▁	-7492
▁obvious	-7493
▁occupy▁	-7494
▁oppose▁	-7495
▁planets	-7496
▁sensing	-7497
▁shapes▁	-7498
▁sources	-7499
▁sudden▁	-7500
▁topics▁	-7501
▁trying▁	-7502
▁viewed▁	-7503
▁widely▁	-7504
▁worlds▁	-7505
personal▁	-7506
thetical▁	-7507
▁causing▁	-7508
▁compose▁	-7509
▁confirm▁	-7510
▁contains	-7511
▁country▁	-7512
▁critique	-7513
▁delight▁	-7514
▁extreme▁	-7515
▁friends▁	-7516
▁keeping▁	-7517
▁learning	-7518
▁moments▁	-7519
▁ordered▁	-7520
▁presence	-7521
▁rational	-7522
▁received	-7523
▁relates▁	-7524
▁respects	-7525
▁retains▁	-7526
▁scruple▁	-7527
▁supposed	-7528
▁surpass▁	-7529
▁suspend▁	-7530
▁walking▁	-7531
reflection	-7532
something▁	-7533
▁Emotions▁	-7534
▁applying▁	-7535
▁attached▁	-7536
▁clearest▁	-7537
▁commands▁	-7538
▁creating▁	-7539
▁decisive▁	-7540
▁demanded▁	-7541
▁deprived▁	-7542
▁direction	-7543
▁disappear	-7544
▁disappoin	-7545
▁doctrines	-7546
▁doubting▁	-7547
▁imagining	-7548
▁immutable	-7549
▁important	-7550
▁indispens	-7551
▁instances	-7552
▁irregular	-7553
▁learning▁	-7554
▁meanings▁	-7555
▁mountain▁	-7556
▁multiply▁	-7557
▁pleasing▁	-7558
▁prudence▁	-7559
▁succeeds▁	-7560
▁temporal▁	-7561
▁transmit▁	-7562
▁unworthy▁	-7563
▁velocity▁	-7564
▁Knowledge▁	-7565
▁aggregate▁	-7566
▁ambiguity▁	-7567
▁causation▁	-7568
▁completed▁	-7569
▁concludes▁	-7570
▁concourse▁	-7571
▁confusedly	-7572
▁continuity	-7573
▁displayed▁	-7574
▁everywhere	-7575
▁extending▁	-7576
▁indicates▁	-7577
▁magnitudes	-7578
▁marvelous▁	-7579
▁resistance	-7580
▁slightest▁	-7581
▁undoubted▁	-7582
▁accidental▁	-7583
▁apparently▁	-7584
▁application	-7585
▁cogitative▁	-7586
▁compounded▁	-7587
▁continuity▁	-7588
▁convincing▁	-7589
▁relatively▁	-7590
▁scholastic▁	-7591
▁subsequent▁	-7592
▁translated▁	-7593
▁Introduction	-7594
▁abstraction▁	-7595
▁circumstance	-7596
▁conceptions▁	-7597
▁concurrence▁	-7598
▁consistency▁	-7599
▁constitution	-7600
▁constructed▁	-7601
▁controversy▁	-7602
▁enlightened▁	-7603
▁experiences▁	-7604
▁opportunity▁	-7605
▁penetrating▁	-7606
▁subsistence▁	-7607
▁accompanying▁	-7608
▁dispositions▁	-7609
▁establishing▁	-7610
▁inclinations▁	-7611
▁preservation▁	-7612
▁suppositions▁	-7613
▁undetermined▁	-7614
▁unreasonable▁	-7615
▁comprehensible▁	-7616
▁significations▁	-7617
.—	-7618
5▁	-7619
IV	-7620
Un	-7621
▁>	-7622
)_▁	-7623
Mon	-7624
Par	-7625
att	-7626
be▁	-7627
ese	-7628
gen	-7629
hyp	-7630
ie▁	-7631
iss	-7632
kes	-7633
mag	-7634
ol▁	-7635
ubb	-7636
ucl	-7637
▁18	-7638
▁<<	-7639
▁Ap	-7640
▁pp	-7641
▁ze	-7642
.).▁	-7643
27.▁	-7644
28.▁	-7645
Not▁	-7646
One▁	-7647
Supp	-7648
ches	-7649
enci	-7650
ense	-7651
moun	-7652
omit	-7653
ops▁	-7654
oral	-7655
ourn	-7656
tinu	-7657
urt▁	-7658
zes▁	-7659
▁7.▁	-7660
▁9.▁	-7661
▁Be▁	-7662
▁Exp	-7663
▁Jew	-7664
▁Sam	-7665
▁Sol	-7666
▁abb	-7667
▁eag	-7668
▁fee	-7669
▁hot	-7670
▁oce	-7671
▁tem	-7672
▁tol	-7673
.....	-7674
ables	-7675
acity	-7676
after	-7677
izes▁	-7678
lege▁	-7679
matic	-7680
onstr	-7681
ords▁	-7682
organ	-7683
same▁	-7684
sely▁	-7685
then▁	-7686
tness	-7687
uneas	-7688
▁17,▁	-7689
▁Any▁	-7690
▁Chur	-7691
▁Cosm	-7692
▁Pasc	-7693
▁ball	-7694
▁blam	-7695
▁devi	-7696
▁dict	-7697
▁eman	-7698
▁five	-7699
▁joy▁	-7700
▁liqu	-7701
▁rect	-7702
▁sinc	-7703
▁stim	-7704
▁tree	-7705
▁unaw	-7706
▁vain	-7707
arded▁	-7708
ature▁	-7709
dinary	-7710
endix▁	-7711
icted▁	-7712
ideas▁	-7713
ilege▁	-7714
ister▁	-7715
izing▁	-7716
mixed▁	-7717
ograph	-7718
tedly▁	-7719
these▁	-7720
tured▁	-7721
utely▁	-7722
▁Each▁	-7723
▁Just▁	-7724
▁Many▁	-7725
▁asks▁	-7726
▁depth	-7727
▁fate▁	-7728
▁ficti	-7729
▁flour	-7730
▁heavy	-7731
▁innoc	-7732
▁irres	-7733
▁king▁	-7734
▁maxim	-7735
▁pains	-7736
▁paper	-7737
▁parce	-7738
▁phant	-7739
▁remin	-7740
▁reser	-7741
▁signs	-7742
▁spect	-7743
▁studi	-7744
▁tend▁	-7745
▁their	-7746
▁three	-7747
Further	-7748
esting▁	-7749
igious▁	-7750
mathema	-7751
orting▁	-7752
simple▁	-7753
subsist	-7754
ternity	-7755
tility▁	-7756
uration	-7757
▁Clarke	-7758
▁Democr	-7759
▁Roman▁	-7760
▁Schrif	-7761
▁Second	-7762
▁Univer	-7763
▁acting	-7764
▁approb	-7765
▁axiom▁	-7766
▁block▁	-7767
▁concur	-7768
▁discur	-7769
▁draft▁	-7770
▁either	-7771
▁entang	-7772
▁facts▁	-7773
▁fewer▁	-7774
▁fills▁	-7775
▁finger	-7776
▁fluid▁	-7777
▁formul	-7778
▁health	-7779
▁infirm	-7780
▁letter	-7781
▁lived▁	-7782
▁magnif	-7783
▁preced	-7784
▁print▁	-7785
▁republ	-7786
▁scope▁	-7787
▁seeing	-7788
▁sensel	-7789
▁spaces	-7790
▁sudden	-7791
▁surely	-7792
▁today▁	-7793
because▁	-7794
century▁	-7795
demonstr	-7796
ications	-7797
identity	-7798
ritical▁	-7799
sensible	-7800
▁Author▁	-7801
▁Epicure	-7802
▁Thought	-7803
▁acquies	-7804
▁agents▁	-7805
▁capable	-7806
▁decrees	-7807
▁doubted	-7808
▁govern▁	-7809
▁health▁	-7810
▁heaven▁	-7811
▁humble▁	-7812
▁inhabit	-7813
▁instant	-7814
▁knowing	-7815
▁letters	-7816
▁posited	-7817
▁produce	-7818
▁sacred▁	-7819
▁shadow▁	-7820
▁spaces▁	-7821
▁tastes▁	-7822
▁unalter	-7823
▁unique▁	-7824
▁unites▁	-7825
▁unlike▁	-7826
▁vanish▁	-7827
Therefore	-7828
accidents	-7829
contradic	-7830
ictionary	-7831
material▁	-7832
obability	-7833
▁admitted	-7834
▁affairs▁	-7835
▁affirms▁	-7836
▁arguing▁	-7837
▁chapter▁	-7838
▁children	-7839
▁coexist▁	-7840
▁concomit	-7841
▁creator▁	-7842
▁deceiver	-7843
▁decided▁	-7844
▁enlarge▁	-7845
▁goodness	-7846
▁greatly▁	-7847
▁hinders▁	-7848
▁joining▁	-7849
▁movable▁	-7850
▁particip	-7851
▁predomin	-7852
▁profess▁	-7853
▁pursuit▁	-7854
▁quickly▁	-7855
▁raising▁	-7856
▁realize▁	-7857
▁remember	-7858
▁repeated	-7859
▁rewards▁	-7860
▁sensing▁	-7861
▁strikes▁	-7862
▁touches▁	-7863
Principles	-7864
▁Analytic▁	-7865
▁Treatise▁	-7866
▁agreement	-7867
▁cohesion▁	-7868
▁	-7869
e	-7870
t	-7871
i	-7872
o	-7873
n	-7874
a	-7875
s	-7876
r	-7877
h	-7878
l	-7879
d	-7880
c	-7881
u	-7882
f	-7883
m	-7884
p	-7885
y	-7886
w	-7887
g	-7888
,	-7889
b	-7890
v	-7891
.	-7892
_	-7893
k	-7894
I	-7895
x	-7896
T	-7897
j	-7898
q	-7899
A	-7900
;	-7901
B	-7902
(	-7903
)	-7904
1	-7905
P	-7906
G	-7907
F	-7908
H	-7909
S	-7910
2	-7911
3	-7912
—	-7913
'	-7914
C	-7915
"	-7916
6	-7917
?	-7918
4	-7919
[	-7920
]	-7921
W	-7922
5	-7923
7	-7924
:	-7925
N	-7926
8	-7927
D	-7928
M	-7929
z	-7930
#	-7931
O	-7932
9	-7933
0	-7934
L	-7935
{	-7936
}	-7937
E	-7938
-	-7939
R	-7940
Y	-7941
V	-7942
U	-7943
*	-7944
/	-7945
J	-7946
§	-7947
–	-7948
K	-7949
!	-7950
X	-7951
>	-7952
<	-7953
é	-7954
Q	-7955
=	-7956
â	-7957
Z	-7958
è	-7959
&	-7960
+	-7961
ç	-7962
α	-7963
τ	-7964
ε	-7965
ι	-7966
ν	-7967
ö	-7968
ί	-7969
ρ	-7970
ê	-7971
ü	-7972
ο	-7973
É	-7974
ä	-7975
λ	-7976
χ	-7977
©	-7978
à	-7979
ë	-7980
ï	-7981
ά	-7982
ή	-7983
η	-7984
κ	-7985
ξ	-7986
π	-7987
υ	-7988
ψ	-7989
ἀ	-7990
ἦ	-7991
ἱ	-7992
ἴ	-7993
ἵ	-7994
ὀ	-7995
ὴ	-7996
