<unk>	0
<s>	0
</s>	0
e▁	-0
th	-1
s▁	-2
t▁	-3
in	-4
er	-5
an	-6
d▁	-7
on	-8
,▁	-9
y▁	-10
the▁	-11
en	-12
f▁	-13
o▁	-14
of▁	-15
or	-16
ti	-17
re	-18
.▁	-19
al	-20
ou	-21
is▁	-22
ar	-23
ing	-24
to▁	-25
at▁	-26
and▁	-27
tion	-28
in▁	-29
es	-30
wh	-31
ing▁	-32
that▁	-33
er▁	-34
it	-35
ed▁	-36
no	-37
st	-38
a▁	-39
or▁	-40
at	-41
ch	-42
es▁	-43
om	-44
si	-45
ec	-46
as▁	-47
ly▁	-48
con	-49
the	-50
l▁	-51
di	-52
an▁	-53
ch▁	-54
se	-55
su	-56
it▁	-57
de	-58
ce	-59
tion▁	-60
ve▁	-61
ce▁	-62
ex	-63
wi	-64
as	-65
_▁	-66
not▁	-67
os	-68
al▁	-69
be▁	-70
pr	-71
us	-72
en▁	-73
ac	-74
whi	-75
le	-76
le▁	-77
on▁	-78
ha	-79
I▁	-80
ir	-81
ma	-82
be	-83
per	-84
which▁	-85
li	-86
ow	-87
are▁	-88
ev	-89
un	-90
ur	-91
we▁	-92
gh	-93
by▁	-94
ut▁	-95
am	-96
sen	-97
ther	-98
with	-99
ta	-100
om▁	-101
all▁	-102
this▁	-103
fr	-104
ther▁	-105
tr	-106
is	-107
ab	-108
ld▁	-109
Th	-110
from▁	-111
our	-112
pre	-113
od	-114
for	-115
im	-116
ter	-117
qu	-118
ts▁	-119
have▁	-120
me	-121
ide	-122
ff	-123
ough	-124
op	-125
ci	-126
for▁	-127
il	-128
ent▁	-129
stan	-130
min	-131
ould▁	-132
ob	-133
ol	-134
;▁	-135
thing▁	-136
iv	-137
one▁	-138
ca	-139
ul	-140
with▁	-141
sp	-142
they▁	-143
our▁	-144
pp	-145
sel	-146
ence▁	-147
m▁	-148
com	-149
but▁	-150
can▁	-151
so▁	-152
ll▁	-153
now	-154
der	-155
sa	-156
any▁	-157
jec	-158
tions▁	-159
par	-160
la	-161
thing	-162
sh	-163
n▁	-164
ity▁	-165
ent	-166
ic	-167
sib	-168
sub	-169
ed	-170
ar▁	-171
its▁	-172
ere▁	-173
nat	-174
ure▁	-175
only▁	-176
um	-177
know	-178
out▁	-179
thes	-180
tic	-181
cep	-182
ver	-183
ist	-184
use▁	-185
em	-186
other▁	-187
reas	-188
ose▁	-189
el	-190
mor	-191
no▁	-192
som	-193
_.▁	-194
he▁	-195
what▁	-196
mo	-197
ir▁	-198
fin	-199
ut	-200
though	-201
id	-202
ust▁	-203
oun	-204
og	-205
wa	-206
ess	-207
if▁	-208
pos	-209
their▁	-210
there▁	-211
objec	-212
ame▁	-213
cer	-214
gre	-215
int	-216
pro	-217
ord	-218
ad	-219
us▁	-220
od▁	-221
But▁	-222
dg	-223
se▁	-224
ke▁	-225
ever	-226
exist	-227
these▁	-228
ph	-229
k▁	-230
me▁	-231
ess▁	-232
will▁	-233
ter▁	-234
ow▁	-235
more▁	-236
ra	-237
would▁	-238
end	-239
has▁	-240
ever▁	-241
ate▁	-242
must▁	-243
app	-244
nec	-245
pl	-246
ou▁	-247
them	-248
ely▁	-249
same▁	-250
The▁	-251
his▁	-252
ear	-253
diff	-254
sible▁	-255
able▁	-256
bod	-257
such▁	-258
under	-259
than▁	-260
do	-261
ea	-262
mat	-263
things▁	-264
all	-265
For▁	-266
An	-267
po	-268
ation▁	-269
them▁	-270
you▁	-271
ure	-272
substan	-273
do▁	-274
bo	-275
st▁	-276
being▁	-277
thin	-278
tw	-279
so	-280
ni	-281
man	-282
may▁	-283
those▁	-284
up	-285
can	-286
wor	-287
?▁	-288
tru	-289
ally▁	-290
ted▁	-291
And▁	-292
ence	-293
ive▁	-294
ser	-295
without▁	-296
consi	-297
str	-298
other	-299
sc	-300
ity	-301
God▁	-302
tions	-303
inc	-304
presen	-305
certa	-306
ces▁	-307
:▁	-308
peri	-309
ig	-310
]▁	-311
)▁	-312
concep	-313
ang	-314
inci	-315
some▁	-316
when▁	-317
cannot▁	-318
ne	-319
ect▁	-320
de▁	-321
th▁	-322
ong	-323
stand	-324
efor	-325
bec	-326
my▁	-327
vi	-328
necess	-329
ary▁	-330
self▁	-331
reason	-332
pla	-333
ideas	-334
mag	-335
ous▁	-336
experi	-337
dist	-338
sion	-339
does▁	-340
ceiv	-341
sion▁	-342
reason▁	-343
differ	-344
princi	-345
who▁	-346
ib	-347
lu	-348
ag	-349
nature▁	-350
mind▁	-351
way	-352
ite▁	-353
some	-354
acc	-355
igh	-356
oph	-357
et▁	-358
ledg	-359
fir	-360
ten	-361
ple	-362
nothing▁	-363
was▁	-364
ts	-365
termin	-366
knowledg	-367
ilos	-368
ilosoph	-369
fac	-370
ces	-371
ough▁	-372
also▁	-373
tive▁	-374
idea▁	-375
understand	-376
determin	-377
though▁	-378
ty▁	-379
ves▁	-380
into▁	-381
tu	-382
ari	-383
ds▁	-384
uc	-385
even▁	-386
w▁	-387
oll	-388
him	-389
appear	-390
self	-391
ju	-392
body▁	-393
supp	-394
..	-395
ince▁	-396
Pr	-397
ly	-398
ost▁	-399
oc	-400
ether▁	-401
ause▁	-402
very▁	-403
form	-404
thr	-405
imag	-406
philosoph	-407
}▁	-408
comm	-409
sti	-410
sim	-411
prop	-412
pow	-413
king▁	-414
sci	-415
most▁	-416
therefor	-417
could▁	-418
bodi	-419
because▁	-420
were▁	-421
God	-422
eff	-423
own▁	-424
sy	-425
tern	-426
ous	-427
ideas▁	-428
gen	-429
far▁	-430
ke	-431
possible▁	-432
ceive▁	-433
should▁	-434
cause▁	-435
ical▁	-436
ything▁	-437
ve	-438
It▁	-439
reg	-440
giv	-441
then▁	-442
sou	-443
appearan	-444
certain▁	-445
prod	-446
partic	-447
foll	-448
sur	-449
ref	-450
ine▁	-451
make▁	-452
ither▁	-453
ple▁	-454
ated▁	-455
osi	-456
ori	-457
since▁	-458
contr	-459
through▁	-460
uman▁	-461
emp	-462
infin	-463
iti	-464
ong▁	-465
mind	-466
been▁	-467
upon▁	-468
judg	-469
ways▁	-470
percep	-471
first▁	-472
perf	-473
est▁	-474
way▁	-475
ation	-476
go	-477
"▁	-478
fi	-479
iver	-480
mu	-481
time▁	-482
less▁	-483
id▁	-484
nam	-485
This▁	-486
cre	-487
sol	-488
der▁	-489
gener	-490
something▁	-491
enti	-492
of	-493
ish	-494
pri	-495
know▁	-496
existence▁	-497
ents▁	-498
distinc	-499
represen	-500
des	-501
cont	-502
mean	-503
human▁	-504
subjec	-505
),▁	-506
cog	-507
ular▁	-508
caus	-509
never▁	-510
qual	-511
arg	-512
Ph	-513
intu	-514
possib	-515
natur	-516
Wh	-517
two▁	-518
sens	-519
tain	-520
fe	-521
ute▁	-522
ard▁	-523
different▁	-524
themsel	-525
knowledge▁	-526
how▁	-527
yet▁	-528
cogni	-529
ain	-530
objects▁	-531
itself▁	-532
foun	-533
about▁	-534
always▁	-535
gr	-536
pas	-537
consider	-538
.,▁	-539
ning▁	-540
br	-541
ving▁	-542
spa	-543
man▁	-544
dic	-545
ant▁	-546
tly▁	-547
things	-548
body	-549
say▁	-550
sic	-551
had▁	-552
intui	-553
whether▁	-554
univer	-555
condi	-556
cle	-557
lig	-558
part▁	-559
accord	-560
order▁	-561
matter▁	-562
nor▁	-563
ap	-564
am▁	-565
In▁	-566
principl	-567
disc	-568
ll	-569
much▁	-570
see▁	-571
aff	-572
think▁	-573
motion▁	-574
cor	-575
ight▁	-576
rela	-577
sec	-578
use	-579
every▁	-580
mon	-581
pres	-582
to	-583
say	-584
een▁	-585
kin	-586
ies▁	-587
ternal▁	-588
another▁	-589
idea	-590
hap	-591
betw	-592
perceiv	-593
essen	-594
nature	-595
object▁	-596
concer	-597
follow	-598
between▁	-599
ers▁	-600
ting▁	-601
phy	-602
we	-603
sequ	-604
spec	-605
being	-606
intel	-607
thought▁	-608
given▁	-609
pure▁	-610
one	-611
oub	-612
rec	-613
who	-614
and	-615
eri	-616
inf	-617
beli	-618
inde	-619
ans	-620
true▁	-621
ations▁	-622
ici	-623
many▁	-624
ness▁	-625
experience	-626
particular▁	-627
sensible▁	-628
substance▁	-629
div	-630
Phil	-631
priori	-632
exam	-633
each▁	-634
imagin	-635
experience▁	-636
act▁	-637
ently▁	-638
judgm	-639
according▁	-640
mer	-641
rea	-642
bodies▁	-643
red▁	-644
ast▁	-645
ere	-646
lo	-647
por	-648
).▁	-649
shall▁	-650
over	-651
ality▁	-652
et	-653
tic▁	-654
exten	-655
##	-656
physic	-657
ves	-658
natural▁	-659
ance▁	-660
ond▁	-661
ely	-662
either▁	-663
still▁	-664
therefore▁	-665
doub	-666
power▁	-667
great	-668
qualiti	-669
clu	-670
ist▁	-671
form▁	-672
find▁	-673
itself	-674
parts▁	-675
spir	-676
your▁	-677
concept▁	-678
understanding▁	-679
sensa	-680
where▁	-681
fa	-682
attr	-683
ded▁	-684
II	-685
fre	-686
seem	-687
like▁	-688
ate	-689
ility▁	-690
au	-691
chang	-692
great▁	-693
here▁	-694
yl	-695
evid	-696
af	-697
soul▁	-698
Hyl	-699
If▁	-700
ext	-701
made▁	-702
merely▁	-703
ques	-704
principles▁	-705
syn	-706
medi	-707
sofar▁	-708
see	-709
connec	-710
perfec	-711
ved▁	-712
that	-713
insofar▁	-714
obser	-715
car	-716
suff	-717
absol	-718
underst	-719
lec	-720
necessary▁	-721
pa	-722
sense▁	-723
consequ	-724
think	-725
anything▁	-726
num	-727
happ	-728
posi	-729
dec	-730
argum	-731
ini	-732
end▁	-733
matter	-734
sig	-735
ulti	-736
lish	-737
produ	-738
understanding	-739
ep	-740
law	-741
call	-742
osition▁	-743
general▁	-744
attrib	-745
ri	-746
will	-747
not	-748
world▁	-749
he	-750
oper	-751
ding▁	-752
consci	-753
exist▁	-754
materi	-755
vo	-756
fig	-757
kes▁	-758
means▁	-759
cap	-760
men▁	-761
empir	-762
now▁	-763
den	-764
men	-765
representa	-766
fur	-767
ase▁	-768
what	-769
word	-770
effec	-771
if	-772
We▁	-773
actu	-774
space▁	-775
common▁	-776
opini	-777
lim	-778
arily▁	-779
substance	-780
resp	-781
agre	-782
conf	-783
real▁	-784
dep	-785
preh	-786
time	-787
tab	-788
beg	-789
rely▁	-790
said▁	-791
old▁	-792
well▁	-793
owever	-794
another	-795
infinite▁	-796
cur	-797
ght▁	-798
ise▁	-799
belie	-800
tle▁	-801
conclu	-802
diffic	-803
themselves▁	-804
lat	-805
tim	-806
sever	-807
distinct▁	-808
col	-809
quir	-810
bl	-811
called▁	-812
tes	-813
disp	-814
him▁	-815
vari	-816
16	-817
conceiv	-818
call▁	-819
numb	-820
lic	-821
both▁	-822
found▁	-823
mann	-824
fact▁	-825
seems▁	-826
concerning▁	-827
thus▁	-828
produc	-829
my	-830
tog	-831
conceive▁	-832
tain▁	-833
therefore	-834
comple	-835
itu	-836
anim	-837
read	-838
just▁	-839
thinking▁	-840
ond	-841
ingu	-842
ver▁	-843
tical▁	-844
exp	-845
mere▁	-846
whole▁	-847
everything▁	-848
main	-849
under▁	-850
contain	-851
adm	-852
abstr	-853
taphysic	-854
perceive▁	-855
give▁	-856
several▁	-857
befor	-858
suffici	-859
ld	-860
ental▁	-861
simple▁	-862
distingu	-863
take▁	-864
this	-865
qui	-866
ought▁	-867
kind▁	-868
concepts▁	-869
regard▁	-870
necessarily▁	-871
proper	-872
up▁	-873
sense	-874
ty	-875
suc	-876
expla	-877
principle▁	-878
degre	-879
immedi	-880
inu	-881
lit	-882
ents	-883
mod	-884
Hence▁	-885
external▁	-886
bel	-887
soul	-888
having▁	-889
univers	-890
distinguish	-891
consist	-892
divid	-893
over▁	-894
continu	-895
fal	-896
pe	-897
ness	-898
suppos	-899
Ther	-900
affec	-901
wise▁	-902
subject▁	-903
qualities▁	-904
pers	-905
known▁	-906
present▁	-907
equ	-908
creat	-909
ulty▁	-910
Therefor	-911
vie	-912
les▁	-913
contra	-914
anal	-915
auth	-916
comp	-917
poin	-918
any	-919
least▁	-920
causes▁	-921
fu	-922
orig	-923
senses	-924
vol	-925
after▁	-926
ately▁	-927
whose▁	-928
clear	-929
ined▁	-930
new▁	-931
bodies	-932
existence	-933
empirical▁	-934
cir	-935
dis	-936
tran	-937
senses▁	-938
metaphysic	-939
stra	-940
again	-941
demon	-942
might▁	-943
ded	-944
motion	-945
namely	-946
cause	-947
scend	-948
ended▁	-949
ary	-950
err	-951
why▁	-952
sions▁	-953
expres	-954
inter	-955
cation▁	-956
appearances▁	-957
pur	-958
place▁	-959
complet	-960
case▁	-961
knowledge	-962
able	-963
rather▁	-964
ited▁	-965
truth	-966
ge	-967
ks▁	-968
ain▁	-969
intellig	-970
ten▁	-971
conscious	-972
ken▁	-973
world	-974
relation▁	-975
did▁	-976
prob	-977
laws▁	-978
hence▁	-979
perhap	-980
ally	-981
notion▁	-982
understand▁	-983
perfect▁	-984
pu	-985
thema	-986
17	-987
##▁	-988
1.▁	-989
olog	-990
defin	-991
ru	-992
Des	-993
2.▁	-994
tur	-995
come▁	-996
thesis▁	-997
intuition▁	-998
ned▁	-999
good▁	-1000
consti	-1001
little▁	-1002
possible	-1003
themselves	-1004
uni	-1005
although▁	-1006
consider▁	-1007
signi	-1008
makes▁	-1009
neither▁	-1010
cho	-1011
tis	-1012
ste	-1013
prov	-1014
essence▁	-1015
produce▁	-1016
circ	-1017
Descar	-1018
ble▁	-1019
ences▁	-1020
out	-1021
which	-1022
accoun	-1023
unity▁	-1024
regar	-1025
ement▁	-1026
among▁	-1027
proce	-1028
mathema	-1029
eas	-1030
power	-1031
greater▁	-1032
ful▁	-1033
separ	-1034
action▁	-1035
contradic	-1036
connection▁	-1037
effect▁	-1038
sor	-1039
reflec	-1040
capable▁	-1041
perception▁	-1042
ful	-1043
eal▁	-1044
spea	-1045
attribut	-1046
figure	-1047
together▁	-1048
3.▁	-1049
bey	-1050
That▁	-1051
sure▁	-1052
believe▁	-1053
becom	-1054
manif	-1055
infinit	-1056
ant	-1057
follows▁	-1058
side▁	-1059
indeed▁	-1060
further▁	-1061
instan	-1062
while▁	-1063
ign	-1064
cour	-1065
where	-1066
Con	-1067
alone▁	-1068
against▁	-1069
A▁	-1070
De	-1071
before▁	-1072
possibility▁	-1073
The	-1074
are	-1075
beyond▁	-1076
To▁	-1077
answ	-1078
simil	-1079
point▁	-1080
material▁	-1081
4.▁	-1082
imp	-1083
ings▁	-1084
considered▁	-1085
determined▁	-1086
scendental▁	-1087
entirely▁	-1088
ready▁	-1089
question▁	-1090
ived▁	-1091
cogniz	-1092
force▁	-1093
lea	-1094
enc	-1095
ends▁	-1096
compreh	-1097
proposi	-1098
jo	-1099
ic▁	-1100
clear▁	-1101
oursel	-1102
...	-1103
ge▁	-1104
Now▁	-1105
Thus▁	-1106
hy	-1107
van	-1108
occur	-1109
suppose▁	-1110
need▁	-1111
There▁	-1112
perhaps▁	-1113
te	-1114
mar	-1115
origin	-1116
change▁	-1117
thought	-1118
Therefore	-1119
whatever▁	-1120
res	-1121
ates▁	-1122
excep	-1123
ound▁	-1124
dividu	-1125
truth▁	-1126
ber	-1127
tiv	-1128
taken▁	-1129
led▁	-1130
else▁	-1131
certain	-1132
individu	-1133
ors▁	-1134
real	-1135
ties▁	-1136
inquir	-1137
synthe	-1138
Le	-1139
lin	-1140
estab	-1141
satis	-1142
impres	-1143
manner▁	-1144
number▁	-1145
evident▁	-1146
cognition▁	-1147
ations	-1148
absolut	-1149
himself▁	-1150
Ar	-1151
bas	-1152
sul	-1153
ted	-1154
In	-1155
wr	-1156
als▁	-1157
ility	-1158
dra	-1159
easi	-1160
omen	-1161
direc	-1162
there	-1163
opinion	-1164
ey	-1165
5.▁	-1166
etr	-1167
ear▁	-1168
already▁	-1169
perceived▁	-1170
av	-1171
ory▁	-1172
ound	-1173
p▁	-1174
tri	-1175
corpor	-1176
niz	-1177
assu	-1178
hypo	-1179
asser	-1180
state▁	-1181
respect▁	-1182
har	-1183
clearly▁	-1184
intuition	-1185
ok▁	-1186
remain	-1187
ane	-1188
establish	-1189
ism	-1190
pec	-1191
absur	-1192
begin	-1193
used▁	-1194
prove▁	-1195
Sec	-1196
att	-1197
Fr	-1198
arr	-1199
long▁	-1200
quite▁	-1201
certaint	-1202
discover	-1203
absolute▁	-1204
substances▁	-1205
Leib	-1206
sing	-1207
then	-1208
space	-1209
succes	-1210
follow▁	-1211
appearances	-1212
ree▁	-1213
doubt▁	-1214
Leibniz	-1215
erence▁	-1216
kep	-1217
however	-1218
sufficient▁	-1219
Su	-1220
All▁	-1221
ans▁	-1222
rest	-1223
tive	-1224
times▁	-1225
myself▁	-1226
actions▁	-1227
impossible▁	-1228
org	-1229
ses▁	-1230
substances	-1231
sive▁	-1232
doc	-1233
object	-1234
lif	-1235
val	-1236
objects	-1237
co	-1238
parts	-1239
resul	-1240
often▁	-1241
words▁	-1242
universal▁	-1243
red	-1244
ood▁	-1245
anti	-1246
occa	-1247
remo	-1248
others▁	-1249
sensation▁	-1250
conditions▁	-1251
philosophy▁	-1252
As▁	-1253
abo	-1254
too▁	-1255
every	-1256
sensib	-1257
cr	-1258
."▁	-1259
lies▁	-1260
seem▁	-1261
19	-1262
ven	-1263
ular	-1264
requi	-1265
minds▁	-1266
example	-1267
creature	-1268
ies	-1269
res▁	-1270
doctr	-1271
ative▁	-1272
Thes	-1273
ligi	-1274
term	-1275
faculty▁	-1276
judgment▁	-1277
Pro	-1278
ell	-1279
ordin	-1280
sm	-1281
plea	-1282
person	-1283
What▁	-1284
thoughts▁	-1285
absolutely▁	-1286
ame	-1287
char	-1288
divi	-1289
ously▁	-1290
supposed▁	-1291
difference▁	-1292
He▁	-1293
war	-1294
high	-1295
atten	-1296
proper▁	-1297
extension▁	-1298
8.▁	-1299
ating▁	-1300
life▁	-1301
prece	-1302
abstract▁	-1303
condition	-1304
Un	-1305
cri	-1306
etc	-1307
belong	-1308
light▁	-1309
reality▁	-1310
perception	-1311
immediately▁	-1312
enomen	-1313
spirit	-1314
really▁	-1315
corporeal▁	-1316
ignor	-1317
syste	-1318
series▁	-1319
wat	-1320
provid	-1321
imagine▁	-1322
philosophy	-1323
tial▁	-1324
,"▁	-1325
les	-1326
appear▁	-1327
put▁	-1328
skep	-1329
constit	-1330
effects▁	-1331
ot	-1332
6.▁	-1333
affir	-1334
religi	-1335
except▁	-1336
actually▁	-1337
Nat	-1338
ers	-1339
invol	-1340
right▁	-1341
necessity▁	-1342
gu	-1343
ment▁	-1344
account▁	-1345
synthetic▁	-1346
ie	-1347
On▁	-1348
action	-1349
happen	-1350
tional▁	-1351
intelligib	-1352
philosophers▁	-1353
mir	-1354
mis	-1355
once▁	-1356
owed▁	-1357
easily▁	-1358
extension	-1359
position▁	-1360
condition▁	-1361
sem	-1362
hand	-1363
opinion▁	-1364
These▁	-1365
However	-1366
derived▁	-1367
phenomen	-1368
demonstra	-1369
ourselves▁	-1370
bet	-1371
ateg	-1372
show▁	-1373
perceptions▁	-1374
#▁	-1375
So▁	-1376
aris	-1377
lear	-1378
magn	-1379
name▁	-1380
identi	-1381
notions▁	-1382
produced▁	-1383
reasoning▁	-1384
0.▁	-1385
7.▁	-1386
ght	-1387
appearance▁	-1388
oy	-1389
bes	-1390
ind	-1391
hear	-1392
place	-1393
magnitu	-1394
subject	-1395
transcendental▁	-1396
cl	-1397
ance	-1398
plex	-1399
They▁	-1400
sity▁	-1401
charac	-1402
constan	-1403
course▁	-1404
contrary▁	-1405
vir	-1406
like	-1407
soli	-1408
When▁	-1409
analy	-1410
kind	-1411
let▁	-1412
view	-1413
advan	-1414
virtu	-1415
everthe	-1416
eng	-1417
found	-1418
mean▁	-1419
struc	-1420
within▁	-1421
qualities	-1422
conceived▁	-1423
des▁	-1424
ked▁	-1425
categ	-1426
word▁	-1427
observ	-1428
explain▁	-1429
argument▁	-1430
ep▁	-1431
peop	-1432
assen	-1433
sions	-1434
circum	-1435
others	-1436
become▁	-1437
degree▁	-1438
ay	-1439
[...	-1440
ask▁	-1441
comb	-1442
port	-1443
etern	-1444
lect▁	-1445
individual▁	-1446
'▁	-1447
fai	-1448
mea	-1449
ulties▁	-1450
existing▁	-1451
proposition▁	-1452
consciousness▁	-1453
el▁	-1454
lem	-1455
From▁	-1456
freed	-1457
trans	-1458
less	-1459
meth	-1460
memor	-1461
ters▁	-1462
[...]▁	-1463
distan	-1464
9.▁	-1465
Cor	-1466
fy▁	-1467
[▁	-1468
By▁	-1469
life	-1470
predic	-1471
second▁	-1472
system▁	-1473
arguments▁	-1474
determine▁	-1475
synthesis▁	-1476
receiv	-1477
Descartes	-1478
attribute▁	-1479
mirac	-1480
motions▁	-1481
science▁	-1482
similar▁	-1483
representation▁	-1484
Of▁	-1485
....	-1486
shap	-1487
depend	-1488
avo	-1489
chan	-1490
prim	-1491
appli	-1492
resem	-1493
believ	-1494
defini	-1495
three▁	-1496
latter▁	-1497
judgments▁	-1498
imagination▁	-1499
dur	-1500
ism▁	-1501
plac	-1502
sed▁	-1503
ious▁	-1504
otherwise▁	-1505
sely▁	-1506
beings▁	-1507
exists▁	-1508
former▁	-1509
operations▁	-1510
No	-1511
rest▁	-1512
signifi	-1513
various▁	-1514
principles	-1515
consequently▁	-1516
hop	-1517
tow	-1518
art▁	-1519
appreh	-1520
single▁	-1521
tane	-1522
inclu	-1523
judge▁	-1524
serve▁	-1525
difficul	-1526
cid	-1527
ust	-1528
show	-1529
order	-1530
contains▁	-1531
log	-1532
mem	-1533
pub	-1534
You▁	-1535
disa	-1536
general	-1537
created▁	-1538
discover▁	-1539
greatest▁	-1540
circumstan	-1541
dr	-1542
empl	-1543
pain	-1544
set▁	-1545
liber	-1546
view▁	-1547
names▁	-1548
consists▁	-1549
imagination	-1550
Prop	-1551
point	-1552
author	-1553
triang	-1554
objective▁	-1555
representations▁	-1556
tra	-1557
unc	-1558
analog	-1559
better▁	-1560
how	-1561
Thus	-1562
prac	-1563
above▁	-1564
ounds▁	-1565
eternal▁	-1566
certainty▁	-1567
als	-1568
illu	-1569
til▁	-1570
causes	-1571
making▁	-1572
universe	-1573
rul	-1574
mist	-1575
true	-1576
influ	-1577
ture▁	-1578
turn▁	-1579
forms▁	-1580
second	-1581
answer▁	-1582
age▁	-1583
geom	-1584
Proof	-1585
doubt	-1586
ences	-1587
admit▁	-1588
import	-1589
author▁	-1590
nothing	-1591
conv	-1592
same	-1593
color	-1594
equal▁	-1595
divine▁	-1596
mathematic	-1597
metaphysics▁	-1598
ade	-1599
im▁	-1600
sed	-1601
um▁	-1602
king	-1603
thir	-1604
preci	-1605
effect	-1606
until▁	-1607
intellec	-1608
bra	-1609
go▁	-1610
dece	-1611
false	-1612
hold▁	-1613
mista	-1614
moral▁	-1615
corresp	-1616
skeptic	-1617
following▁	-1618
distinguish▁	-1619
free▁	-1620
compos	-1621
mechan	-1622
vious▁	-1623
enough▁	-1624
unless▁	-1625
universe▁	-1626
Proposition▁	-1627
iz	-1628
coun	-1629
main▁	-1630
complete▁	-1631
tou	-1632
ably▁	-1633
move▁	-1634
proof	-1635
iness▁	-1636
figure▁	-1637
contained▁	-1638
mi	-1639
fact	-1640
larg	-1641
ently	-1642
words	-1643
ying▁	-1644
ution▁	-1645
manifold▁	-1646
fl	-1647
fic	-1648
ore	-1649
How▁	-1650
ety▁	-1651
modi	-1652
pend	-1653
plan	-1654
adequ	-1655
want▁	-1656
attemp	-1657
proof▁	-1658
specul	-1659
Ch	-1660
act	-1661
mom	-1662
ns▁	-1663
ether	-1664
tice▁	-1665
false▁	-1666
quanti	-1667
complex	-1668
himself	-1669
equally▁	-1670
ad▁	-1671
good	-1672
here	-1673
anyone▁	-1674
concepts	-1675
infinite	-1676
observe▁	-1677
proceed▁	-1678
affected▁	-1679
fut	-1680
hea	-1681
rep	-1682
have	-1683
agree▁	-1684
suppor	-1685
however▁	-1686
independ	-1687
reasoning	-1688
propositions▁	-1689
Or	-1690
bit	-1691
ack▁	-1692
obsc	-1693
supre	-1694
species▁	-1695
perfection▁	-1696
ud	-1697
neg	-1698
you	-1699
sour	-1700
ality	-1701
alter	-1702
deny▁	-1703
basis▁	-1704
finite▁	-1705
agreement▁	-1706
particular	-1707
dre	-1708
eds▁	-1709
more	-1710
propor	-1711
sight▁	-1712
actual▁	-1713
outside▁	-1714
comprehen	-1715
accid	-1716
question	-1717
her	-1718
tre	-1719
few▁	-1720
certainly▁	-1721
cla	-1722
poss	-1723
infer	-1724
people▁	-1725
thinking	-1726
represent▁	-1727
attributes▁	-1728
tes▁	-1729
formed▁	-1730
neverthe	-1731
Sp	-1732
bu	-1733
old	-1734
ue▁	-1735
usu	-1736
oppos	-1737
resol	-1738
modifi	-1739
thesis	-1740
result▁	-1741
thereby▁	-1742
unknown▁	-1743
doctrine▁	-1744
extended▁	-1745
ordinary▁	-1746
determination▁	-1747
leg	-1748
ish▁	-1749
part	-1750
indeed	-1751
demonstr	-1752
Philosoph	-1753
For	-1754
Now	-1755
ken	-1756
law▁	-1757
last▁	-1758
properly▁	-1759
completely▁	-1760
itiqu	-1761
pass▁	-1762
resembl	-1763
contain▁	-1764
original▁	-1765
sensation	-1766
ine	-1767
shi	-1768
ende	-1769
voli	-1770
easy▁	-1771
bring▁	-1772
itted▁	-1773
proved▁	-1774
properties▁	-1775
**	-1776
15	-1777
Re	-1778
x▁	-1779
Fir	-1780
inn	-1781
wis	-1782
Nor▁	-1783
long	-1784
writ	-1785
ches▁	-1786
past▁	-1787
utes▁	-1788
endeav	-1789
lated▁	-1790
concept	-1791
commonly▁	-1792
conscious▁	-1793
sometimes▁	-1794
understood▁	-1795
intelligible▁	-1796
pi	-1797
med	-1798
mov	-1799
ran	-1800
case	-1801
liar▁	-1802
rule▁	-1803
says▁	-1804
arise▁	-1805
gives▁	-1806
advanta	-1807
spirit▁	-1808
rational▁	-1809
Descartes▁	-1810
Ne	-1811
duc	-1812
ene	-1813
sun	-1814
ur▁	-1815
ated	-1816
enter	-1817
actions	-1818
united▁	-1819
appears▁	-1820
difficulty▁	-1821
Is▁	-1822
sum	-1823
und	-1824
sist	-1825
effici	-1826
person▁	-1827
quality▁	-1828
conclude▁	-1829
ann	-1830
combin	-1831
exists	-1832
depend▁	-1833
powers▁	-1834
categori	-1835
remains▁	-1836
Ex	-1837
{6	-1838
hel	-1839
angu	-1840
feel	-1841
shor	-1842
diver	-1843
whatso	-1844
geometr	-1845
tively▁	-1846
meaning▁	-1847
18	-1848
{2	-1849
{7	-1850
gra	-1851
ill	-1852
Yet▁	-1853
draw	-1854
sible	-1855
animal▁	-1856
beginning▁	-1857
established▁	-1858
distinguished▁	-1859
{5	-1860
anc	-1861
###▁	-1862
mony▁	-1863
pleas	-1864
rules▁	-1865
essence	-1866
extent▁	-1867
appearance	-1868
On	-1869
Reas	-1870
carr	-1871
intr	-1872
ment	-1873
limit	-1874
plain	-1875
testi	-1876
again▁	-1877
allow▁	-1878
complex▁	-1879
efficient▁	-1880
distinction▁	-1881
{3	-1882
bor	-1883
let	-1884
vel	-1885
else	-1886
desir	-1887
lely▁	-1888
minds	-1889
plain▁	-1890
examine▁	-1891
immediate▁	-1892
perceptions	-1893
determinate▁	-1894
philosophical▁	-1895
{4	-1896
{8	-1897
gres	-1898
susp	-1899
done▁	-1900
innat	-1901
beings	-1902
comes▁	-1903
terms▁	-1904
Loc	-1905
prev	-1906
ture	-1907
wisd	-1908
alone	-1909
assum	-1910
manner	-1911
belong▁	-1912
solely▁	-1913
tained▁	-1914
spirits▁	-1915
(▁	-1916
re▁	-1917
Let▁	-1918
ones	-1919
peci	-1920
fied▁	-1921
perim	-1922
sort▁	-1923
absurd	-1924
event▁	-1925
il▁	-1926
ight	-1927
sure	-1928
dily▁	-1929
langu	-1930
shown▁	-1931
limits▁	-1932
science	-1933
distinctly▁	-1934
sufficiently▁	-1935
13	-1936
ro	-1937
fam	-1938
ft▁	-1939
ite	-1940
rup	-1941
wan	-1942
ill▁	-1943
none▁	-1944
conduc	-1945
especi	-1946
myself	-1947
preten	-1948
quire▁	-1949
cognize▁	-1950
receive▁	-1951
Es	-1952
anci	-1953
fall	-1954
stem	-1955
first	-1956
ples▁	-1957
seen▁	-1958
simul	-1959
tell▁	-1960
whole	-1961
work▁	-1962
begin▁	-1963
table▁	-1964
takes▁	-1965
truths▁	-1966
together	-1967
produces▁	-1968
influence▁	-1969
ino	-1970
ory	-1971
Our▁	-1972
dream	-1973
pose▁	-1974
rejec	-1975
stric	-1976
whom▁	-1977
inted▁	-1978
small▁	-1979
joined▁	-1980
remain▁	-1981
freedom▁	-1982
happens▁	-1983
cognition	-1984
difficult▁	-1985
reference▁	-1986
nevertheless▁	-1987
Bo	-1988
gl	-1989
est	-1990
tal	-1991
addi	-1992
ical	-1993
wish	-1994
ency▁	-1995
heat▁	-1996
light	-1997
uced▁	-1998
correc	-1999
knows▁	-2000
disagre	-2001
method▁	-2002
namely▁	-2003
surely▁	-2004
apprehen	-2005
belongs▁	-2006
attention▁	-2007
preceding▁	-2008
especially▁	-2009
Be	-2010
sch	-2011
edit	-2012
simp	-2013
such	-2014
ties	-2015
Princi	-2016
before	-2017
regres	-2018
experim	-2019
theolog	-2020
formity▁	-2021
occasion▁	-2022
intellect▁	-2023
perceives▁	-2024
off	-2025
ren	-2026
inoz	-2027
inst	-2028
work	-2029
Spinoz	-2030
Univer	-2031
regards▁	-2032
received▁	-2033
reflection	-2034
consciousness	-2035
feel▁	-2036
ides▁	-2037
solid	-2038
explic	-2039
number	-2040
sentim	-2041
entire▁	-2042
degrees▁	-2043
judgment	-2044
identity▁	-2045
exce	-2046
ext▁	-2047
said	-2048
best▁	-2049
sound	-2050
conver	-2051
inner▁	-2052
almost▁	-2053
memory▁	-2054
constitu	-2055
likewise▁	-2056
precisely▁	-2057
10	-2058
Chap	-2059
memb	-2060
Medit	-2061
multi	-2062
Since▁	-2063
speak▁	-2064
discour	-2065
primary▁	-2066
readily▁	-2067
pleasure▁	-2068
perfectly▁	-2069
sensations▁	-2070
fo	-2071
);▁	-2072
Ber	-2073
Ide	-2074
spe	-2075
More	-2076
desi	-2077
gain	-2078
her▁	-2079
laws	-2080
destr	-2081
love▁	-2082
unity	-2083
examin	-2084
Nature▁	-2085
active▁	-2086
assent▁	-2087
future▁	-2088
tation▁	-2089
ability▁	-2090
highest▁	-2091
internal▁	-2092
simultane	-2093
12	-2094
Def	-2095
accur	-2096
hand▁	-2097
infer▁	-2098
truly▁	-2099
thoughts	-2100
evidence▁	-2101
conception▁	-2102
14	-2103
cas	-2104
qua	-2105
tot	-2106
Pure▁	-2107
hope▁	-2108
Moreover	-2109
whereas▁	-2110
adequate▁	-2111
causality▁	-2112
succession▁	-2113
Se	-2114
xi	-2115
ay▁	-2116
mach	-2117
ning	-2118
acts▁	-2119
ched▁	-2120
organ	-2121
tual▁	-2122
ward▁	-2123
accomp	-2124
virtue▁	-2125
positive▁	-2126
requires▁	-2127
mathematical▁	-2128
§▁	-2129
cop	-2130
add▁	-2131
resi	-2132
soci	-2133
enetr	-2134
oblig	-2135
ustom	-2136
Second	-2137
answer	-2138
happen▁	-2139
perceived	-2140
ali	-2141
ast	-2142
max	-2143
What	-2144
brid	-2145
hard	-2146
xed▁	-2147
gover	-2148
compar	-2149
desire▁	-2150
Leibniz▁	-2151
supreme▁	-2152
important▁	-2153
supposition▁	-2154
1,▁	-2155
def	-2156
exc	-2157
kele	-2158
appro	-2159
draw▁	-2160
iness	-2161
pain▁	-2162
remar	-2163
super	-2164
perman	-2165
rather	-2166
third▁	-2167
Berkele	-2168
longer▁	-2169
contrary	-2170
creatures▁	-2171
phenomena▁	-2172
hypothesis▁	-2173
conditioned▁	-2174
represented▁	-2175
1}▁	-2176
jus	-2177
pus	-2178
te▁	-2179
ates	-2180
full▁	-2181
ised▁	-2182
term▁	-2183
worth	-2184
souls▁	-2185
union▁	-2186
explain	-2187
brought▁	-2188
cations▁	-2189
naturally▁	-2190
considering▁	-2191
own	-2192
pic	-2193
ume	-2194
ind▁	-2195
lean	-2196
prog	-2197
well	-2198
osed▁	-2199
stand▁	-2200
system	-2201
Chapter▁	-2202
depends▁	-2203
founded▁	-2204
material	-2205
obvious▁	-2206
constant▁	-2207
explained▁	-2208
conclusion▁	-2209
foundation▁	-2210
infinitely▁	-2211
contradiction	-2212
Ac	-2213
op▁	-2214
ulg	-2215
wea	-2216
ads▁	-2217
ince	-2218
post	-2219
pref	-2220
valid	-2221
cation	-2222
commun	-2223
modes▁	-2224
water▁	-2225
conting	-2226
moment▁	-2227
species	-2228
operation▁	-2229
ga	-2230
pecu	-2231
Such▁	-2232
allow	-2233
assig	-2234
sing▁	-2235
soon▁	-2236
employ	-2237
ulties	-2238
knowing▁	-2239
reasons▁	-2240
variety▁	-2241
reflection▁	-2242
ety	-2243
ead▁	-2244
ied▁	-2245
leng	-2246
lie▁	-2247
situ	-2248
Clean	-2249
ders▁	-2250
line▁	-2251
mely▁	-2252
actly▁	-2253
works▁	-2254
absurd▁	-2255
ending▁	-2256
communic	-2257
distinct	-2258
limited▁	-2259
Cleanthes	-2260
confused▁	-2261
magnitude▁	-2262
(16	-2263
But	-2264
air	-2265
Scho	-2266
buil	-2267
judi	-2268
were	-2269
forma	-2270
help▁	-2271
moder	-2272
error▁	-2273
purpose▁	-2274
quantity▁	-2275
required▁	-2276
Therefore▁	-2277
definition▁	-2278
!▁	-2279
Al	-2280
ba	-2281
Or▁	-2282
ash	-2283
apt▁	-2284
firm	-2285
gran	-2286
only	-2287
tast	-2288
whol	-2289
exclu	-2290
ones▁	-2291
small	-2292
succe	-2293
enter▁	-2294
assert▁	-2295
images▁	-2296
thinks▁	-2297
instance	-2298
principle	-2299
regarded▁	-2300
faculties▁	-2301
relations▁	-2302
philosophers	-2303
difficulties▁	-2304
20	-2305
En	-2306
IV	-2307
Me	-2308
8}▁	-2309
9}▁	-2310
Cam	-2311
Com	-2312
fri	-2313
wise	-2314
Part▁	-2315
inten	-2316
preser	-2317
reach▁	-2318
Cambrid	-2319
notice▁	-2320
ounded▁	-2321
publish	-2322
Section▁	-2323
besides▁	-2324
exactly▁	-2325
learned▁	-2326
creatures	-2327
everyone▁	-2328
opinions▁	-2329
2}▁	-2330
3}▁	-2331
6}▁	-2332
7}▁	-2333
III	-2334
age	-2335
loo	-2336
ris	-2337
sle	-2338
sug	-2339
too	-2340
ign▁	-2341
priv	-2342
down▁	-2343
mode▁	-2344
uted▁	-2345
based▁	-2346
arises▁	-2347
progres	-2348
visible▁	-2349
University▁	-2350
altogether▁	-2351
4}▁	-2352
An▁	-2353
day	-2354
Hume	-2355
exer	-2356
ice▁	-2357
just	-2358
First	-2359
acqua	-2360
eyes▁	-2361
apply▁	-2362
avoid▁	-2363
tible▁	-2364
reality	-2365
related▁	-2366
necessary	-2367
possibly▁	-2368
discovered▁	-2369
metaphysics	-2370
reasonable▁	-2371
3,▁	-2372
5}▁	-2373
Let	-2374
hon	-2375
ood	-2376
tle	-2377
Tran	-2378
ced▁	-2379
ways	-2380
when	-2381
after	-2382
ender▁	-2383
former	-2384
animals	-2385
belief▁	-2386
itique▁	-2387
living▁	-2388
origin▁	-2389
animals▁	-2390
ignorant▁	-2391
necessity	-2392
observed▁	-2393
impossible	-2394
particles▁	-2395
sensibility	-2396
consequence▁	-2397
independent▁	-2398
hol	-2399
atom	-2400
chap	-2401
hist	-2402
star	-2403
capac	-2404
look▁	-2405
image▁	-2406
outer▁	-2407
events▁	-2408
becomes▁	-2409
cerning▁	-2410
judgments	-2411
testimony▁	-2412
mathematics▁	-2413
metaphysical▁	-2414
Transcendental▁	-2415
_?▁	-2416
grant▁	-2417
present	-2418
toward▁	-2419
wholly▁	-2420
allowed▁	-2421
express▁	-2422
someone▁	-2423
viously▁	-2424
whereby▁	-2425
character▁	-2426
consideration▁	-2427
0}▁	-2428
Arn	-2429
No▁	-2430
non	-2431
fit▁	-2432
furn	-2433
sun▁	-2434
extre	-2435
these	-2436
Scholi	-2437
acted▁	-2438
sorts▁	-2439
taking▁	-2440
derstand	-2441
immaterial▁	-2442
constitutes▁	-2443
substantial▁	-2444
Sch	-2445
ics	-2446
tea	-2447
arch	-2448
acqui	-2449
ately	-2450
persu	-2451
read▁	-2452
seek▁	-2453
erred▁	-2454
going▁	-2455
prior▁	-2456
cognized▁	-2457
supposes▁	-2458
perceiving▁	-2459
dar	-2460
ors	-2461
ose	-2462
coll	-2463
heat	-2464
ven▁	-2465
cise▁	-2466
given	-2467
known	-2468
vely▁	-2469
Human▁	-2470
empty▁	-2471
leave▁	-2472
solid▁	-2473
angles▁	-2474
colors▁	-2475
convinc	-2476
perfect	-2477
saying▁	-2478
similar	-2479
Secondly	-2480
identity	-2481
instead▁	-2482
relation	-2483
endeavor▁	-2484
relative▁	-2485
regarding▁	-2486
determines▁	-2487
consequences▁	-2488
[3	-2489
dog	-2490
dang	-2491
try▁	-2492
appar	-2493
fter▁	-2494
along▁	-2495
cribe▁	-2496
shows▁	-2497
mention	-2498
possess	-2499
consist▁	-2500
certainty	-2501
mechanical▁	-2502
subjective▁	-2503
observation▁	-2504
dly	-2505
occ	-2506
oy▁	-2507
squ	-2508
ims▁	-2509
thor	-2510
uce▁	-2511
vulg	-2512
Arist	-2513
ange▁	-2514
compa	-2515
expec	-2516
carry▁	-2517
refer▁	-2518
motions	-2519
spirits	-2520
applied▁	-2521
religion	-2522
character	-2523
peculiar▁	-2524
religion▁	-2525
connected▁	-2526
continued▁	-2527
happiness▁	-2528
predicate▁	-2529
secondary▁	-2530
impression▁	-2531
speculative▁	-2532
Cr	-2533
Fin	-2534
dea	-2535
issu	-2536
stud	-2537
temp	-2538
Philo	-2539
numer	-2540
passa	-2541
ship▁	-2542
sist▁	-2543
change	-2544
sound▁	-2545
ically▁	-2546
organs▁	-2547
render▁	-2548
changes▁	-2549
maintain▁	-2550
ological▁	-2551
essential▁	-2552
practical▁	-2553
whatsoever	-2554
conformity▁	-2555
constitute▁	-2556
chie	-2557
lay▁	-2558
narr	-2559
repu	-2560
tici	-2561
avoid	-2562
deduc	-2563
fall▁	-2564
instr	-2565
tude▁	-2566
tains▁	-2567
formal▁	-2568
instrum	-2569
analogy▁	-2570
anything	-2571
grounds▁	-2572
provided▁	-2573
sciences▁	-2574
expresses▁	-2575
proposition	-2576
reasonings▁	-2577
acknowledge▁	-2578
determinations▁	-2579
gn	-2580
but	-2581
hor	-2582
hum	-2583
won	-2584
cold	-2585
ener	-2586
fanc	-2587
fore	-2588
pret	-2589
sugg	-2590
ards▁	-2591
earth	-2592
extra	-2593
frequ	-2594
state	-2595
discus	-2596
moved▁	-2597
ability	-2598
affirm▁	-2599
placed▁	-2600
remote▁	-2601
seeing▁	-2602
logical▁	-2603
pretend▁	-2604
require▁	-2605
magnitude	-2606
something	-2607
Concerning▁	-2608
impressions▁	-2609
philosopher▁	-2610
],▁	-2611
ion	-2612
nih	-2613
siz	-2614
alec	-2615
elem	-2616
repe	-2617
ress	-2618
spee	-2619
accep	-2620
affor	-2621
caref	-2622
added▁	-2623
ished▁	-2624
Spinoza	-2625
effects	-2626
further	-2627
proofs▁	-2628
conduct▁	-2629
dispute▁	-2630
involve▁	-2631
occasion	-2632
creation▁	-2633
accordance▁	-2634
perfections▁	-2635
contradiction▁	-2636
25	-2637
Fur	-2638
Thir	-2639
cord	-2640
omy▁	-2641
reve	-2642
scar	-2643
Again	-2644
Press	-2645
left▁	-2646
color▁	-2647
affirma	-2648
differ▁	-2649
innate▁	-2650
occurs▁	-2651
points▁	-2652
subsist	-2653
composed▁	-2654
distance▁	-2655
infinity▁	-2656
intellect	-2657
involves▁	-2658
disagreement▁	-2659
axi	-2660
wit	-2661
One▁	-2662
alog	-2663
bran	-2664
ery▁	-2665
omin	-2666
pose	-2667
Book▁	-2668
modes	-2669
reati	-2670
wish▁	-2671
inclin	-2672
moves▁	-2673
occur▁	-2674
wards▁	-2675
Further	-2676
assume▁	-2677
evident	-2678
prejudi	-2679
problem	-2680
wisdom▁	-2681
mankind▁	-2682
ourselves	-2683
establish▁	-2684
constantly▁	-2685
application▁	-2686
considerable▁	-2687
circumstances▁	-2688
Ob	-2689
2,▁	-2690
Car	-2691
edi	-2692
idd	-2693
sha	-2694
sme	-2695
air▁	-2696
func	-2697
prof	-2698
stri	-2699
cely▁	-2700
fire▁	-2701
keep▁	-2702
nihil	-2703
drawn▁	-2704
frame▁	-2705
later▁	-2706
usual▁	-2707
acting▁	-2708
argument	-2709
ascribe▁	-2710
regular▁	-2711
signify▁	-2712
support▁	-2713
correspon	-2714
triangle▁	-2715
belonging▁	-2716
Ad	-2717
8,▁	-2718
New	-2719
adv	-2720
may	-2721
tig	-2722
ton	-2723
fami	-2724
ian▁	-2725
need	-2726
she▁	-2727
sum▁	-2728
year	-2729
amoun	-2730
faith	-2731
impul	-2732
justi	-2733
lack▁	-2734
lead▁	-2735
lied▁	-2736
next▁	-2737
kness▁	-2738
shape▁	-2739
freedom	-2740
member▁	-2741
strong▁	-2742
position	-2743
opposite▁	-2744
advantage▁	-2745
affections▁	-2746
regression▁	-2747
1▁	-2748
27	-2749
40	-2750
1]▁	-2751
6]▁	-2752
ble	-2753
lab	-2754
ned	-2755
See▁	-2756
extr	-2757
prom	-2758
says	-2759
scho	-2760
sive	-2761
agree	-2762
names	-2763
vice▁	-2764
Being▁	-2765
latter	-2766
valid▁	-2767
Reason▁	-2768
direct▁	-2769
increas	-2770
moving▁	-2771
princip	-2772
proceed	-2773
purpose	-2774
simply▁	-2775
source▁	-2776
satisfac	-2777
concerned▁	-2778
objections▁	-2779
demonstration▁	-2780
cal	-2781
fici	-2782
ges▁	-2783
requ	-2784
sear	-2785
ume▁	-2786
ines▁	-2787
water	-2788
claim▁	-2789
colors	-2790
conjec	-2791
conven	-2792
finds▁	-2793
kinds▁	-2794
large▁	-2795
penetr	-2796
respec	-2797
vestig	-2798
expect▁	-2799
mankind	-2800
passes▁	-2801
stance▁	-2802
Berkeley	-2803
infinity	-2804
towards▁	-2805
Whatever▁	-2806
addition▁	-2807
sensibility▁	-2808
Di	-2809
awa	-2810
fav	-2811
set	-2812
junc	-2813
name	-2814
assur	-2815
hard▁	-2816
medit	-2817
secre	-2818
sensi	-2819
touch	-2820
Accord	-2821
introd	-2822
matic▁	-2823
using▁	-2824
create▁	-2825
follows	-2826
itable▁	-2827
worthy▁	-2828
concern▁	-2829
liberty▁	-2830
plainly▁	-2831
speaking	-2832
analytic▁	-2833
manifest▁	-2834
categories▁	-2835
8]▁	-2836
9]▁	-2837
led	-2838
ot▁	-2839
acy▁	-2840
near	-2841
piec	-2842
proc	-2843
righ	-2844
sees▁	-2845
sight	-2846
Cartes	-2847
collec	-2848
discer	-2849
doing▁	-2850
fully▁	-2851
strong	-2852
truths	-2853
ground▁	-2854
notions	-2855
spiritu	-2856
supposi	-2857
figures▁	-2858
investig	-2859
persons▁	-2860
Understand	-2861
hypothesis	-2862
sensations	-2863
separated▁	-2864
Ra	-2865
Wi	-2866
4]▁	-2867
Dis	-2868
ale	-2869
clo	-2870
run	-2871
mort	-2872
poli	-2873
tics	-2874
arbit	-2875
away▁	-2876
shape	-2877
apart▁	-2878
dialec	-2879
encoun	-2880
Finally	-2881
Though▁	-2882
annihil	-2883
inquire▁	-2884
creature▁	-2885
directly▁	-2886
divisible	-2887
separate▁	-2888
solution▁	-2889
acknowledg	-2890
authority▁	-2891
instances▁	-2892
satisfied▁	-2893
skepticism	-2894
Mr	-2895
Som	-2896
hab	-2897
hib	-2898
ass▁	-2899
crib	-2900
fire	-2901
free	-2902
ial▁	-2903
ligh	-2904
Locke	-2905
dimin	-2906
error	-2907
indic	-2908
ises▁	-2909
earth▁	-2910
explan	-2911
leads▁	-2912
public	-2913
eternal	-2914
inquiry	-2915
Scholium	-2916
content▁	-2917
measure▁	-2918
provide▁	-2919
admitted▁	-2920
phenomena	-2921
scarcely▁	-2922
published▁	-2923
conditioned	-2924
representations	-2925
2▁	-2926
du	-2927
ks	-2928
.)▁	-2929
bus	-2930
ced	-2931
dem	-2932
eal	-2933
los	-2934
fort	-2935
get▁	-2936
ide▁	-2937
impr	-2938
deser	-2939
onous	-2940
pursu	-2941
regul	-2942
short	-2943
utter	-2944
arrang	-2945
concur	-2946
holds▁	-2947
ingly▁	-2948
limit▁	-2949
circle▁	-2950
destroy	-2951
instruc	-2952
confess▁	-2953
triangle	-2954
transcend	-2955
categories	-2956
perfection	-2957
previously▁	-2958
production▁	-2959
universally▁	-2960
demonstration	-2961
sk	-2962
3]▁	-2963
7]▁	-2964
has	-2965
loc	-2966
ocr	-2967
unt	-2968
ved	-2969
arti	-2970
chil	-2971
crip	-2972
fash	-2973
Here▁	-2974
ement	-2975
cases▁	-2976
eness▁	-2977
faith▁	-2978
method	-2979
obscur	-2980
conveni	-2981
persuad	-2982
inquiry▁	-2983
Philonous	-2984
illusion▁	-2985
ignorance▁	-2986
inference▁	-2987
questions▁	-2988
Principles▁	-2989
proportion▁	-2990
consequently	-2991
2]▁	-2992
6,▁	-2993
boo	-2994
ele	-2995
Inde	-2996
made	-2997
side	-2998
thus	-2999
unit	-3000
usel	-3001
above	-3002
aces▁	-3003
force	-3004
gave▁	-3005
schem	-3006
uses▁	-3007
isite▁	-3008
purpos	-3009
rests▁	-3010
Consequ	-3011
communi	-3012
perhaps	-3013
useful▁	-3014
example▁	-3015
granted▁	-3016
satisfy▁	-3017
utterly▁	-3018
physical▁	-3019
synthesis	-3020
supposing▁	-3021
comprehend▁	-3022
possibility	-3023
conclusions▁	-3024
constitution▁	-3025
extraordinary▁	-3026
35	-3027
ft	-3028
Hob	-3029
Per	-3030
bur	-3031
hou	-3032
lac	-3033
ree	-3034
top	-3035
New▁	-3036
outw	-3037
saw▁	-3038
sic▁	-3039
spon	-3040
Hume▁	-3041
admit	-3042
axiom	-3043
brain	-3044
deriv	-3045
effic	-3046
ingly	-3047
mate▁	-3048
sleep	-3049
thous	-3050
After▁	-3051
Rather	-3052
ities▁	-3053
repugn	-3054
giving▁	-3055
ancient▁	-3056
matters▁	-3057
believed▁	-3058
previous▁	-3059
intelligible	-3060
29	-3061
Lat	-3062
low	-3063
osm	-3064
vit	-3065
grad	-3066
ists	-3067
must	-3068
none	-3069
ote▁	-3070
ould	-3071
rule	-3072
Objec	-3073
cold▁	-3074
exhib	-3075
rise▁	-3076
void▁	-3077
affirm	-3078
arbitr	-3079
forth▁	-3080
powers	-3081
ulous▁	-3082
serves▁	-3083
sively▁	-3084
obliged▁	-3085
spontane	-3086
beginning	-3087
controver	-3088
included▁	-3089
subjects▁	-3090
synthetic	-3091
contradict	-3092
correspond	-3093
divisible▁	-3094
principal▁	-3095
determining▁	-3096
24	-3097
Sen	-3098
Sub	-3099
bar	-3100
che	-3101
two	-3102
ys▁	-3103
Why▁	-3104
chim	-3105
eyes	-3106
pure	-3107
Arnau	-3108
annex	-3109
bare▁	-3110
evil▁	-3111
goes▁	-3112
ists▁	-3113
troub	-3114
ught▁	-3115
memory	-3116
sugges	-3117
affect▁	-3118
careful	-3119
insepar	-3120
narrow▁	-3121
Arnauld▁	-3122
accustom	-3123
attempt▁	-3124
eternity	-3125
existed▁	-3126
extended	-3127
signific	-3128
solidity	-3129
taining▁	-3130
thorough	-3131
usually▁	-3132
duration▁	-3133
proceeds▁	-3134
thousand▁	-3135
whenever▁	-3136
sensitive▁	-3137
intellectual▁	-3138
satisfaction▁	-3139
Ax	-3140
7,▁	-3141
big	-3142
bul	-3143
ily	-3144
ner	-3145
Male	-3146
This	-3147
ock▁	-3148
perm	-3149
used	-3150
born▁	-3151
confu	-3152
fear▁	-3153
fores	-3154
measu	-3155
Reason	-3156
Those▁	-3157
degree	-3158
final▁	-3159
meant▁	-3160
assign▁	-3161
natural	-3162
remove▁	-3163
Malebran	-3164
prevent▁	-3165
capacity▁	-3166
concerns▁	-3167
employed▁	-3168
passions▁	-3169
referred▁	-3170
Metaphysic	-3171
producing▁	-3172
consistent▁	-3173
combination▁	-3174
intelligent▁	-3175
30	-3176
yr	-3177
Eng	-3178
blo	-3179
ens	-3180
hes	-3181
hom	-3182
pun	-3183
swe	-3184
wal	-3185
deci	-3186
enum	-3187
gras	-3188
ings	-3189
ion▁	-3190
moun	-3191
pusc	-3192
ues▁	-3193
viol	-3194
bound	-3195
deman	-3196
forms	-3197
knew▁	-3198
ling▁	-3199
ogene	-3200
ried▁	-3201
tical	-3202
Locke▁	-3203
belief	-3204
confin	-3205
excell	-3206
fortun	-3207
lying▁	-3208
ration	-3209
superi	-3210
English	-3211
during▁	-3212
errors▁	-3213
lation▁	-3214
mately▁	-3215
reject▁	-3216
utmost▁	-3217
........	-3218
endowed▁	-3219
perceive	-3220
willing▁	-3221
eternity▁	-3222
faculties	-3223
followed▁	-3224
assurance▁	-3225
connection	-3226
operations	-3227
requisite▁	-3228
accustomed▁	-3229
mathematics	-3230
presupposes▁	-3231
signification▁	-3232
aw	-3233
Mad	-3234
Sim	-3235
ail	-3236
aut	-3237
fail	-3238
four	-3239
ols▁	-3240
Hylas	-3241
ative	-3242
fail▁	-3243
occup	-3244
smell	-3245
speak	-3246
vain▁	-3247
reply▁	-3248
substr	-3249
views▁	-3250
conjunc	-3251
subtle▁	-3252
appropri	-3253
comparis	-3254
construc	-3255
contrast	-3256
divided▁	-3257
sensible	-3258
different	-3259
attributes	-3260
incomprehen	-3261
represents▁	-3262
apprehension▁	-3263
ds	-3264
4,▁	-3265
Par	-3266
ach	-3267
enjo	-3268
eye▁	-3269
fly▁	-3270
fram	-3271
gros	-3272
ters	-3273
vent	-3274
your	-3275
angel	-3276
bear▁	-3277
expli	-3278
four▁	-3279
inher	-3280
late▁	-3281
note▁	-3282
revol	-3283
souls	-3284
step▁	-3285
times	-3286
blind▁	-3287
course	-3288
fancy▁	-3289
member	-3290
realm▁	-3291
short▁	-3292
simple	-3293
specif	-3294
attain▁	-3295
content	-3296
hardly▁	-3297
higher▁	-3298
stands▁	-3299
unavoid	-3300
vulgar▁	-3301
Neverthe	-3302
causality	-3303
continue▁	-3304
familiar▁	-3305
speaking▁	-3306
acquainted▁	-3307
frequently▁	-3308
intuitions▁	-3309
successive▁	-3310
circumstances	-3311
5]▁	-3312
asc	-3313
scr	-3314
Know	-3315
brea	-3316
ship	-3317
sort	-3318
Natur	-3319
admir	-3320
ages▁	-3321
care▁	-3322
empla	-3323
incor	-3324
least	-3325
physi	-3326
Deity▁	-3327
animal	-3328
close▁	-3329
design	-3330
owing▁	-3331
sounds	-3332
denomin	-3333
organiz	-3334
taught▁	-3335
finally▁	-3336
obscure▁	-3337
reatise▁	-3338
reflect▁	-3339
sciences	-3340
strange▁	-3341
definite▁	-3342
property▁	-3343
generally▁	-3344
recognize▁	-3345
propositions	-3346
understands▁	-3347
demonstrated▁	-3348
by	-3349
At▁	-3350
Spa	-3351
Tru	-3352
].▁	-3353
also	-3354
fear	-3355
greg	-3356
last	-3357
ulty	-3358
wax▁	-3359
Kant▁	-3360
Madam	-3361
back▁	-3362
came▁	-3363
conve	-3364
earli	-3365
event	-3366
ideal	-3367
nomin	-3368
ology	-3369
Coroll	-3370
Nature	-3371
immort	-3372
learn▁	-3373
ments▁	-3374
piece▁	-3375
presum	-3376
tively	-3377
transi	-3378
contrib	-3379
meaning	-3380
return▁	-3381
search▁	-3382
duration	-3383
rightly▁	-3384
teaches▁	-3385
contempla	-3386
happiness	-3387
language▁	-3388
convinced▁	-3389
mentioned▁	-3390
objection▁	-3391
presented▁	-3392
situation▁	-3393
whatsoever▁	-3394
demonstrate▁	-3395
43	-3396
80	-3397
ub	-3398
Whi	-3399
pot	-3400
Supp	-3401
ach▁	-3402
aim▁	-3403
ause	-3404
best	-3405
deal	-3406
done	-3407
heav	-3408
hund	-3409
ics▁	-3410
ines	-3411
omni	-3412
quic	-3413
sis▁	-3414
text	-3415
ths▁	-3416
ynam	-3417
held▁	-3418
immen	-3419
means	-3420
perpe	-3421
puts▁	-3422
confid	-3423
fixed▁	-3424
heaven	-3425
innate	-3426
ourse▁	-3427
proble	-3428
raise▁	-3429
wisdom	-3430
figures	-3431
length▁	-3432
partly▁	-3433
retain▁	-3434
sphere▁	-3435
through	-3436
tivity▁	-3437
arising▁	-3438
hypothes	-3439
opposed▁	-3440
sources▁	-3441
volition	-3442
instance▁	-3443
preserve▁	-3444
conditions	-3445
difference	-3446
diversity▁	-3447
extremely▁	-3448
multitude▁	-3449
cognitions▁	-3450
Nevertheless	-3451
resemblance▁	-3452
modifications▁	-3453
representation	-3454
26	-3455
Pe	-3456
spr	-3457
was	-3458
10.▁	-3459
12.▁	-3460
Can▁	-3461
due▁	-3462
gent	-3463
int▁	-3464
mony	-3465
ons▁	-3466
surr	-3467
Demea	-3468
Even▁	-3469
book▁	-3470
conci	-3471
deal▁	-3472
reach	-3473
risti	-3474
sent▁	-3475
danger	-3476
mixed▁	-3477
subtle	-3478
ually▁	-3479
years▁	-3480
attend▁	-3481
quality	-3482
Nothing▁	-3483
finding▁	-3484
insight▁	-3485
passage▁	-3486
pleasure	-3487
substrat	-3488
apparent▁	-3489
recourse▁	-3490
discourse▁	-3491
evidently▁	-3492
religious▁	-3493
alteration▁	-3494
attributed▁	-3495
explaining▁	-3496
conceivable▁	-3497
objectively▁	-3498
Sy	-3499
Bes	-3500
arm	-3501
ask	-3502
eye	-3503
flu	-3504
ul▁	-3505
11.▁	-3506
acke	-3507
ages	-3508
bene	-3509
deta	-3510
ets▁	-3511
pron	-3512
reck	-3513
serv	-3514
sity	-3515
yed▁	-3516
plane	-3517
sole▁	-3518
surpr	-3519
ution	-3520
brain▁	-3521
childr	-3522
dered▁	-3523
ising▁	-3524
itique	-3525
study▁	-3526
volunt	-3527
Christi	-3528
Thirdly	-3529
corpusc	-3530
essenti	-3531
faculty	-3532
justly▁	-3533
liberty	-3534
places▁	-3535
public▁	-3536
reader▁	-3537
reconci	-3538
seemed▁	-3539
sought▁	-3540
square▁	-3541
wanted▁	-3542
Knowledg	-3543
advance▁	-3544
carried▁	-3545
changed▁	-3546
implies▁	-3547
interrup	-3548
mention▁	-3549
precise▁	-3550
uniform▁	-3551
accidents	-3552
accurate▁	-3553
analysis▁	-3554
arguments	-3555
empirical	-3556
infinitum	-3557
probable▁	-3558
Cambridge▁	-3559
carefully▁	-3560
everything	-3561
expression▁	-3562
acknowledged▁	-3563
distinguishing▁	-3564
23	-3565
.]▁	-3566
My▁	-3567
ben	-3568
cen	-3569
ger	-3570
pop	-3571
sin	-3572
...▁	-3573
Not▁	-3574
atta	-3575
bear	-3576
este	-3577
ides	-3578
off▁	-3579
olas	-3580
succ	-3581
tigu	-3582
ult▁	-3583
aint▁	-3584
lose▁	-3585
open▁	-3586
ously	-3587
terms	-3588
aggreg	-3589
aside▁	-3590
chain▁	-3591
common	-3592
disput	-3593
exact▁	-3594
friend	-3595
needs▁	-3596
ounce▁	-3597
ption▁	-3598
tives▁	-3599
touch▁	-3600
account	-3601
afford▁	-3602
begins▁	-3603
bounds▁	-3604
brings▁	-3605
denied▁	-3606
derive▁	-3607
finally	-3608
forced▁	-3609
forces▁	-3610
licity▁	-3611
minute▁	-3612
physics	-3613
destroy▁	-3614
include▁	-3615
passive▁	-3616
Cambridge	-3617
deceived▁	-3618
suitable▁	-3619
ultimate▁	-3620
materials▁	-3621
permanent▁	-3622
understood	-3623
insensible▁	-3624
particularly▁	-3625
As	-3626
b▁	-3627
bir	-3628
fil	-3629
fit	-3630
lik	-3631
put	-3632
Are▁	-3633
Lond	-3634
cent	-3635
cosm	-3636
indu	-3637
Scrip	-3638
conce	-3639
decre	-3640
devel	-3641
mark▁	-3642
miser	-3643
right	-3644
stop▁	-3645
taste	-3646
Newton	-3647
finite	-3648
ically	-3649
ology▁	-3650
stone▁	-3651
thinks	-3652
caused▁	-3653
coming▁	-3654
fashion	-3655
strict▁	-3656
deceive▁	-3657
distance	-3658
miracle▁	-3659
operate▁	-3660
Critique▁	-3661
critique▁	-3662
ignorance	-3663
inferred▁	-3664
presence▁	-3665
proposed▁	-3666
validity▁	-3667
intuitive▁	-3668
remaining▁	-3669
structure▁	-3670
supremely▁	-3671
abstracted▁	-3672
predicates▁	-3673
apperception	-3674
composition▁	-3675
consequences	-3676
Understanding	-3677
55	-3678
Ca	-3679
ef	-3680
aul	-3681
fru	-3682
maj	-3683
mut	-3684
pat	-3685
Kant	-3686
athe	-3687
bly▁	-3688
desp	-3689
llog	-3690
mast	-3691
prud	-3692
stat	-3693
ands▁	-3694
beaut	-3695
distr	-3696
firm▁	-3697
task▁	-3698
cepts▁	-3699
custom	-3700
desire	-3701
gentle	-3702
noted▁	-3703
people	-3704
series	-3705
taste▁	-3706
tation	-3707
train▁	-3708
Letter▁	-3709
contriv	-3710
disposi	-3711
doubts▁	-3712
mental▁	-3713
modern▁	-3714
secret▁	-3715
theory▁	-3716
thetic▁	-3717
conversa	-3718
creation	-3719
distant▁	-3720
hundred▁	-3721
incorpor	-3722
language	-3723
nominal▁	-3724
reduced▁	-3725
morality▁	-3726
progress▁	-3727
resolved▁	-3728
somewhat▁	-3729
absurdity▁	-3730
composite▁	-3731
conjoined▁	-3732
considered	-3733
considers▁	-3734
depending▁	-3735
incapable▁	-3736
spiritual▁	-3737
Meditations	-3738
afterwards▁	-3739
comparison▁	-3740
dependence▁	-3741
inferences▁	-3742
originally▁	-3743
conjunction▁	-3744
communication▁	-3745
28	-3746
g▁	-3747
ns	-3748
And	-3749
Div	-3750
both	-3751
evol	-3752
ided	-3753
immu	-3754
ize▁	-3755
osed	-3756
push	-3757
escap	-3758
hear▁	-3759
moved	-3760
ored▁	-3761
ought	-3762
presu	-3763
sides	-3764
Aristo	-3765
Ideas▁	-3766
aries▁	-3767
aware▁	-3768
cannot	-3769
chief▁	-3770
falseh	-3771
places	-3772
points	-3773
syllog	-3774
tempor	-3775
Second▁	-3776
acious▁	-3777
because	-3778
choose▁	-3779
conflic	-3780
nonethe	-3781
proves▁	-3782
regular	-3783
forward▁	-3784
outward▁	-3785
physics▁	-3786
problem▁	-3787
division▁	-3788
otherwise	-3789
personal▁	-3790
Philosophy	-3791
believing▁	-3792
expressed▁	-3793
extensive▁	-3794
Accordingly	-3795
conceiving▁	-3796
mathematici	-3797
skepticism▁	-3798
differences▁	-3799
difficulties	-3800
45	-3801
ai	-3802
oh	-3803
art	-3804
gon	-3805
hin	-3806
16.▁	-3807
17.▁	-3808
ady▁	-3809
aid▁	-3810
day▁	-3811
deli	-3812
does	-3813
emin	-3814
cases	-3815
decep	-3816
dynam	-3817
ridic	-3818
table	-3819
talk▁	-3820
Every▁	-3821
First▁	-3822
deceiv	-3823
enumer	-3824
ground	-3825
ishes▁	-3826
proved	-3827
arrive▁	-3828
barely▁	-3829
extend▁	-3830
imagine	-3831
omnipot	-3832
purely▁	-3833
states▁	-3834
succeed	-3835
annexed▁	-3836
forming▁	-3837
opinions	-3838
passions	-3839
pleased▁	-3840
replied▁	-3841
special▁	-3842
supersti	-3843
conceived	-3844
operation	-3845
relations	-3846
standing▁	-3847
imperfect▁	-3848
inquiries▁	-3849
proportion	-3850
succession	-3851
differently▁	-3852
disposition▁	-3853
representing▁	-3854
considerations▁	-3855
Ba	-3856
De▁	-3857
Pyr	-3858
ack	-3859
ana	-3860
ass	-3861
got	-3862
hal	-3863
ice	-3864
ols	-3865
sal	-3866
tin	-3867
tio	-3868
14.▁	-3869
Pyrr	-3870
alli	-3871
astr	-3872
brie	-3873
dom▁	-3874
gold	-3875
heal	-3876
ild▁	-3877
inas	-3878
obst	-3879
pros	-3880
sent	-3881
step	-3882
ton▁	-3883
ual▁	-3884
ians▁	-3885
meet▁	-3886
path▁	-3887
tled▁	-3888
Indeed	-3889
Space▁	-3890
active	-3891
angles	-3892
ascrib	-3893
corrup	-3894
remark	-3895
wills▁	-3896
admits▁	-3897
became▁	-3898
suspici	-3899
turned▁	-3900
weight▁	-3901
acquire▁	-3902
existing	-3903
machine▁	-3904
passion▁	-3905
removed▁	-3906
useless▁	-3907
miracles▁	-3908
provides▁	-3909
purposes▁	-3910
remember▁	-3911
accidents▁	-3912
attempted▁	-3913
conjecture	-3914
formation▁	-3915
intuitions	-3916
substratum	-3917
consisting▁	-3918
observation	-3919
sentiments▁	-3920
continually▁	-3921
nonetheless▁	-3922
probability▁	-3923
significant▁	-3924
intelligence▁	-3925
unconditioned▁	-3926
46	-3927
7▁	-3928
Am	-3929
Qu	-3930
Tr	-3931
**▁	-3932
170	-3933
?"▁	-3934
Wor	-3935
bal	-3936
emo	-3937
fel	-3938
spo	-3939
—_▁	-3940
Pref	-3941
eld▁	-3942
fund	-3943
grav	-3944
line	-3945
oly▁	-3946
past	-3947
run▁	-3948
beast	-3949
energ	-3950
face▁	-3951
ided▁	-3952
near▁	-3953
room▁	-3954
since	-3955
tics▁	-3956
ures▁	-3957
actual	-3958
assent	-3959
centur	-3960
future	-3961
iting▁	-3962
lation	-3963
logic▁	-3964
multip	-3965
onomy▁	-3966
punish	-3967
sides▁	-3968
ustom▁	-3969
Aristot	-3970
confess	-3971
contemp	-3972
ficial▁	-3973
liable▁	-3974
likely▁	-3975
physici	-3976
scienti	-3977
unable▁	-3978
waking▁	-3979
conceive	-3980
correct▁	-3981
feeling▁	-3982
forever▁	-3983
geometry	-3984
members▁	-3985
mistaken	-3986
mistake▁	-3987
possess▁	-3988
acquired▁	-3989
attempts▁	-3990
essences▁	-3991
resemble▁	-3992
accomplish	-3993
actuality▁	-3994
dangerous▁	-3995
uncertain▁	-3996
Furthermore	-3997
Malebranche	-3998
containing▁	-3999
explicable▁	-4000
impressions	-4001
unthinking▁	-4002
Consequently	-4003
modification▁	-4004
85	-4005
Au	-4006
Ju	-4007
na	-4008
199	-4009
Bec	-4010
Do▁	-4011
Joh	-4012
Tim	-4013
ard	-4014
god	-4015
ili	-4016
18.▁	-4017
His▁	-4018
Indi	-4019
Thom	-4020
deep	-4021
delu	-4022
desc	-4023
fair	-4024
ore▁	-4025
size	-4026
Only▁	-4027
aband	-4028
bring	-4029
ense▁	-4030
ills▁	-4031
kness	-4032
liken	-4033
maxim	-4034
ring▁	-4035
shown	-4036
took▁	-4037
Latin▁	-4038
circle	-4039
enced▁	-4040
fundam	-4041
house▁	-4042
itate▁	-4043
result	-4044
teach▁	-4045
benevol	-4046
develop	-4047
ements▁	-4048
erever▁	-4049
leaves▁	-4050
motive▁	-4051
schema▁	-4052
speech▁	-4053
acquaint	-4054
assumed▁	-4055
confused	-4056
homogene	-4057
illusion	-4058
natures▁	-4059
produced	-4060
section▁	-4061
subjects	-4062
Aristotle	-4063
business▁	-4064
inasmuch▁	-4065
mistaken▁	-4066
satisfact	-4067
superior▁	-4068
conclusion	-4069
obscurity▁	-4070
immediately	-4071
opposition▁	-4072
presuppose▁	-4073
communicate▁	-4074
empirically▁	-4075
explanation▁	-4076
explication▁	-4077
geometrical▁	-4078
inseparable▁	-4079
corresponding▁	-4080
Cl	-4081
Ma	-4082
9,▁	-4083
mix	-4084
sil	-4085
sis	-4086
smo	-4087
swi	-4088
tem	-4089
tor	-4090
§.▁	-4091
13.▁	-4092
15.▁	-4093
Plat	-4094
endi	-4095
evil	-4096
once	-4097
reti	-4098
tend	-4099
Prefa	-4100
Your▁	-4101
agent	-4102
arily	-4103
ball▁	-4104
disco	-4105
equal	-4106
ices▁	-4107
inqui	-4108
liter	-4109
logic	-4110
recep	-4111
repor	-4112
sect▁	-4113
Proleg	-4114
antici	-4115
cease▁	-4116
chimer	-4117
death▁	-4118
habit▁	-4119
issue▁	-4120
length	-4121
lines▁	-4122
organs	-4123
round▁	-4124
transf	-4125
uction	-4126
uting▁	-4127
virtue	-4128
believe	-4129
deliber	-4130
divide▁	-4131
erring▁	-4132
illustr	-4133
interes	-4134
larger▁	-4135
manifes	-4136
Because▁	-4137
Whether▁	-4138
analytic	-4139
carries▁	-4140
command▁	-4141
earlier▁	-4142
evidence	-4143
extends▁	-4144
harmony▁	-4145
hearing▁	-4146
history▁	-4147
renders▁	-4148
vention▁	-4149
assuming▁	-4150
attended▁	-4151
completen	-4152
disposed▁	-4153
examined▁	-4154
existent▁	-4155
goodness▁	-4156
increase▁	-4157
interest▁	-4158
powerful▁	-4159
probably▁	-4160
Prolegomen	-4161
deduction▁	-4162
determined	-4163
discovery▁	-4164
observing▁	-4165
thoroughly▁	-4166
appropriate▁	-4167
immortality▁	-4168
independently▁	-4169
simultaneously▁	-4170
84	-4171
Tw	-4172
tt	-4173
0]▁	-4174
Bay	-4175
Chr	-4176
Eli	-4177
Mon	-4178
ado	-4179
dom	-4180
gla	-4181
yet	-4182
Comp	-4183
Epic	-4184
Gali	-4185
fing	-4186
met▁	-4187
midd	-4188
ows▁	-4189
refr	-4190
wind	-4191
Deity	-4192
Gener	-4193
antin	-4194
claim	-4195
decla	-4196
effor	-4197
inal▁	-4198
relat	-4199
sake▁	-4200
surve	-4201
tradi	-4202
wills	-4203
Dialog	-4204
Galile	-4205
London	-4206
cious▁	-4207
compon	-4208
elled▁	-4209
field▁	-4210
notion	-4211
pains▁	-4212
stance	-4213
treat▁	-4214
turns▁	-4215
wrong▁	-4216
anticip	-4217
choice▁	-4218
claims▁	-4219
design▁	-4220
obscure	-4221
ocrates	-4222
perplex	-4223
restric	-4224
suppose	-4225
without	-4226
witness	-4227
Natural▁	-4228
Spinoza▁	-4229
accompan	-4230
contempl	-4231
defined▁	-4232
doubted▁	-4233
impenetr	-4234
mediate▁	-4235
putting▁	-4236
succeed▁	-4237
combined▁	-4238
convince▁	-4239
imagined▁	-4240
particle▁	-4241
pertains▁	-4242
volition▁	-4243
Cartesian▁	-4244
distinctly	-4245
including▁	-4246
contingent▁	-4247
transition▁	-4248
83	-4249
Ox	-4250
ae	-4251
:]▁	-4252
II▁	-4253
Mod	-4254
far	-4255
ost	-4256
ply	-4257
viv	-4258
ze▁	-4259
21.▁	-4260
Fren	-4261
Intr	-4262
beau	-4263
ber▁	-4264
che▁	-4265
foot	-4266
hold	-4267
iden	-4268
illi	-4269
join	-4270
keep	-4271
mode	-4272
open	-4273
path	-4274
ples	-4275
que▁	-4276
stic	-4277
ward	-4278
yell	-4279
Bacon	-4280
Oxfor	-4281
Some▁	-4282
Then▁	-4283
With▁	-4284
about	-4285
annul	-4286
cogit	-4287
eness	-4288
horse	-4289
ingen	-4290
laid▁	-4291
sweet	-4292
teach	-4293
tend▁	-4294
vast▁	-4295
Essay▁	-4296
ading▁	-4297
bears▁	-4298
began▁	-4299
calls▁	-4300
comman	-4301
disapp	-4302
distur	-4303
govern	-4304
heard▁	-4305
insic▁	-4306
maxim▁	-4307
speech	-4308
tious▁	-4309
trace▁	-4310
absurdi	-4311
appeal▁	-4312
axioms▁	-4313
contigu	-4314
employ▁	-4315
infalli	-4316
please▁	-4317
raised▁	-4318
uction▁	-4319
willing	-4320
conform▁	-4321
consists	-4322
deduced▁	-4323
exhibit▁	-4324
ounding▁	-4325
perform▁	-4326
suspect▁	-4327
written▁	-4328
bringing▁	-4329
elements▁	-4330
equality▁	-4331
examples▁	-4332
expected▁	-4333
geometry▁	-4334
solidity▁	-4335
totality▁	-4336
affection▁	-4337
assertion▁	-4338
direction▁	-4339
imprinted▁	-4340
persuaded▁	-4341
sentiment▁	-4342
signified▁	-4343
necessarily	-4344
similarity▁	-4345
supposition	-4346
uniformity▁	-4347
apprehension	-4348
examination▁	-4349
contradictory▁	-4350
47	-4351
89	-4352
>▁	-4353
So	-4354
ue	-4355
dig	-4356
ol▁	-4357
opp	-4358
19.▁	-4359
23.▁	-4360
alle	-4361
avag	-4362
borr	-4363
bulk	-4364
love	-4365
myst	-4366
omor	-4367
onom	-4368
reci	-4369
soph	-4370
Were▁	-4371
aged▁	-4372
artic	-4373
credi	-4374
death	-4375
emed▁	-4376
geome	-4377
habit	-4378
human	-4379
ield▁	-4380
ities	-4381
join▁	-4382
oses▁	-4383
poten	-4384
subli	-4385
versa	-4386
Introd	-4387
Saint▁	-4388
built▁	-4389
happy▁	-4390
parado	-4391
wonder	-4392
Besides	-4393
agreed▁	-4394
confirm	-4395
custom▁	-4396
inform▁	-4397
insist▁	-4398
passed▁	-4399
passion	-4400
sounds▁	-4401
abstract	-4402
despite▁	-4403
doctrine	-4404
essences	-4405
extravag	-4406
instant▁	-4407
moreover	-4408
passing▁	-4409
popular▁	-4410
recogniz	-4411
asserted▁	-4412
authority	-4413
concerned	-4414
exercise▁	-4415
sibility▁	-4416
tendency▁	-4417
wherever▁	-4418
contingent	-4419
dependent▁	-4420
difficulty	-4421
functions▁	-4422
signifies▁	-4423
suspicion▁	-4424
volitions▁	-4425
voluntary▁	-4426
maintained▁	-4427
proceeding▁	-4428
throughout▁	-4429
determination	-4430
Philosophical▁	-4431
contemplation▁	-4432
distinguishes▁	-4433
impossibility▁	-4434
33	-4435
54	-4436
VI	-4437
bi	-4438
Rep	-4439
VII	-4440
aug	-4441
fab	-4442
hun	-4443
ma▁	-4444
sym	-4445
With	-4446
find	-4447
ger▁	-4448
head	-4449
stup	-4450
ting	-4451
warm	-4452
defec	-4453
divin	-4454
favor	-4455
five▁	-4456
gain▁	-4457
initi	-4458
isms▁	-4459
notic	-4460
primi	-4461
stone	-4462
uneas	-4463
would	-4464
Essays	-4465
Hobbes	-4466
antly▁	-4467
applic	-4468
books▁	-4469
concre	-4470
events	-4471
fying▁	-4472
hands▁	-4473
heart▁	-4474
iction	-4475
istic▁	-4476
please	-4477
theore	-4478
yield▁	-4479
Pyrrhon	-4480
archety	-4481
danger▁	-4482
excite▁	-4483
existed	-4484
maxims▁	-4485
unknown	-4486
amounts▁	-4487
letters▁	-4488
looking▁	-4489
readers▁	-4490
showing▁	-4491
subordin	-4492
subsist▁	-4493
Berkeley▁	-4494
fication▁	-4495
inherent▁	-4496
intended▁	-4497
likeness▁	-4498
occurred▁	-4499
arbitrary▁	-4500
comparing▁	-4501
doctrines▁	-4502
imagining▁	-4503
primitive▁	-4504
suggested▁	-4505
Meditation▁	-4506
accurately▁	-4507
characters▁	-4508
everywhere▁	-4509
ordinarily▁	-4510
perfections	-4511
probability	-4512
corresponds▁	-4513
dialectical▁	-4514
expressions▁	-4515
foundations▁	-4516
transcendent	-4517
comprehended▁	-4518
comprehension	-4519
signification	-4520
correspondence▁	-4521
presupposition▁	-4522
34	-4523
36	-4524
50	-4525
56	-4526
70	-4527
Ge	-4528
(17	-4529
1)▁	-4530
Ari	-4531
Dem	-4532
apo	-4533
bro	-4534
edu	-4535
pal	-4536
til	-4537
vil	-4538
24.▁	-4539
25.▁	-4540
26.▁	-4541
Some	-4542
anta	-4543
ceas	-4544
curi	-4545
deic	-4546
depr	-4547
eced	-4548
enab	-4549
even	-4550
hope	-4551
ians	-4552
ior▁	-4553
ited	-4554
odic	-4555
scen	-4556
spre	-4557
sych	-4558
titu	-4559
Adam▁	-4560
Supre	-4561
dimen	-4562
disci	-4563
dogma	-4564
fruit	-4565
grant	-4566
mass▁	-4567
plan▁	-4568
rever	-4569
size▁	-4570
thics	-4571
treat	-4572
Experi	-4573
Perhap	-4574
Peter▁	-4575
acity▁	-4576
beauti	-4577
better	-4578
extern	-4579
grasp▁	-4580
idden▁	-4581
local▁	-4582
major▁	-4583
marks▁	-4584
ories▁	-4585
reckon	-4586
vital▁	-4587
worth▁	-4588
Thomas▁	-4589
amount▁	-4590
anteced	-4591
apodeic	-4592
degrees	-4593
easier▁	-4594
entity▁	-4595
ession▁	-4596
friend▁	-4597
gotten▁	-4598
limited	-4599
mutual▁	-4600
nearer▁	-4601
Critique	-4602
Supreme▁	-4603
Without▁	-4604
archetyp	-4605
assured▁	-4606
closely▁	-4607
curious▁	-4608
dealing▁	-4609
everyone	-4610
herence▁	-4611
immense▁	-4612
motives▁	-4613
movable▁	-4614
quantity	-4615
Corollary	-4616
compared▁	-4617
efficacy▁	-4618
encounter	-4619
explained	-4620
grounded▁	-4621
practice▁	-4622
profound▁	-4623
rendered▁	-4624
straight▁	-4625
universal	-4626
affections	-4627
confusion▁	-4628
excellent▁	-4629
imaginary▁	-4630
immaterial	-4631
impression	-4632
positions▁	-4633
possessed▁	-4634
possesses▁	-4635
properties	-4636
regression	-4637
skeptical▁	-4638
supported▁	-4639
experiment▁	-4640
hypotheses▁	-4641
recognized▁	-4642
simplicity▁	-4643
ultimately▁	-4644
circumstance▁	-4645
cosmological▁	-4646
intermediate▁	-4647
proportional▁	-4648
39	-4649
5▁	-4650
Mar	-4651
Pra	-4652
Pub	-4653
acu	-4654
acy	-4655
avi	-4656
cra	-4657
glo	-4658
new	-4659
saf	-4660
sud	-4661
try	-4662
**.▁	-4663
.:]▁	-4664
20.▁	-4665
22.▁	-4666
High	-4667
Two▁	-4668
assi	-4669
been	-4670
devo	-4671
exec	-4672
got▁	-4673
iner	-4674
mit▁	-4675
ours	-4676
sabe	-4677
truc	-4678
turn	-4679
ving	-4680
high▁	-4681
lost▁	-4682
misun	-4683
rules	-4684
sets▁	-4685
simpl	-4686
weigh	-4687
works	-4688
Where▁	-4689
While▁	-4690
alter▁	-4691
associ	-4692
blood▁	-4693
insist	-4694
misery	-4695
sleep▁	-4696
square	-4697
streng	-4698
ulate▁	-4699
white▁	-4700
Elisabe	-4701
analogy	-4702
constra	-4703
deduce▁	-4704
demand▁	-4705
destruc	-4706
doubted	-4707
filled▁	-4708
impulse	-4709
ishing▁	-4710
letter▁	-4711
needed▁	-4712
nobody▁	-4713
obtain▁	-4714
paradox	-4715
posteri	-4716
reasons	-4717
served▁	-4718
subsequ	-4719
titude▁	-4720
vation▁	-4721
Perhaps▁	-4722
Suppose▁	-4723
differs▁	-4724
display▁	-4725
judging▁	-4726
justice▁	-4727
manifold	-4728
numbers▁	-4729
touched▁	-4730
trouble▁	-4731
Although▁	-4732
Concepts▁	-4733
activity▁	-4734
advantage	-4735
allowing▁	-4736
assigned▁	-4737
attribute	-4738
category▁	-4739
children▁	-4740
corporeal	-4741
discourse	-4742
disputes▁	-4743
essential	-4744
includes▁	-4745
involved▁	-4746
measures▁	-4747
negative▁	-4748
precedes▁	-4749
smallest▁	-4750
specific▁	-4751
agreeable▁	-4752
coherence▁	-4753
definition	-4754
falsehood▁	-4755
reasonings	-4756
applicable▁	-4757
compatible▁	-4758
correspond▁	-4759
definitions	-4760
distinction	-4761
remarkable▁	-4762
experiments▁	-4763
fundamental▁	-4764
indivisible▁	-4765
intelligence	-4766
completeness▁	-4767
imperfection▁	-4768
transcendent▁	-4769
1–	-4770
57	-4771
66	-4772
79	-4773
87	-4774
=▁	-4775
Ha	-4776
Op	-4777
ia	-4778
App	-4779
Rom	-4780
add	-4781
aly	-4782
cul	-4783
dul	-4784
ked	-4785
mel	-4786
mic	-4787
rer	-4788
ret	-4789
rev	-4790
rig	-4791
sac	-4792
ses	-4793
she	-4794
Four	-4795
Gree	-4796
Hobb	-4797
auld	-4798
away	-4799
bigu	-4800
chem	-4801
chos	-4802
crim	-4803
deny	-4804
down	-4805
exha	-4806
feat	-4807
fic▁	-4808
fied	-4809
ged▁	-4810
imit	-4811
ious	-4812
many	-4813
plau	-4814
pon▁	-4815
tang	-4816
than	-4817
trac	-4818
vacu	-4819
whit	-4820
Hacke	-4821
Lady▁	-4822
Trans	-4823
desig	-4824
embra	-4825
equiv	-4826
fine▁	-4827
ither	-4828
live▁	-4829
ours▁	-4830
scrib	-4831
tree▁	-4832
veloc	-4833
alike▁	-4834
angel▁	-4835
argue▁	-4836
atoms▁	-4837
attain	-4838
displa	-4839
favor▁	-4840
formed	-4841
honor▁	-4842
moment	-4843
proced	-4844
prodig	-4845
reader	-4846
throw▁	-4847
useful	-4848
vulgar	-4849
Arnauld	-4850
Divine▁	-4851
beauty▁	-4852
concurr	-4853
dreams▁	-4854
firmly▁	-4855
hidden▁	-4856
instinc	-4857
judged▁	-4858
lesser▁	-4859
looked▁	-4860
middle▁	-4861
miracle	-4862
persons	-4863
refers▁	-4864
utions▁	-4865
English▁	-4866
General▁	-4867
diverse▁	-4868
division	-4869
drawing▁	-4870
economy▁	-4871
foreign▁	-4872
impulse▁	-4873
picture▁	-4874
process▁	-4875
proving▁	-4876
totally▁	-4877
treated▁	-4878
whoever▁	-4879
formally▁	-4880
inconveni	-4881
questions	-4882
sequence▁	-4883
theology▁	-4884
Discourse▁	-4885
cognitions	-4886
encounter▁	-4887
foregoing▁	-4888
gradually▁	-4889
organized▁	-4890
perpetual▁	-4891
posteriori	-4892
subjected▁	-4893
Translated▁	-4894
advantages▁	-4895
assertions▁	-4896
conceivable	-4897
conjecture▁	-4898
examination	-4899
importance▁	-4900
indivisible	-4901
repugnance▁	-4902
resistance▁	-4903
systematic▁	-4904
affirmation▁	-4905
surrounding▁	-4906
uncertainty▁	-4907
conversation▁	-4908
inexplicable▁	-4909
38	-4910
44	-4911
59	-4912
64	-4913
Do	-4914
D▁	-4915
Log	-4916
Luc	-4917
Pow	-4918
em▁	-4919
few	-4920
ied	-4921
pra	-4922
ry▁	-4923
sty	-4924
sus	-4925
27.▁	-4926
Judg	-4927
Spir	-4928
acts	-4929
appe	-4930
bad▁	-4931
els▁	-4932
help	-4933
inev	-4934
isha	-4935
micr	-4936
migh	-4937
nour	-4938
seas	-4939
seen	-4940
sely	-4941
slow	-4942
sts▁	-4943
vege	-4944
zed▁	-4945
Analy	-4946
Does▁	-4947
Ideas	-4948
John▁	-4949
Most▁	-4950
Time▁	-4951
Upon▁	-4952
aled▁	-4953
exter	-4954
fill▁	-4955
foot▁	-4956
lest▁	-4957
ligen	-4958
magni	-4959
offer	-4960
quick	-4961
sorts	-4962
tile▁	-4963
twent	-4964
white	-4965
acute▁	-4966
ambigu	-4967
ances▁	-4968
called	-4969
curios	-4970
falls▁	-4971
gross▁	-4972
limits	-4973
lined▁	-4974
merit▁	-4975
offer▁	-4976
propag	-4977
sence▁	-4978
tastes	-4979
total▁	-4980
trust▁	-4981
value▁	-4982
wrote▁	-4983
French▁	-4984
Hobbes▁	-4985
around▁	-4986
deliver	-4987
energy▁	-4988
freely▁	-4989
nearly▁	-4990
prevent	-4991
secure▁	-4992
success	-4993
supply▁	-4994
vision▁	-4995
Neither▁	-4996
Socrates	-4997
Thought▁	-4998
addition	-4999
category	-5000
compare▁	-5001
conforma	-5002
edition▁	-5003
planets▁	-5004
probable	-5005
product▁	-5006
reading▁	-5007
seeming▁	-5008
suffice▁	-5009
tations▁	-5010
tically▁	-5011
absurdity	-5012
arranged▁	-5013
attained▁	-5014
confined▁	-5015
critical▁	-5016
directed▁	-5017
dogmatic▁	-5018
formerly▁	-5019
governed▁	-5020
temporal▁	-5021
absolutely	-5022
conceives▁	-5023
impressed▁	-5024
occasions▁	-5025
penetrate▁	-5026
pretended▁	-5027
pronounce▁	-5028
Philosophy▁	-5029
Prolegomena	-5030
abstraction	-5031
collection▁	-5032
consequence	-5033
continuous▁	-5034
introduced▁	-5035
miraculous▁	-5036
philosopher	-5037
reasonably▁	-5038
scientific▁	-5039
discoveries▁	-5040
indifferent▁	-5041
unavoidable▁	-5042
apperception▁	-5043
observations▁	-5044
unconditioned	-5045
60	-5046
sl	-5047
Ger	-5048
ew▁	-5049
fle	-5050
ham	-5051
ive	-5052
pen	-5053
tly	-5054
wax	-5055
28.▁	-5056
29.▁	-5057
Adam	-5058
Clar	-5059
Ever	-5060
decl	-5061
earn	-5062
ems▁	-5063
flow	-5064
genu	-5065
liar	-5066
lies	-5067
meta	-5068
mine	-5069
scri	-5070
soft	-5071
vely	-5072
Bayle	-5073
Being	-5074
celes	-5075
fair▁	-5076
half▁	-5077
head▁	-5078
ible▁	-5079
iteri	-5080
oscop	-5081
polis	-5082
still	-5083
throp	-5084
went▁	-5085
wood▁	-5086
affair	-5087
agent▁	-5088
annul▁	-5089
bound▁	-5090
commen	-5091
ected▁	-5092
enlarg	-5093
faces▁	-5094
feels▁	-5095
flame▁	-5096
forces	-5097
grace▁	-5098
health	-5099
posed▁	-5100
propen	-5101
respon	-5102
wants▁	-5103
Essays▁	-5104
Publish	-5105
adding▁	-5106
agrees▁	-5107
allows▁	-5108
antagon	-5109
argues▁	-5110
chance▁	-5111
convey▁	-5112
counter	-5113
dering▁	-5114
effort▁	-5115
famous▁	-5116
fitted▁	-5117
framed▁	-5118
highly▁	-5119
misery▁	-5120
notwith	-5121
prefer▁	-5122
remains	-5123
remark▁	-5124
Letters▁	-5125
contact▁	-5126
demands▁	-5127
entered▁	-5128
interpre	-5129
leaving▁	-5130
remember	-5131
resolve▁	-5132
smaller▁	-5133
society▁	-5134
venture▁	-5135
Treatise▁	-5136
anywhere▁	-5137
building▁	-5138
circular▁	-5139
esteemed▁	-5140
exterior▁	-5141
function▁	-5142
imagines▁	-5143
imperfect	-5144
indicate▁	-5145
inference	-5146
microscop	-5147
obtained▁	-5148
presents▁	-5149
receives▁	-5150
strictly▁	-5151
subtlety▁	-5152
testimony	-5153
treatise▁	-5154
Aristotle▁	-5155
Scripture▁	-5156
concluded▁	-5157
confirmed▁	-5158
continual▁	-5159
discovers▁	-5160
examining▁	-5161
identical▁	-5162
intelligen	-5163
receiving▁	-5164
artificial▁	-5165
confidence▁	-5166
phenomenon▁	-5167
resemblance	-5168
resembling▁	-5169
accompanied▁	-5170
definitions▁	-5171
exclusively▁	-5172
extravagant▁	-5173
incorporeal▁	-5174
nevertheless	-5175
combinations▁	-5176
determinations	-5177
mathematicians▁	-5178
53	-5179
58	-5180
75	-5181
88	-5182
Ab	-5183
ON	-5184
Mat	-5185
Phy	-5186
deb	-5187
don	-5188
fat	-5189
fea	-5190
fer	-5191
ile	-5192
ker	-5193
lip	-5194
stu	-5195
tex	-5196
tod	-5197
tt▁	-5198
16,▁	-5199
Here	-5200
_(16	-5201
adop	-5202
argu	-5203
arm▁	-5204
bott	-5205
care	-5206
come	-5207
den▁	-5208
face	-5209
indi	-5210
move	-5211
obvi	-5212
ope▁	-5213
ord▁	-5214
pate	-5215
pay▁	-5216
refu	-5217
ror▁	-5218
tell	-5219
thly	-5220
thme	-5221
vel▁	-5222
adver	-5223
alike	-5224
awake	-5225
dark▁	-5226
fancy	-5227
felt▁	-5228
flame	-5229
gone▁	-5230
gross	-5231
hands	-5232
iety▁	-5233
loss▁	-5234
psych	-5235
scrup	-5236
told▁	-5237
wide▁	-5238
Their▁	-5239
altern	-5240
archit	-5241
asked▁	-5242
asses▁	-5243
dissol	-5244
dreams	-5245
dream▁	-5246
idols▁	-5247
occurs	-5248
ounded	-5249
rerum▁	-5250
superf	-5251
Lucreti	-5252
anthrop	-5253
created	-5254
denies▁	-5255
describ	-5256
enable▁	-5257
hypothe	-5258
matters	-5259
potenti	-5260
society	-5261
traces▁	-5262
Hackett▁	-5263
Preface▁	-5264
clearer▁	-5265
conclude	-5266
disorder	-5267
elements	-5268
endless▁	-5269
furnish▁	-5270
leading▁	-5271
precede▁	-5272
results▁	-5273
sublime▁	-5274
systems▁	-5275
Knowledge	-5276
conflict▁	-5277
darkness▁	-5278
determine	-5279
difficult	-5280
diminish▁	-5281
intuited▁	-5282
pleasant▁	-5283
problems▁	-5284
singular▁	-5285
According▁	-5286
Christian▁	-5287
beautiful▁	-5288
conception	-5289
performed▁	-5290
privation▁	-5291
proceeded▁	-5292
contribute▁	-5293
generation▁	-5294
prejudices▁	-5295
reflecting▁	-5296
Meditations▁	-5297
experienced▁	-5298
presupposed▁	-5299
acquaintance▁	-5300
satisfactory▁	-5301
supernatural▁	-5302
notwithstanding▁	-5303
)—	-5304
00	-5305
AT	-5306
Ed	-5307
Mo	-5308
Si	-5309
St	-5310
cu	-5311
oo	-5312
Cer	-5313
Dur	-5314
How	-5315
Lem	-5316
Thr	-5317
ac▁	-5318
bs▁	-5319
did	-5320
ich	-5321
ins	-5322
ls▁	-5323
obe	-5324
pir	-5325
1).▁	-5326
11,▁	-5327
13,▁	-5328
7).▁	-5329
Davi	-5330
Peri	-5331
ches	-5332
clou	-5333
dly▁	-5334
ell▁	-5335
ency	-5336
fabr	-5337
from	-5338
harm	-5339
pati	-5340
sin▁	-5341
tice	-5342
upon	-5343
youn	-5344
Essay	-5345
Reply	-5346
Truth	-5347
adds▁	-5348
ants▁	-5349
ator▁	-5350
centr	-5351
cing▁	-5352
colli	-5353
compr	-5354
died▁	-5355
fanci	-5356
fluid	-5357
grasp	-5358
labor	-5359
mise▁	-5360
phant	-5361
pped▁	-5362
push▁	-5363
scrut	-5364
subtr	-5365
uces▁	-5366
union	-5367
ured▁	-5368
weak▁	-5369
David▁	-5370
Ethics	-5371
accomm	-5372
adjust	-5373
condem	-5374
critic	-5375
early▁	-5376
enligh	-5377
enough	-5378
horse▁	-5379
icate▁	-5380
ideal▁	-5381
indisp	-5382
ishop▁	-5383
proofs	-5384
recomm	-5385
signs▁	-5386
subsum	-5387
write▁	-5388
accept▁	-5389
define▁	-5390
dispute	-5391
happens	-5392
hearing	-5393
nerves▁	-5394
occult▁	-5395
period▁	-5396
respect	-5397
scholas	-5398
schools	-5399
seldom▁	-5400
timate▁	-5401
absence▁	-5402
accommod	-5403
applies▁	-5404
astronom	-5405
complete	-5406
decrees▁	-5407
denying▁	-5408
deserve▁	-5409
discern▁	-5410
embrace▁	-5411
falsity▁	-5412
justify▁	-5413
miracles	-5414
nowhere▁	-5415
partake▁	-5416
pertain▁	-5417
reached▁	-5418
straight	-5419
validity	-5420
writing▁	-5421
Lucretius	-5422
accident▁	-5423
advanced▁	-5424
deduction	-5425
inclined▁	-5426
inconsist	-5427
influence	-5428
mentioned	-5429
numerous▁	-5430
preceded▁	-5431
standard▁	-5432
stronger▁	-5433
uncertain	-5434
writings▁	-5435
Substance▁	-5436
accounted▁	-5437
continues▁	-5438
entertain▁	-5439
experiment	-5440
gentleman▁	-5441
immutable▁	-5442
individual	-5443
instrument	-5444
invisible▁	-5445
obviously▁	-5446
preserved▁	-5447
sufficient	-5448
Publishing▁	-5449
assumption▁	-5450
boundaries▁	-5451
combination	-5452
preference▁	-5453
constituted▁	-5454
inclination▁	-5455
individuals▁	-5456
instruments▁	-5457
speculations▁	-5458
demonstrations	-5459
incomprehensible	-5460
3▁	-5461
49	-5462
6▁	-5463
He	-5464
–9	-5465
169	-5466
2:▁	-5467
bad	-5468
cru	-5469
cy▁	-5470
dai	-5471
det	-5472
ect	-5473
had	-5474
iev	-5475
mus	-5476
nor	-5477
pul	-5478
sh▁	-5479
vic	-5480
vor	-5481
why	-5482
Mind	-5483
agit	-5484
drin	-5485
embr	-5486
enem	-5487
inti	-5488
pher	-5489
shar	-5490
snow	-5491
Both▁	-5492
Hence	-5493
Other	-5494
ating	-5495
atoms	-5496
coher	-5497
culti	-5498
dies▁	-5499
essed	-5500
ester	-5501
exerc	-5502
hesit	-5503
house	-5504
medic	-5505
ments	-5506
pect▁	-5507
rank▁	-5508
recti	-5509
sign▁	-5510
theor	-5511
trust	-5512
ulari	-5513
wrong	-5514
Cause▁	-5515
blame▁	-5516
consul	-5517
eting▁	-5518
glory▁	-5519
imply▁	-5520
inferi	-5521
itude▁	-5522
maxims	-5523
obstac	-5524
omorph	-5525
persua	-5526
restra	-5527
seeks▁	-5528
skill▁	-5529
start▁	-5530
tivity	-5531
Company	-5532
Newton▁	-5533
angels▁	-5534
chosen▁	-5535
conduct	-5536
copies▁	-5537
credit▁	-5538
decree▁	-5539
detail▁	-5540
fairly▁	-5541
gladly▁	-5542
grounds	-5543
harmony	-5544
innumer	-5545
mighty▁	-5546
observe	-5547
presump	-5548
pursue▁	-5549
reatise	-5550
recall▁	-5551
refute▁	-5552
survey▁	-5553
workman	-5554
Peripate	-5555
affords▁	-5556
animate▁	-5557
confuse▁	-5558
desires▁	-5559
modified	-5560
negation	-5561
noticed▁	-5562
positive	-5563
reciproc	-5564
secondly	-5565
seeking▁	-5566
skeptic▁	-5567
supposed	-5568
theology	-5569
turning▁	-5570
abstruse▁	-5571
answered▁	-5572
antinomy▁	-5573
changing▁	-5574
commensur	-5575
destroys▁	-5576
emotions▁	-5577
idealism▁	-5578
movement▁	-5579
negation▁	-5580
permanent	-5581
persuade▁	-5582
yourself▁	-5583
Knowledge▁	-5584
affecting▁	-5585
apprehend▁	-5586
endeavors▁	-5587
exception▁	-5588
furnished▁	-5589
occurring▁	-5590
prejudice▁	-5591
procedure▁	-5592
production	-5593
variation▁	-5594
composition	-5595
compounded▁	-5596
consequent▁	-5597
permanence▁	-5598
absurdities▁	-5599
alterations▁	-5600
apprehended▁	-5601
conceptions▁	-5602
homogeneous▁	-5603
subordinate▁	-5604
theoretical▁	-5605
consideration	-5606
discoverable▁	-5607
unperceiving▁	-5608
inconceivable▁	-5609
investigation▁	-5610
unintelligible▁	-5611
1/	-5612
74	-5613
78	-5614
86	-5615
B▁	-5616
Pi	-5617
S▁	-5618
[[	-5619
ip	-5620
Aes	-5621
Boy	-5622
Eff	-5623
Isa	-5624
Mor	-5625
Sci	-5626
aim	-5627
ata	-5628
cat	-5629
dev	-5630
gif	-5631
hur	-5632
ont	-5633
phr	-5634
son	-5635
tel	-5636
whe	-5637
5).▁	-5638
Comm	-5639
adap	-5640
asle	-5641
geni	-5642
ils▁	-5643
inno	-5644
ins▁	-5645
iron	-5646
lesh	-5647
moon	-5648
much	-5649
shad	-5650
soon	-5651
Consi	-5652
Paris	-5653
Since	-5654
aries	-5655
below	-5656
blind	-5657
city▁	-5658
copy▁	-5659
enjoy	-5660
expan	-5661
finit	-5662
ites▁	-5663
iven▁	-5664
kept▁	-5665
lines	-5666
refin	-5667
save▁	-5668
seems	-5669
Lemma▁	-5670
Third▁	-5671
build▁	-5672
ching▁	-5673
conces	-5674
defici	-5675
extrem	-5676
legiti	-5677
lives▁	-5678
marvel	-5679
natura	-5680
noble▁	-5681
noise▁	-5682
projec	-5683
propri	-5684
regard	-5685
states	-5686
suspec	-5687
tened▁	-5688
tless▁	-5689
transp	-5690
Bishop▁	-5691
Indiana	-5692
Scholas	-5693
asking▁	-5694
cations	-5695
changes	-5696
clearly	-5697
contact	-5698
country	-5699
criteri	-5700
derived	-5701
enters▁	-5702
escape▁	-5703
expand▁	-5704
illumin	-5705
inhere▁	-5706
linked▁	-5707
machine	-5708
numbers	-5709
passive	-5710
plants▁	-5711
reduce▁	-5712
removed	-5713
repeat▁	-5714
reward▁	-5715
tations	-5716
useless	-5717
visible	-5718
wonder▁	-5719
affected	-5720
affects▁	-5721
balance▁	-5722
century▁	-5723
chiefly▁	-5724
ishable▁	-5725
methods▁	-5726
neglect▁	-5727
portion▁	-5728
premise▁	-5729
purposes	-5730
reaches▁	-5731
springs▁	-5732
Scholium▁	-5733
ascribed▁	-5734
believes▁	-5735
confusion	-5736
entering▁	-5737
happened▁	-5738
objection	-5739
operates▁	-5740
sentiment	-5741
situation	-5742
transfer▁	-5743
variable▁	-5744
weakness▁	-5745
admirable▁	-5746
celestial▁	-5747
confessed▁	-5748
destroyed▁	-5749
dynamical▁	-5750
preserves▁	-5751
reasonable	-5752
underlies▁	-5753
Experience▁	-5754
Metaphysics	-5755
adequately▁	-5756
conclusions	-5757
exposition▁	-5758
government▁	-5759
limitation▁	-5760
manifestly▁	-5761
propensity▁	-5762
Indianapolis	-5763
conformable▁	-5764
encountered▁	-5765
innumerable▁	-5766
interrupted▁	-5767
particulars▁	-5768
reflections▁	-5769
translation▁	-5770
anthropomorph	-5771
communicated▁	-5772
incompatible▁	-5773
inconsistent▁	-5774
successively▁	-5775
Understanding▁	-5776
understandings▁	-5777
4▁	-5778
73	-5779
Ap	-5780
Dr	-5781
Gr	-5782
If	-5783
Je	-5784
ax	-5785
zz	-5786
—▁	-5787
0,▁	-5788
1:▁	-5789
2)▁	-5790
3)▁	-5791
;_▁	-5792
Axi	-5793
Bar	-5794
Her	-5795
bed	-5796
ian	-5797
inv	-5798
mal	-5799
sy▁	-5800
ues	-5801
1),▁	-5802
28,▁	-5803
Any▁	-5804
Caes	-5805
Man▁	-5806
May▁	-5807
Men▁	-5808
Meth	-5809
back	-5810
civi	-5811
clos	-5812
ears	-5813
guid	-5814
guil	-5815
libr	-5816
ober	-5817
rash	-5818
rece	-5819
smoo	-5820
tual	-5821
uel▁	-5822
ures	-5823
Coper	-5824
Holy▁	-5825
alleg	-5826
apart	-5827
arise	-5828
attes	-5829
blood	-5830
bread	-5831
charg	-5832
deep▁	-5833
dilig	-5834
domin	-5835
empty	-5836
flesh	-5837
forth	-5838
genus	-5839
kinds	-5840
proph	-5841
prove	-5842
remed	-5843
stars	-5844
tures	-5845
Isaac▁	-5846
Other▁	-5847
Physic	-5848
Which▁	-5849
angle▁	-5850
appeti	-5851
basic▁	-5852
cleare	-5853
daily▁	-5854
enjoy▁	-5855
entire	-5856
entity	-5857
errone	-5858
extent	-5859
little	-5860
naked▁	-5861
narrow	-5862
opport	-5863
ority▁	-5864
pleasu	-5865
prefer	-5866
premis	-5867
prepar	-5868
remedi	-5869
slight	-5870
sphere	-5871
style▁	-5872
theory	-5873
topic▁	-5874
ucing▁	-5875
united	-5876
unite▁	-5877
vacuum	-5878
watch▁	-5879
Indeed▁	-5880
bodily▁	-5881
causal▁	-5882
discipl	-5883
distrib	-5884
disturb	-5885
ection▁	-5886
gravity	-5887
history	-5888
industr	-5889
inward▁	-5890
iously▁	-5891
itably▁	-5892
marked▁	-5893
master▁	-5894
miracul	-5895
profess	-5896
scrutin	-5897
stated▁	-5898
suited▁	-5899
termed▁	-5900
viewed▁	-5901
whether	-5902
accident	-5903
altered▁	-5904
benefit▁	-5905
briefly▁	-5906
declare▁	-5907
discerni	-5908
engaged▁	-5909
exclude▁	-5910
falling▁	-5911
genuine▁	-5912
hardness	-5913
imagined	-5914
lacking▁	-5915
organic▁	-5916
powerful	-5917
presume▁	-5918
private▁	-5919
quiring▁	-5920
rational	-5921
relative	-5922
remarks▁	-5923
sibility	-5924
talking▁	-5925
whatever	-5926
bestowed▁	-5927
entitled▁	-5928
objective	-5929
observes▁	-5930
predicate	-5931
regulate▁	-5932
remained▁	-5933
respects▁	-5934
sensibly▁	-5935
simplest▁	-5936
suffices▁	-5937
syllogism	-5938
Principle▁	-5939
analogies▁	-5940
cognizing▁	-5941
discovered	-5942
intrinsic▁	-5943
mediately▁	-5944
repugnant▁	-5945
resulting▁	-5946
Objections▁	-5947
controversy	-5948
corpuscles▁	-5949
explicated▁	-5950
inadequate▁	-5951
instrument▁	-5952
intimately▁	-5953
materially▁	-5954
occasional▁	-5955
separation▁	-5956
attributing▁	-5957
discovering▁	-5958
productions▁	-5959
progression▁	-5960
contradictory	-5961
experimental▁	-5962
simultaneous▁	-5963
universality▁	-5964
demonstrative▁	-5965
characteristic▁	-5966
77	-5967
<<	-5968
Im	-5969
Li	-5970
Sh	-5971
ug	-5972
166	-5973
Gre	-5974
Pla	-5975
]]▁	-5976
amp	-5977
blu	-5978
dut	-5979
een	-5980
ema	-5981
fix	-5982
inj	-5983
ise	-5984
lei	-5985
lod	-5986
mob	-5987
twi	-5988
typ	-5989
un▁	-5990
win	-5991
wom	-5992
.),▁	-5993
31.▁	-5994
Prob	-5995
Who▁	-5996
ail▁	-5997
ata▁	-5998
ator	-5999
beha	-6000
cher	-6001
err▁	-6002
fix▁	-6003
liqu	-6004
mena	-6005
note	-6006
plur	-6007
trav	-6008
uted	-6009
vary	-6010
vere	-6011
weal	-6012
Exist	-6013
appea	-6014
avail	-6015
dead▁	-6016
exemp	-6017
fies▁	-6018
figur	-6019
hence	-6020
heter	-6021
insic	-6022
ized▁	-6023
mine▁	-6024
ords▁	-6025
servi	-6026
three	-6027
tible	-6028
tute▁	-6029
vary▁	-6030
walk▁	-6031
wards	-6032
watch	-6033
zing▁	-6034
Ariew▁	-6035
Percep	-6036
Prince	-6037
abuse▁	-6038
anatom	-6039
behavi	-6040
child▁	-6041
choice	-6042
deals▁	-6043
errors	-6044
guide▁	-6045
hopes▁	-6046
labor▁	-6047
looks▁	-6048
nerves	-6049
night▁	-6050
osing▁	-6051
period	-6052
sovere	-6053
steps▁	-6054
stones	-6055
strang	-6056
suscep	-6057
titude	-6058
weight	-6059
yester	-6060
Mathema	-6061
arithme	-6062
capable	-6063
decide▁	-6064
defect▁	-6065
depends	-6066
engage▁	-6067
feeling	-6068
fourth▁	-6069
granted	-6070
hinder▁	-6071
histori	-6072
lights▁	-6073
lively▁	-6074
mistake	-6075
paralle	-6076
pleases	-6077
practic	-6078
pronoun	-6079
raises▁	-6080
refuse▁	-6081
relate▁	-6082
reveal▁	-6083
servant	-6084
sities▁	-6085
spread▁	-6086
surface	-6087
texture	-6088
virtues	-6089
willed▁	-6090
Through▁	-6091
abandon▁	-6092
authors▁	-6093
calling▁	-6094
careful▁	-6095
connect▁	-6096
contend▁	-6097
doubting	-6098
heavens▁	-6099
mixture▁	-6100
morality	-6101
observed	-6102
pleases▁	-6103
prescrib	-6104
propose▁	-6105
refrain▁	-6106
setting▁	-6107
settled▁	-6108
success▁	-6109
suggest▁	-6110
wanting▁	-6111
Highness▁	-6112
accepted▁	-6113
approach▁	-6114
attention	-6115
borrowed▁	-6116
complain▁	-6117
completed	-6118
decision▁	-6119
entertain	-6120
faithful▁	-6121
frequent▁	-6122
indefinit	-6123
naturally	-6124
practical	-6125
starting▁	-6126
substanti	-6127
subsumed▁	-6128
Corollary▁	-6129
Principles	-6130
cognitive▁	-6131
community▁	-6132
compelled▁	-6133
component▁	-6134
furnishes▁	-6135
intention▁	-6136
permitted▁	-6137
resembles▁	-6138
similarly▁	-6139
uneasiness	-6140
witnesses▁	-6141
beforehand▁	-6142
controversi	-6143
discussion▁	-6144
established	-6145
objectively	-6146
particulars	-6147
physicians▁	-6148
recognizes▁	-6149
resolution▁	-6150
ridiculous▁	-6151
speculation	-6152
succeeding▁	-6153
Introduction	-6154
arrangement▁	-6155
comprehends▁	-6156
consciously▁	-6157
contrivance▁	-6158
entertained▁	-6159
instruction▁	-6160
spontaneity▁	-6161
susceptible▁	-6162
theologians▁	-6163
constituting▁	-6164
continuation▁	-6165
dispositions▁	-6166
inconceivable	-6167
misunderstand	-6168
insignificant▁	-6169
thoroughgoing▁	-6170
22	-6171
Em	-6172
IX	-6173
fy	-6174
i▁	-6175
._▁	-6176
>>▁	-6177
Col	-6178
Pas	-6179
Reg	-6180
She	-6181
Sto	-6182
Syn	-6183
Tex	-6184
afr	-6185
ban	-6186
dry	-6187
eli	-6188
ex▁	-6189
foo	-6190
hat	-6191
kes	-6192
lau	-6193
lid	-6194
lie	-6195
nic	-6196
ock	-6197
pea	-6198
pit	-6199
sag	-6200
sta	-6201
vap	-6202
25,▁	-6203
32.▁	-6204
abst	-6205
aces	-6206
bit▁	-6207
book	-6208
cut▁	-6209
enth	-6210
expl	-6211
fast	-6212
fini	-6213
fter	-6214
glob	-6215
gods	-6216
grow	-6217
gust	-6218
ison	-6219
istr	-6220
ker▁	-6221
ody▁	-6222
phor	-6223
quar	-6224
terr	-6225
tong	-6226
tum▁	-6227
umph	-6228
une▁	-6229
Antin	-6230
Each▁	-6231
Idea▁	-6232
Just▁	-6233
Mind▁	-6234
Monta	-6235
Pierr	-6236
Plato	-6237
Pray▁	-6238
abili	-6239
abund	-6240
bold▁	-6241
dare▁	-6242
days▁	-6243
exact	-6244
flow▁	-6245
forem	-6246
gold▁	-6247
guess	-6248
happy	-6249
heart	-6250
holy▁	-6251
ishes	-6252
knows	-6253
melan	-6254
never	-6255
ress▁	-6256
round	-6257
secur	-6258
signs	-6259
snow▁	-6260
third	-6261
ticip	-6262
Archim	-6263
Associ	-6264
Defini	-6265
Epicur	-6266
Oxford	-6267
Platon	-6268
Religi	-6269
achiev	-6270
ained▁	-6271
always	-6272
anyone	-6273
arises	-6274
arose▁	-6275
count▁	-6276
cultiv	-6277
kened▁	-6278
monad▁	-6279
obstin	-6280
onesel	-6281
piety▁	-6282
posit▁	-6283
seeing	-6284
should	-6285
stick▁	-6286
sweet▁	-6287
temper	-6288
thetic	-6289
tures▁	-6290
vision	-6291
voice▁	-6292
young▁	-6293
.......	-6294
Certain	-6295
Diction	-6296
Pierre▁	-6297
Shepher	-6298
abandon	-6299
beasts▁	-6300
center▁	-6301
chapter	-6302
company	-6303
correct	-6304
edition	-6305
element	-6306
ential▁	-6307
gained▁	-6308
greater	-6309
height▁	-6310
hesion▁	-6311
judges▁	-6312
justice	-6313
knowing	-6314
members	-6315
natures	-6316
pattern	-6317
permit▁	-6318
praise▁	-6319
purposi	-6320
sensing	-6321
showed▁	-6322
suffer▁	-6323
thence▁	-6324
triumph	-6325
uniform	-6326
yellow▁	-6327
Archimed	-6328
Religion	-6329
approach	-6330
bounded▁	-6331
children	-6332
complain	-6333
desired▁	-6334
exceeds▁	-6335
fashion▁	-6336
gravity▁	-6337
idealism	-6338
offered▁	-6339
ordered▁	-6340
painful▁	-6341
partial▁	-6342
rectilin	-6343
refined▁	-6344
refuted▁	-6345
surface▁	-6346
wherein▁	-6347
Analytic▁	-6348
Christian	-6349
certainly	-6350
contrast▁	-6351
discovery	-6352
exception	-6353
fictions▁	-6354
generally	-6355
important	-6356
instinct▁	-6357
machines▁	-6358
measured▁	-6359
occasions	-6360
particles	-6361
passages▁	-6362
renounce▁	-6363
revealed▁	-6364
skeptics▁	-6365
sleeping▁	-6366
strongly▁	-6367
surfaces▁	-6368
volitions	-6369
Existence▁	-6370
attentive▁	-6371
countless▁	-6372
curiosity▁	-6373
greatness▁	-6374
heterogene	-6375
initially▁	-6376
invention▁	-6377
mechanism▁	-6378
reconcile▁	-6379
referring▁	-6380
reflected▁	-6381
sentiments	-6382
separable▁	-6383
surprised▁	-6384
willingly▁	-6385
antecedent▁	-6386
assistance▁	-6387
coexistence	-6388
cogitative▁	-6389
contradict▁	-6390
determinate	-6391
existences▁	-6392
illustrate▁	-6393
incomplete▁	-6394
separately▁	-6395
theological▁	-6396
traditional▁	-6397
Consequently▁	-6398
divisibility▁	-6399
intervention▁	-6400
transcendental	-6401
unintelligible	-6402
contradictions▁	-6403
demonstrations▁	-6404
distinguishable▁	-6405
1-	-6406
2–	-6407
37	-6408
48	-6409
69	-6410
E▁	-6411
Ta	-6412
oa	-6413
4)▁	-6414
5,▁	-6415
Ano	-6416
Be▁	-6417
Cre	-6418
Jan	-6419
Man	-6420
Org	-6421
Pre	-6422
Prs	-6423
asm	-6424
cel	-6425
fif	-6426
foc	-6427
fol	-6428
ges	-6429
get	-6430
hot	-6431
lap	-6432
mad	-6433
met	-6434
mou	-6435
ne▁	-6436
1989	-6437
3).▁	-6438
33.▁	-6439
Had▁	-6440
Like	-6441
Sear	-6442
Set▁	-6443
VIII	-6444
ants	-6445
ark▁	-6446
awar	-6447
cand	-6448
chec	-6449
clar	-6450
dict	-6451
elev	-6452
ends	-6453
glim	-6454
hast	-6455
ile▁	-6456
into	-6457
leap	-6458
musc	-6459
oler	-6460
owe▁	-6461
per▁	-6462
rati	-6463
redi	-6464
sail	-6465
shoc	-6466
summ	-6467
teli	-6468
trea	-6469
uch▁	-6470
void	-6471
want	-6472
wide	-6473
xth▁	-6474
Empir	-6475
Intel	-6476
Many▁	-6477
Organ	-6478
Rober	-6479
Will▁	-6480
assem	-6481
aston	-6482
cast▁	-6483
cover	-6484
delic	-6485
dent▁	-6486
duly▁	-6487
ease▁	-6488
elech	-6489
ired▁	-6490
itive	-6491
itly▁	-6492
lish▁	-6493
lucid	-6494
moral	-6495
nate▁	-6496
promp	-6497
stopp	-6498
test▁	-6499
unto▁	-6500
Three▁	-6501
acious	-6502
acting	-6503
ators▁	-6504
axioms	-6505
convic	-6506
dence▁	-6507
dious▁	-6508
doubts	-6509
either	-6510
fault▁	-6511
gather	-6512
ingenu	-6513
inity▁	-6514
limbs▁	-6515
loves▁	-6516
quiry▁	-6517
region	-6518
scene▁	-6519
shapes	-6520
share▁	-6521
sively	-6522
smell▁	-6523
solve▁	-6524
stars▁	-6525
stock▁	-6526
thirst	-6527
travel	-6528
tries▁	-6529
yellow	-6530
Christ▁	-6531
Epicure	-6532
Oxford▁	-6533
Search▁	-6534
adhere▁	-6535
advance	-6536
altered	-6537
ascend▁	-6538
assure▁	-6539
bottom▁	-6540
concur▁	-6541
conserv	-6542
deeply▁	-6543
defend▁	-6544
eafter▁	-6545
empiric	-6546
excuse▁	-6547
fallen▁	-6548
indubit	-6549
intend▁	-6550
learned	-6551
losing▁	-6552
lowest▁	-6553
mysteri	-6554
obvious	-6555
occupy▁	-6556
perish▁	-6557
posing▁	-6558
prevail	-6559
remedy▁	-6560
resist▁	-6561
sensed▁	-6562
sources	-6563
speaks▁	-6564
strike▁	-6565
tually▁	-6566
twenty▁	-6567
wished▁	-6568
Fourthly	-6569
Galileo▁	-6570
answers▁	-6571
concreto	-6572
confine▁	-6573
contrari	-6574
critique	-6575
entelech	-6576
framing▁	-6577
intense▁	-6578
interest	-6579
joining▁	-6580
orderly▁	-6581
ordinary	-6582
presence	-6583
proposed	-6584
rejects▁	-6585
relates▁	-6586
schools▁	-6587
serious▁	-6588
service▁	-6589
suffers▁	-6590
texture▁	-6591
yourself	-6592
accounts▁	-6593
ancients▁	-6594
appeared▁	-6595
applying▁	-6596
composite	-6597
connects▁	-6598
contempor	-6599
doubtful▁	-6600
imagining	-6601
indispens	-6602
inferior▁	-6603
informed▁	-6604
modified▁	-6605
privation	-6606
rejected▁	-6607
supports▁	-6608
thorough▁	-6609
Aristoteli	-6610
Dialogues▁	-6611
answering▁	-6612
asserting▁	-6613
causation▁	-6614
correctly▁	-6615
customary▁	-6616
developed▁	-6617
dialectic▁	-6618
education▁	-6619
explicate▁	-6620
immovable▁	-6621
indicated▁	-6622
indiscerni	-6623
irregular▁	-6624
numerical▁	-6625
succeeded▁	-6626
successive	-6627
treatment▁	-6628
triangles▁	-6629
wonderful▁	-6630
Associated▁	-6631
disposition	-6632
generality▁	-6633
individuals	-6634
punishment▁	-6635
reciprocal▁	-6636
subsistent▁	-6637
variations▁	-6638
Malebranche▁	-6639
Metaphysics▁	-6640
arbitrarily▁	-6641
benevolence▁	-6642
coexistence▁	-6643
constrained▁	-6644
demonstrated	-6645
efficacious▁	-6646
presumption▁	-6647
speculation▁	-6648
Metaphysical▁	-6649
accomplished▁	-6650
simultaneity▁	-6651
superstition▁	-6652
suppositions▁	-6653
simultaneously	-6654
impenetrability	-6655
68	-6656
82	-6657
AS	-6658
ho	-6659
é▁	-6660
12▁	-6661
Amo	-6662
Doc	-6663
Euc	-6664
Eur	-6665
Mas	-6666
Sam	-6667
See	-6668
Yes	-6669
eds	-6670
els	-6671
elu	-6672
fee	-6673
gru	-6674
hem	-6675
his	-6676
ia▁	-6677
ire	-6678
nis	-6679
nou	-6680
pha	-6681
pon	-6682
ram	-6683
rel	-6684
rob	-6685
usi	-6686
ute	-6687
30.▁	-6688
36.▁	-6689
Geom	-6690
Its▁	-6691
Post	-6692
Sir▁	-6693
When	-6694
_."▁	-6695
ably	-6696
ador	-6697
ane▁	-6698
beg▁	-6699
cele	-6700
devi	-6701
eded	-6702
five	-6703
frag	-6704
ham▁	-6705
ites	-6706
lds▁	-6707
ler▁	-6708
make	-6709
nobl	-6710
sel▁	-6711
vain	-6712
vols	-6713
Demon	-6714
Have▁	-6715
Simil	-6716
admis	-6717
ances	-6718
asks▁	-6719
basis	-6720
bulk▁	-6721
cept▁	-6722
chall	-6723
emper	-6724
endow	-6725
essay	-6726
glimp	-6727
gods▁	-6728
grace	-6729
heavy	-6730
inted	-6731
itted	-6732
lives	-6733
manna	-6734
odicy	-6735
often	-6736
paper	-6737
play▁	-6738
publi	-6739
radic	-6740
skill	-6741
solic	-6742
speci	-6743
stem▁	-6744
their	-6745
tives	-6746
uary▁	-6747
years	-6748
Among▁	-6749
Christ	-6750
advers	-6751
alism▁	-6752
assump	-6753
beasts	-6754
beauty	-6755
birth▁	-6756
block▁	-6757
celebr	-6758
confir	-6759
denied	-6760
diffid	-6761
discur	-6762
embrac	-6763
ention	-6764
father	-6765
finger	-6766
habitu	-6767
heavy▁	-6768
improv	-6769
incess	-6770
indulg	-6771
infanc	-6772
keeps▁	-6773
living	-6774
machin	-6775
notes▁	-6776
organ▁	-6777
perish	-6778
plants	-6779
postul	-6780
speed▁	-6781
spend▁	-6782
spent▁	-6783
tained	-6784
usedly	-6785
utions	-6786
Appendi	-6787
Common▁	-6788
Whence▁	-6789
afraid▁	-6790
agents▁	-6791
anying▁	-6792
arisen▁	-6793
ceases▁	-6794
changed	-6795
closer▁	-6796
decreas	-6797
disappo	-6798
divided	-6799
equival	-6800
esteem▁	-6801
exceed▁	-6802
falsity	-6803
grants▁	-6804
guided▁	-6805
issues▁	-6806
letters	-6807
nourish	-6808
oppose▁	-6809
orical▁	-6810
orious▁	-6811
planets	-6812
privile	-6813
produce	-6814
seless▁	-6815
shapes▁	-6816
sudden▁	-6817
topics▁	-6818
trying▁	-6819
widely▁	-6820
worlds▁	-6821
Another▁	-6822
Theodicy	-6823
causing▁	-6824
compose▁	-6825
confirm▁	-6826
contains	-6827
country▁	-6828
creator▁	-6829
delight▁	-6830
directly	-6831
entities	-6832
extreme▁	-6833
fortune▁	-6834
friends▁	-6835
holding▁	-6836
keeping▁	-6837
lasting▁	-6838
learning	-6839
moments▁	-6840
necessit	-6841
negative	-6842
ological	-6843
peculiar	-6844
received	-6845
respects	-6846
retains▁	-6847
scruple▁	-6848
surpass▁	-6849
suspend▁	-6850
version▁	-6851
walking▁	-6852
Dialogues	-6853
Emotions▁	-6854
agreement	-6855
attached▁	-6856
becoming▁	-6857
clearest▁	-6858
commands▁	-6859
creating▁	-6860
decisive▁	-6861
demanded▁	-6862
deprived▁	-6863
deserves▁	-6864
direction	-6865
disappear	-6866
diversity	-6867
doctrines	-6868
doubting▁	-6869
elsewhere	-6870
finished▁	-6871
immutable	-6872
instances	-6873
learning▁	-6874
meanings▁	-6875
mountain▁	-6876
multiply▁	-6877
pleasing▁	-6878
prudence▁	-6879
satisfied	-6880
searches▁	-6881
spiritual	-6882
succeeds▁	-6883
superfici	-6884
transmit▁	-6885
unworthy▁	-6886
velocity▁	-6887
Elisabeth▁	-6888
Judgments▁	-6889
aggregate▁	-6890
alteration	-6891
ambiguity▁	-6892
available▁	-6893
completed▁	-6894
concludes▁	-6895
concourse▁	-6896
confusedly	-6897
continuity	-6898
displayed▁	-6899
everywhere	-6900
extending▁	-6901
indicates▁	-6902
magnitudes	-6903
marvelous▁	-6904
resistance	-6905
slightest▁	-6906
surpasses▁	-6907
undoubted▁	-6908
Everything▁	-6909
accidental▁	-6910
apparently▁	-6911
application	-6912
continuity▁	-6913
convincing▁	-6914
regularity▁	-6915
relatively▁	-6916
scholastic▁	-6917
similitude▁	-6918
subsequent▁	-6919
translated▁	-6920
unextended▁	-6921
abstraction▁	-6922
circumstance	-6923
concurrence▁	-6924
consistency▁	-6925
constitution	-6926
constructed▁	-6927
controversy▁	-6928
enlightened▁	-6929
experiences▁	-6930
intellectual	-6931
opportunity▁	-6932
penetrating▁	-6933
rectilinear▁	-6934
subsistence▁	-6935
accompanying▁	-6936
establishing▁	-6937
hypothetical▁	-6938
inclinations▁	-6939
indifference▁	-6940
preservation▁	-6941
undetermined▁	-6942
unreasonable▁	-6943
comprehensible▁	-6944
significations▁	-6945
.—	-6946
2/	-6947
65	-6948
67	-6949
76	-6950
Br	-6951
Cf	-6952
da	-6953
ys	-6954
)_▁	-6955
Cat	-6956
Ded	-6957
Ear	-6958
Gar	-6959
Gen	-6960
Hen	-6961
Sti	-6962
aid	-6963
bin	-6964
dit	-6965
ero	-6966
ita	-6967
la▁	-6968
oce	-6969
oly	-6970
ony	-6971
ope	-6972
orb	-6973
pou	-6974
rif	-6975
row	-6976
tac	-6977
ult	-6978
wel	-6979
.).▁	-6980
10,▁	-6981
17,▁	-6982
2),▁	-6983
35.▁	-6984
37.▁	-6985
41.▁	-6986
Alex	-6987
Auth	-6988
Chur	-6989
Cosm	-6990
Engl	-6991
Use▁	-6992
abor	-6993
ball	-6994
curr	-6995
diam	-6996
ding	-6997
enci	-6998
felt	-6999
joy▁	-7000
ming	-7001
ogra	-7002
ops▁	-7003
quan	-7004
rain	-7005
retr	-7006
scru	-7007
sign	-7008
sit▁	-7009
ster	-7010
take	-7011
tree	-7012
tric	-7013
wood	-7014
.....	-7015
Inter	-7016
black	-7017
chain	-7018
comit	-7019
decom	-7020
depth	-7021
encom	-7022
fate▁	-7023
ficti	-7024
flour	-7025
heard	-7026
honor	-7027
hour▁	-7028
izes▁	-7029
judic	-7030
magne	-7031
pains	-7032
quisi	-7033
sant▁	-7034
toler	-7035
vals▁	-7036
August	-7037
Clarke	-7038
Conclu	-7039
Democr	-7040
Plato▁	-7041
Roman▁	-7042
Schrif	-7043
Simple	-7044
Spirit	-7045
appari	-7046
approb	-7047
axiom▁	-7048
barbar	-7049
bracke	-7050
chance	-7051
choly▁	-7052
civil▁	-7053
congru	-7054
detail	-7055
dismis	-7056
draft▁	-7057
ering▁	-7058
exceed	-7059
facts▁	-7060
fewer▁	-7061
fills▁	-7062
fluid▁	-7063
formul	-7064
guard▁	-7065
incont	-7066
infirm	-7067
ition▁	-7068
letter	-7069
licity	-7070
lived▁	-7071
losed▁	-7072
mably▁	-7073
morals	-7074
poster	-7075
print▁	-7076
range▁	-7077
regist	-7078
rises▁	-7079
scope▁	-7080
search	-7081
smells	-7082
spaces	-7083
stood▁	-7084
substi	-7085
sudden	-7086
surely	-7087
tends▁	-7088
today▁	-7089
Author▁	-7090
Galileo	-7091
Geometr	-7092
Letters	-7093
Samuel▁	-7094
Thought	-7095
acquies	-7096
augment	-7097
blessed	-7098
decrees	-7099
desires	-7100
govern▁	-7101
health▁	-7102
heaven▁	-7103
humble▁	-7104
illing▁	-7105
inhabit	-7106
instant	-7107
mirror▁	-7108
noumena	-7109
posited	-7110
prescri	-7111
sacred▁	-7112
sensori	-7113
shadow▁	-7114
spaces▁	-7115
spring▁	-7116
support	-7117
tastes▁	-7118
tility▁	-7119
unique▁	-7120
unites▁	-7121
unlike▁	-7122
vanish▁	-7123
variety	-7124
vegetab	-7125
Intellec	-7126
Principi	-7127
Treatise	-7128
adequate	-7129
admitted	-7130
affairs▁	-7131
affirms▁	-7132
analysis	-7133
arguing▁	-7134
capacity	-7135
caution▁	-7136
chapter▁	-7137
coexist▁	-7138
concomit	-7139
confirma	-7140
deceiver	-7141
decided▁	-7142
dreaming	-7143
endeavor	-7144
enlarge▁	-7145
examined	-7146
external	-7147
goodness	-7148
greatly▁	-7149
hinders▁	-7150
itative▁	-7151
ousness▁	-7152
particip	-7153
predomin	-7154
pressed▁	-7155
profess▁	-7156
pursuit▁	-7157
quickly▁	-7158
raising▁	-7159
realize▁	-7160
repeated	-7161
rewards▁	-7162
sensing▁	-7163
strikes▁	-7164
totality	-7165
touches▁	-7166
varying▁	-7167
Elisabeth	-7168
claiming▁	-7169
cohesion▁	-7170
declared▁	-7171
defining▁	-7172
disorder▁	-7173
dreaming▁	-7174
education	-7175
enlarged▁	-7176
excludes▁	-7177
explains▁	-7178
feelings▁	-7179
following	-7180
formation	-7181
guidance▁	-7182
improper▁	-7183
insisted▁	-7184
intention	-7185
obscurity	-7186
perceives	-7187
perfectly	-7188
precepts▁	-7189
secondary	-7190
stripped▁	-7191
theorems▁	-7192
veracity▁	-7193
Dictionary	-7194
Objections	-7195
Objection▁	-7196
accompany▁	-7197
analogous▁	-7198
archetypes	-7199
ascribing▁	-7200
commonweal	-7201
compounded	-7202
conducted▁	-7203
contented▁	-7204
conviction	-7205
deception▁	-7206
described▁	-7207
everybody▁	-7208
existences	-7209
extrinsic▁	-7210
fortunate▁	-7211
fruitless▁	-7212
hypotheses	-7213
importance	-7214
inanimate▁	-7215
increased▁	-7216
ingenious▁	-7217
inquiring▁	-7218
intricate▁	-7219
introduce▁	-7220
judicious▁	-7221
mechanics▁	-7222
miraculous	-7223
plausible▁	-7224
pleasures▁	-7225
preferred▁	-7226
presently▁	-7227
privilege▁	-7228
propriety▁	-7229
rejecting▁	-7230
requiring▁	-7231
resolving▁	-7232
retaining▁	-7233
revelation	-7234
seemingly▁	-7235
seriously▁	-7236
somewhere▁	-7237
sweetness▁	-7238
unlimited▁	-7239
unquestion	-7240
accordingly	-7241
acknowledge	-7242
annihilate▁	-7243
apodeictic▁	-7244
attraction▁	-7245
coexisting▁	-7246
conceptions	-7247
conversant▁	-7248
conviction▁	-7249
descending▁	-7250
differences	-7251
differently	-7252
fallacious▁	-7253
incontestab	-7254
infallible▁	-7255
melancholy▁	-7256
occasioned▁	-7257
possession▁	-7258
productive▁	-7259
reputation▁	-7260
surprising▁	-7261
surrounded▁	-7262
uncertainty	-7263
worthwhile▁	-7264
contradicts▁	-7265
corpusculari	-7266
disagreement	-7267
imperfection	-7268
incessantly▁	-7269
mathematical	-7270
perceptible▁	-7271
receptivity▁	-7272
unification▁	-7273
Cosmological▁	-7274
conservation▁	-7275
extraordinary	-7276
materialists▁	-7277
nonexistence▁	-7278
organization▁	-7279
relationship▁	-7280
communicating▁	-7281
comprehension▁	-7282
correspondent▁	-7283
spontaneously▁	-7284
0▁	-7285
<▁	-7286
AN	-7287
Du	-7288
Gu	-7289
Hi	-7290
Id	-7291
TE	-7292
ii	-7293
pt	-7294
):▁	-7295
164	-7296
174	-7297
6)▁	-7298
>_▁	-7299
Aca	-7300
Cav	-7301
Chi	-7302
Châ	-7303
Cri	-7304
Dan	-7305
Edi	-7306
Mer	-7307
Pau	-7308
Ref	-7309
Rem	-7310
Sou	-7311
[27	-7312
ank	-7313
bre	-7314
cau	-7315
flo	-7316
fts	-7317
omy	-7318
ons	-7319
pap	-7320
rot	-7321
seq	-7322
sli	-7323
tho	-7324
tut	-7325
ump	-7326
ws▁	-7327
{12	-7328
{13	-7329
{17	-7330
{18	-7331
{19	-7332
12,▁	-7333
15,▁	-7334
21,▁	-7335
34.▁	-7336
39.▁	-7337
Anti	-7338
Hist	-7339
Paul	-7340
Reid	-7341
She▁	-7342
Spec	-7343
barr	-7344
born	-7345
croo	-7346
days	-7347
dedu	-7348
easy	-7349
educ	-7350
ense	-7351
enta	-7352
hot▁	-7353
itus	-7354
land	-7355
lic▁	-7356
lust	-7357
most	-7358
odd▁	-7359
ome▁	-7360
orum	-7361
ourn	-7362
pair	-7363
play	-7364
puzz	-7365
rare	-7366
rele	-7367
reli	-7368
sanc	-7369
scal	-7370
shif	-7371
stim	-7372
sub▁	-7373
sus▁	-7374
thic	-7375
uses	-7376
valu	-7377
verb	-7378
zes▁	-7379
Châte	-7380
Doctr	-7381
Exten	-7382
Monad	-7383
Note▁	-7384
Paul▁	-7385
Theod	-7386
These	-7387
acity	-7388
arms▁	-7389
atom▁	-7390
bent▁	-7391
birth	-7392
bles▁	-7393
brief	-7394
busy▁	-7395
cavil	-7396
child	-7397
depar	-7398
ears▁	-7399
epist	-7400
facts	-7401
fell▁	-7402
food▁	-7403
fully	-7404
gift▁	-7405
harm▁	-7406
imman	-7407
link▁	-7408
neces	-7409
nisci	-7410
novel	-7411
oyal▁	-7412
parce	-7413
parti	-7414
perni	-7415
posed	-7416
premi	-7417
rays▁	-7418
refer	-7419
schol	-7420
spect	-7421
stead	-7422
stret	-7423
swift	-7424
those	-7425
tiny▁	-7426
tism▁	-7427
while	-7428
wind▁	-7429
wont▁	-7430
Alexan	-7431
Analog	-7432
Bacon▁	-7433
Caesar	-7434
Effect	-7435
Moses▁	-7436
System	-7437
Works▁	-7438
aforem	-7439
angels	-7440
asleep	-7441
atory▁	-7442
awake▁	-7443
black▁	-7444
calcul	-7445
clock▁	-7446
comfor	-7447
elimin	-7448
exhaus	-7449
family	-7450
focus▁	-7451
hears▁	-7452
images	-7453
irresi	-7454
ische▁	-7455
ision▁	-7456
izing▁	-7457
lastly	-7458
loose▁	-7459
lower▁	-7460
medium	-7461
minor▁	-7462
occurr	-7463
paper▁	-7464
pardon	-7465
plans▁	-7466
propos	-7467
recoll	-7468
schema	-7469
spatio	-7470
story▁	-7471
stray▁	-7472
tells▁	-7473
texts▁	-7474
topics	-7475
tried▁	-7476
tuous▁	-7477
tured▁	-7478
twice▁	-7479
umber▁	-7480
unfit▁	-7481
utter▁	-7482
Cavendi	-7483
German▁	-7484
Powers▁	-7485
Substan	-7486
bestow▁	-7487
comment	-7488
double▁	-7489
elling▁	-7490
enthusi	-7491
exempt▁	-7492
exhaust	-7493
fabric▁	-7494
father▁	-7495
fiction	-7496
founded	-7497
globes▁	-7498
graces▁	-7499
ingredi	-7500
intuit▁	-7501
itting▁	-7502
judging	-7503
modest▁	-7504
monads▁	-7505
movable	-7506
multitu	-7507
omnisci	-7508
outside	-7509
pieces▁	-7510
plying▁	-7511
primary	-7512
ranked▁	-7513
recede▁	-7514
respond	-7515
school▁	-7516
smooth▁	-7517
steady▁	-7518
surmoun	-7519
Besides▁	-7520
Copernic	-7521
Likewise	-7522
Shepherd	-7523
activity	-7524
adapted▁	-7525
apparent	-7526
arrange▁	-7527
asserts▁	-7528
business	-7529
chimeras	-7530
context▁	-7531
darkness	-7532
deceived	-7533
deliver▁	-7534
devoted▁	-7535
disagree	-7536
disquisi	-7537
enabled▁	-7538
excited▁	-7539
existent	-7540
feature▁	-7541
fiction▁	-7542
flatter▁	-7543
ignorant	-7544
immateri	-7545
inction▁	-7546
interven	-7547
kingdom▁	-7548
likewise	-7549
magnific	-7550
mentary▁	-7551
mission▁	-7552
occurred	-7553
oneself▁	-7554
opposite	-7555
placing▁	-7556
pointed▁	-7557
posited▁	-7558
project▁	-7559
property	-7560
reports▁	-7561
running▁	-7562
singular	-7563
unusual▁	-7564
velocity	-7565
worship▁	-7566
Aesthetic	-7567
Appendix▁	-7568
Critical▁	-7569
Discourse	-7570
Doctrine▁	-7571
External▁	-7572
Schriften	-7573
Substance	-7574
chapters▁	-7575
coherent▁	-7576
compound▁	-7577
concourse	-7578
connected	-7579
divinity▁	-7580
eminently	-7581
falsehood	-7582
fleeting▁	-7583
granting▁	-7584
inhering▁	-7585
intrinsic	-7586
irresisti	-7587
mistakes▁	-7588
objected▁	-7589
patterns▁	-7590
prejudice	-7591
premises▁	-7592
repeated▁	-7593
security▁	-7594
separated	-7595
strength▁	-7596
striking▁	-7597
thinkers▁	-7598
undoubted	-7599
variation	-7600
whiteness	-7601
yesterday	-7602
Synthetic▁	-7603
affirming▁	-7604
architect▁	-7605
attraction	-7606
awareness▁	-7607
confident▁	-7608
deceiving▁	-7609
doubtless▁	-7610
elsewhere▁	-7611
enumerate▁	-7612
expansion▁	-7613
friendship	-7614
generation	-7615
geometric▁	-7616
justified▁	-7617
objections	-7618
plurality▁	-7619
predicates	-7620
prejudices	-7621
primarily▁	-7622
providence	-7623
reception▁	-7624
regulated▁	-7625
separation	-7626
sovereign▁	-7627
statement▁	-7628
strongest▁	-7629
undertake▁	-7630
unextended	-7631
whiteness▁	-7632
Cartesians▁	-7633
Perception▁	-7634
affirmation	-7635
anticipate▁	-7636
beneficial▁	-7637
confounded▁	-7638
contrivance	-7639
convenient▁	-7640
dissection▁	-7641
empirically	-7642
endeavored▁	-7643
equivalent▁	-7644
expressing▁	-7645
homogeneous	-7646
indefinitum	-7647
inevitably▁	-7648
legitimate▁	-7649
multiplied▁	-7650
omnipotence	-7651
perceivable	-7652
positively▁	-7653
regardless▁	-7654
restricted▁	-7655
revelation▁	-7656
unavoidable	-7657
understands	-7658
accommodate▁	-7659
aforemention	-7660
annihilated▁	-7661
collections▁	-7662
conversation	-7663
dissolution▁	-7664
illustrious▁	-7665
inclinations	-7666
information▁	-7667
investigate▁	-7668
limitations▁	-7669
omnipotence▁	-7670
perceivable▁	-7671
perpetually▁	-7672
simultaneous	-7673
sufficiency▁	-7674
unavoidably▁	-7675
undoubtedly▁	-7676
universality	-7677
Intellectual▁	-7678
advantageous▁	-7679
annihilation▁	-7680
commensurate▁	-7681
construction▁	-7682
experiential▁	-7683
imaginations▁	-7684
impossibility	-7685
insufficient▁	-7686
mechanically▁	-7687
proportioned▁	-7688
subjectively▁	-7689
contemplating▁	-7690
contradictions	-7691
heterogeneous▁	-7692
imperfections▁	-7693
presupposition	-7694
uninterrupted▁	-7695
Philosophische▁	-7696
inconsiderable▁	-7697
8/	-7698
9/	-7699
Bx	-7700
Er	-7701
Ol	-7702
Po	-7703
XI	-7704
Y▁	-7705
{9	-7706
–4	-7707
'_▁	-7708
168	-7709
Cic	-7710
Fre	-7711
Hea	-7712
IV▁	-7713
Jes	-7714
Jup	-7715
Mol	-7716
Rog	-7717
Sir	-7718
TS▁	-7719
Why	-7720
[26	-7721
[29	-7722
];▁	-7723
_<▁	-7724
bat	-7725
ius	-7726
len	-7727
pag	-7728
rap	-7729
rim	-7730
riv	-7731
uph	-7732
vig	-7733
wic	-7734
{10	-7735
{15	-7736
{16	-7737
{20	-7738
{23	-7739
{24	-7740
{25	-7741
{26	-7742
{27	-7743
{29	-7744
{30	-7745
{33	-7746
{35	-7747
{36	-7748
{37	-7749
{38	-7750
{39	-7751
{40	-7752
{43	-7753
{44	-7754
{47	-7755
{48	-7756
{49	-7757
{50	-7758
{53	-7759
{55	-7760
{57	-7761
{58	-7762
{59	-7763
{60	-7764
{63	-7765
{64	-7766
{65	-7767
{66	-7768
{67	-7769
{68	-7770
{69	-7771
{70	-7772
{73	-7773
{74	-7774
{75	-7775
{76	-7776
{77	-7777
{79	-7778
{80	-7779
{83	-7780
{84	-7781
{85	-7782
{86	-7783
{87	-7784
{88	-7785
18,▁	-7786
27,▁	-7787
29,▁	-7788
32,▁	-7789
38.▁	-7790
40,▁	-7791
Dist	-7792
Happ	-7793
Hipp	-7794
III▁	-7795
Last	-7796
Skep	-7797
Then	-7798
ade▁	-7799
alge	-7800
ambi	-7801
audi	-7802
blam	-7803
cast	-7804
dise	-7805
each	-7806
eman	-7807
ens▁	-7808
entr	-7809
ern▁	-7810
fath	-7811
fell	-7812
fiel	-7813
food	-7814
friv	-7815
gard	-7816
hous	-7817
ible	-7818
ify▁	-7819
igne	-7820
key▁	-7821
list	-7822
nega	-7823
oms▁	-7824
plen	-7825
rich	-7826
sea▁	-7827
sigh	-7828
task	-7829
thal	-7830
thro	-7831
wing	-7832
Also▁	-7833
Boyle	-7834
Colle	-7835
Jupit	-7836
Olden	-7837
Opini	-7838
Peter	-7839
Sense	-7840
Where	-7841
added	-7842
ague▁	-7843
aims▁	-7844
angle	-7845
appel	-7846
arrog	-7847
ases▁	-7848
asked	-7849
aspec	-7850
astic	-7851
base▁	-7852
blame	-7853
books	-7854
depic	-7855
dispu	-7856
drop▁	-7857
ests▁	-7858
fixed	-7859
gets▁	-7860
ghost	-7861
globe	-7862
grow▁	-7863
ints▁	-7864
iron▁	-7865
issue	-7866
istic	-7867
itude	-7868
▁	-7869
e	-7870
t	-7871
i	-7872
o	-7873
n	-7874
a	-7875
s	-7876
r	-7877
h	-7878
l	-7879
d	-7880
c	-7881
u	-7882
f	-7883
m	-7884
p	-7885
y	-7886
w	-7887
g	-7888
,	-7889
b	-7890
v	-7891
.	-7892
_	-7893
k	-7894
I	-7895
x	-7896
T	-7897
j	-7898
q	-7899
A	-7900
;	-7901
B	-7902
(	-7903
)	-7904
1	-7905
P	-7906
G	-7907
F	-7908
H	-7909
S	-7910
2	-7911
3	-7912
—	-7913
'	-7914
C	-7915
"	-7916
6	-7917
?	-7918
4	-7919
[	-7920
]	-7921
W	-7922
5	-7923
7	-7924
:	-7925
N	-7926
8	-7927
D	-7928
M	-7929
z	-7930
#	-7931
O	-7932
9	-7933
0	-7934
L	-7935
{	-7936
}	-7937
E	-7938
-	-7939
R	-7940
Y	-7941
V	-7942
U	-7943
*	-7944
/	-7945
J	-7946
§	-7947
–	-7948
K	-7949
!	-7950
X	-7951
>	-7952
<	-7953
é	-7954
Q	-7955
=	-7956
â	-7957
Z	-7958
è	-7959
&	-7960
+	-7961
ç	-7962
α	-7963
τ	-7964
ε	-7965
ι	-7966
ν	-7967
ö	-7968
ί	-7969
ρ	-7970
ê	-7971
ü	-7972
ο	-7973
É	-7974
ä	-7975
λ	-7976
χ	-7977
©	-7978
à	-7979
ë	-7980
ï	-7981
ά	-7982
ή	-7983
η	-7984
κ	-7985
ξ	-7986
π	-7987
υ	-7988
ψ	-7989
ἀ	-7990
ἦ	-7991
ἱ	-7992
ἴ	-7993
ἵ	-7994
ὀ	-7995
ὴ	-7996
