<unk>	0
<s>	0
</s>	0
th	-0
in	-1
the	-2
an	-3
on	-4
re	-5
at	-6
er	-7
is	-8
en	-9
of	-10
it	-11
es	-12
or	-13
al	-14
ou	-15
to	-16
and	-17
ing	-18
as	-19
ion	-20
se	-21
ce	-22
ed	-23
no	-24
ar	-25
wh	-26
that	-27
ic	-28
be	-29
st	-30
le	-31
ly	-32
ct	-33
om	-34
con	-35
de	-36
ve	-37
ent	-38
su	-39
me	-40
not	-41
we	-42
ut	-43
ex	-44
wi	-45
od	-46
im	-47
ver	-48
pr	-49
he	-50
po	-51
ther	-52
ha	-53
are	-54
ich	-55
which	-56
thing	-57
per	-58
all	-59
ect	-60
for	-61
ir	-62
so	-63
ll	-64
ation	-65
ch	-66
un	-67
gh	-68
by	-69
ter	-70
ld	-71
if	-72
this	-73
ay	-74
mo	-75
with	-76
ist	-77
si	-78
ab	-79
fr	-80
ain	-81
ess	-82
ence	-83
tr	-84
can	-85
ity	-86
from	-87
us	-88
ure	-89
our	-90
pre	-91
ow	-92
ind	-93
der	-94
have	-95
qu	-96
ide	-97
one	-98
any	-99
other	-100
but	-101
ough	-102
ul	-103
iv	-104
id	-105
il	-106
ould	-107
ne	-108
ies	-109
them	-110
pt	-111
com	-112
ob	-113
ca	-114
ions	-115
act	-116
use	-117
pos	-118
pl	-119
they	-120
do	-121
ac	-122
there	-123
art	-124
sel	-125
ate	-126
ge	-127
now	-128
pe	-129
ur	-130
ject	-131
ive	-132
ph	-133
pro	-134
sen	-135
nd	-136
out	-137
man	-138
ak	-139
ad	-140
fo	-141
its	-142
sub	-143
sa	-144
ble	-145
only	-146
ci	-147
ome	-148
em	-149
ag	-150
li	-151
am	-152
ition	-153
reas	-154
know	-155
cept	-156
ust	-157
The	-158
bod	-159
his	-160
nat	-161
part	-162
what	-163
_.	-164
end	-165
ere	-166
ance	-167
tain	-168
some	-169
exist	-170
reason	-171
ple	-172
will	-173
sh	-174
things	-175
ap	-176
God	-177
ces	-178
very	-179
self	-180
int	-181
though	-182
cause	-183
mind	-184
their	-185
who	-186
able	-187
co	-188
ev	-189
object	-190
pres	-191
sp	-192
cer	-193
being	-194
But	-195
ideas	-196
ous	-197
ant	-198
under	-199
ff	-200
est	-201
these	-202
et	-203
more	-204
way	-205
sible	-206
wor	-207
ment	-208
same	-209
ical	-210
has	-211
ig	-212
fore	-213
must	-214
would	-215
ose	-216
nature	-217
such	-218
For	-219
reat	-220
you	-221
mat	-222
iff	-223
than	-224
idea	-225
ans	-226
stand	-227
body	-228
my	-229
fin	-230
subst	-231
diff	-232
ink	-233
form	-234
ations	-235
ary	-236
nt	-237
cess	-238
may	-239
dis	-240
ace	-241
ally	-242
ght	-243
ire	-244
str	-245
ite	-246
think	-247
And	-248
those	-249
ound	-250
tion	-251
without	-252
ard	-253
tru	-254
ke	-255
term	-256
cor	-257
ves	-258
up	-259
ud	-260
ake	-261
dist	-262
understand	-263
when	-264
ish	-265
ti	-266
certain	-267
um	-268
cannot	-269
cl	-270
peri	-271
led	-272
ser	-273
appe	-274
ine	-275
concept	-276
Th	-277
ances	-278
present	-279
inci	-280
sens	-281
ong	-282
nothing	-283
necess	-284
say	-285
cond	-286
gn	-287
does	-288
appear	-289
every	-290
itself	-291
wer	-292
lo	-293
experi	-294
time	-295
icul	-296
possible	-297
ast	-298
ma	-299
ext	-300
princi	-301
ceiv	-302
ilo	-303
experience	-304
was	-305
thought	-306
real	-307
ffect	-308
ince	-309
red	-310
el	-311
matter	-312
also	-313
soph	-314
then	-315
existence	-316
ise	-317
knowled	-318
ilosoph	-319
irst	-320
differe	-321
into	-322
determ	-323
even	-324
pose	-325
hap	-326
another	-327
own	-328
less	-329
ill	-330
knowledge	-331
great	-332
..	-333
reg	-334
him	-335
Pr	-336
ceive	-337
rough	-338
mon	-339
substance	-340
ty	-341
sup	-342
sion	-343
were	-344
understanding	-345
consi	-346
ree	-347
ach	-348
motion	-349
selves	-350
go	-351
sol	-352
ho	-353
philosoph	-354
odu	-355
because	-356
ari	-357
ial	-358
sim	-359
aw	-360
most	-361
ness	-362
power	-363
iver	-364
gen	-365
first	-366
sy	-367
jud	-368
could	-369
see	-370
objects	-371
therefore	-372
call	-373
cons	-374
ways	-375
ol	-376
should	-377
ight	-378
It	-379
qual	-380
bodies	-381
never	-382
llow	-383
finite	-384
ame	-385
tern	-386
since	-387
mere	-388
through	-389
nor	-390
itions	-391
uman	-392
spe	-393
ither	-394
oul	-395
ort	-396
imag	-397
determin	-398
wo	-399
ction	-400
make	-401
giv	-402
produ	-403
sense	-404
gu	-405
soul	-406
been	-407
op	-408
upon	-409
something	-410
gr	-411
fect	-412
follow	-413
position	-414
ding	-415
contr	-416
This	-417
In	-418
cont	-419
rel	-420
vi	-421
percept	-422
bet	-423
ute	-424
oc	-425
whe	-426
here	-427
ples	-428
des	-429
human	-430
ning	-431
order	-432
ber	-433
perfect	-434
two	-435
uch	-436
te	-437
world	-438
ated	-439
different	-440
ref	-441
gener	-442
cas	-443
distin	-444
represent	-445
ility	-446
ities	-447
pri	-448
lear	-449
ident	-450
subject	-451
),	-452
men	-453
ics	-454
ici	-455
parts	-456
yet	-457
br	-458
Ph	-459
intu	-460
true	-461
natur	-462
med	-463
ceived	-464
ual	-465
like	-466
about	-467
icular	-468
seem	-469
how	-470
effect	-471
particular	-472
ys	-473
where	-474
always	-475
themselves	-476
ins	-477
cogn	-478
had	-479
ternal	-480
caus	-481
av	-482
.,	-483
iz	-484
name	-485
consider	-486
whether	-487
long	-488
given	-489
ass	-490
much	-491
accor	-492
tri	-493
ew	-494
ang	-495
senses	-496
ori	-497
space	-498
univer	-499
find	-500
regard	-501
ers	-502
found	-503
judg	-504
principles	-505
pure	-506
infinite	-507
ments	-508
ever	-509
fact	-510
bo	-511
nce	-512
general	-513
sib	-514
Wh	-515
sensible	-516
distinct	-517
ween	-518
cur	-519
between	-520
ved	-521
kind	-522
cr	-523
word	-524
concer	-525
many	-526
bl	-527
There	-528
plain	-529
sequ	-530
inf	-531
ible	-532
law	-533
natural	-534
ving	-535
ently	-536
beli	-537
ra	-538
inde	-539
thes	-540
according	-541
place	-542
eas	-543
phys	-544
proper	-545
ied	-546
priori	-547
your	-548
exam	-549
truth	-550
au	-551
wever	-552
pend	-553
just	-554
clear	-555
shall	-556
sur	-557
ension	-558
necessary	-559
still	-560
itt	-561
).	-562
II	-563
appearances	-564
af	-565
either	-566
made	-567
each	-568
anything	-569
argu	-570
##	-571
ination	-572
intuition	-573
ner	-574
att	-575
read	-576
produce	-577
oub	-578
par	-579
lect	-580
said	-581
comple	-582
main	-583
qualities	-584
thinking	-585
cou	-586
ude	-587
suppose	-588
oubt	-589
spir	-590
ange	-591
point	-592
If	-593
concepts	-594
well	-595
contain	-596
emp	-597
ond	-598
creat	-599
doubt	-600
ory	-601
come	-602
ffici	-603
Phil	-604
ful	-605
sibility	-606
yl	-607
fe	-608
conf	-609
quest	-610
merely	-611
Hyl	-612
resp	-613
whole	-614
means	-615
causes	-616
solute	-617
nect	-618
syn	-619
const	-620
perception	-621
ib	-622
ofar	-623
connect	-624
action	-625
pen	-626
ately	-627
insofar	-628
obser	-629
quire	-630
common	-631
absolute	-632
div	-633
consequ	-634
mak	-635
num	-636
trans	-637
res	-638
ult	-639
over	-640
arily	-641
tic	-642
comm	-643
sign	-644
vol	-645
cious	-646
log	-647
attri	-648
attribut	-649
les	-650
substances	-651
oper	-652
We	-653
age	-654
ished	-655
principle	-656
mater	-657
thus	-658
tak	-659
ef	-660
ures	-661
den	-662
case	-663
again	-664
good	-665
conscious	-666
after	-667
fac	-668
fur	-669
wise	-670
empir	-671
fig	-672
ile	-673
medi	-674
sci	-675
called	-676
both	-677
namely	-678
far	-679
opin	-680
thesis	-681
ten	-682
perceive	-683
spec	-684
consist	-685
lim	-686
preh	-687
ative	-688
disco	-689
ences	-690
simple	-691
conceive	-692
everything	-693
ice	-694
ta	-695
ism	-696
thor	-697
ward	-698
material	-699
cour	-700
known	-701
empirical	-702
philosophy	-703
ict	-704
mod	-705
essence	-706
cap	-707
seems	-708
rather	-709
Thus	-710
laws	-711
concl	-712
difficul	-713
beg	-714
ok	-715
arr	-716
ents	-717
indeed	-718
ep	-719
put	-720
ended	-721
16	-722
question	-723
reasoning	-724
necessarily	-725
affect	-726
ceed	-727
sever	-728
others	-729
condition	-730
extension	-731
ific	-732
ited	-733
concerning	-734
unity	-735
relation	-736
gether	-737
number	-738
together	-739
entire	-740
ily	-741
anim	-742
depend	-743
inst	-744
alone	-745
himself	-746
Now	-747
give	-748
cend	-749
ingu	-750
vari	-751
several	-752
adm	-753
mean	-754
least	-755
col	-756
ell	-757
lif	-758
count	-759
abstr	-760
ality	-761
ear	-762
Hence	-763
before	-764
suffici	-765
lat	-766
ors	-767
external	-768
distingu	-769
life	-770
need	-771
port	-772
Pro	-773
light	-774
rest	-775
dered	-776
having	-777
new	-778
however	-779
ates	-780
else	-781
words	-782
explain	-783
son	-784
suc	-785
might	-786
deg	-787
force	-788
immedi	-789
mot	-790
press	-791
evident	-792
univers	-793
take	-794
pleas	-795
manner	-796
cho	-797
ue	-798
artes	-799
cognition	-800
fa	-801
cre	-802
meta	-803
course	-804
contin	-805
physics	-806
actions	-807
plic	-808
sive	-809
fal	-810
haps	-811
further	-812
sensation	-813
why	-814
ious	-815
ellig	-816
remain	-817
add	-818
notion	-819
intellig	-820
ental	-821
follows	-822
Therefore	-823
view	-824
anal	-825
atever	-826
perceived	-827
connection	-828
author	-829
myself	-830
orig	-831
whose	-832
eve	-833
mem	-834
person	-835
animal	-836
ned	-837
show	-838
minds	-839
state	-840
cir	-841
did	-842
demon	-843
hence	-844
dr	-845
stem	-846
change	-847
possibility	-848
pass	-849
itive	-850
usion	-851
imagination	-852
work	-853
ually	-854
second	-855
origin	-856
ittle	-857
ru	-858
hand	-859
pur	-860
demonstr	-861
little	-862
belong	-863
figure	-864
let	-865
judgment	-866
agre	-867
circ	-868
ought	-869
spirit	-870
believe	-871
2.	-872
err	-873
lig	-874
prob	-875
perhaps	-876
1.	-877
opinion	-878
thoughts	-879
ply	-880
appearance	-881
impossible	-882
considered	-883
og	-884
indiv	-885
themat	-886
17	-887
neither	-888
although	-889
perceptions	-890
Des	-891
greater	-892
complete	-893
false	-894
ark	-895
respect	-896
universe	-897
too	-898
used	-899
makes	-900
capable	-901
constit	-902
determined	-903
right	-904
bas	-905
empt	-906
abstract	-907
begin	-908
sed	-909
Desc	-910
comp	-911
Descartes	-912
ined	-913
system	-914
among	-915
oy	-916
sing	-917
ties	-918
itude	-919
account	-920
tur	-921
thetic	-922
bey	-923
happen	-924
contrad	-925
3.	-926
...	-927
sto	-928
proof	-929
mathemat	-930
tim	-931
while	-932
reality	-933
side	-934
separ	-935
exists	-936
require	-937
ack	-938
irm	-939
nam	-940
ren	-941
sc	-942
That	-943
allow	-944
cendental	-945
speak	-946
positions	-947
consciousness	-948
ask	-949
beings	-950
philosophers	-951
4.	-952
mor	-953
manif	-954
against	-955
science	-956
contrary	-957
necessity	-958
igh	-959
ready	-960
times	-961
entirely	-962
To	-963
motions	-964
beyond	-965
example	-966
discover	-967
whatever	-968
fre	-969
corpo	-970
Con	-971
prove	-972
effects	-973
simil	-974
uct	-975
pain	-976
ulty	-977
sity	-978
conditions	-979
cogniz	-980
proceed	-981
corporeal	-982
ord	-983
sort	-984
ellect	-985
compreh	-986
No	-987
atis	-988
incl	-989
move	-990
As	-991
taken	-992
adv	-993
hy	-994
hold	-995
ived	-996
occur	-997
clearly	-998
faculty	-999
lt	-1000
sum	-1001
Le	-1002
cy	-1003
prov	-1004
agreem	-1005
erence	-1006
lection	-1007
ourselves	-1008
old	-1009
sure	-1010
defin	-1011
vious	-1012
argument	-1013
universal	-1014
except	-1015
pin	-1016
iction	-1017
abl	-1018
mag	-1019
ution	-1020
individ	-1021
notions	-1022
already	-1023
judgments	-1024
sufficient	-1025
proposition	-1026
set	-1027
satis	-1028
former	-1029
similar	-1030
intellect	-1031
want	-1032
5.	-1033
aff	-1034
posed	-1035
Se	-1036
omen	-1037
sult	-1038
answer	-1039
series	-1040
He	-1041
pas	-1042
ey	-1043
lu	-1044
val	-1045
ular	-1046
pu	-1047
What	-1048
imagine	-1049
immediately	-1050
free	-1051
hypo	-1052
ings	-1053
asser	-1054
objective	-1055
niz	-1056
individual	-1057
wr	-1058
cus	-1059
often	-1060
ounds	-1061
oid	-1062
establ	-1063
agreement	-1064
absolutely	-1065
difference	-1066
metaphysics	-1067
On	-1068
ted	-1069
surd	-1070
absurd	-1071
synthetic	-1072
perceiv	-1073
Ar	-1074
De	-1075
mis	-1076
quite	-1077
latter	-1078
continu	-1079
certainty	-1080
Leib	-1081
ating	-1082
degree	-1083
species	-1084
ety	-1085
Leibniz	-1086
supposed	-1087
Ho	-1088
All	-1089
kept	-1090
synthesis	-1091
distinguish	-1092
ctr	-1093
once	-1094
theless	-1095
org	-1096
feel	-1097
quir	-1098
char	-1099
dire	-1100
names	-1101
sight	-1102
produced	-1103
consequently	-1104
ove	-1105
agree	-1106
equal	-1107
actual	-1108
result	-1109
unt	-1110
isible	-1111
ip	-1112
ced	-1113
occas	-1114
express	-1115
conceived	-1116
representations	-1117
turn	-1118
operations	-1119
19	-1120
ention	-1121
eternal	-1122
arguments	-1123
representation	-1124
So	-1125
ese	-1126
doctr	-1127
aim	-1128
draw	-1129
magn	-1130
existing	-1131
conv	-1132
above	-1133
ordin	-1134
derived	-1135
ines	-1136
8.	-1137
ix	-1138
sm	-1139
ane	-1140
empl	-1141
high	-1142
."	-1143
exp	-1144
inter	-1145
otherwise	-1146
Fr	-1147
etc	-1148
forms	-1149
really	-1150
gl	-1151
equ	-1152
wat	-1153
easily	-1154
enomen	-1155
bit	-1156
ides	-1157
These	-1158
comes	-1159
transcendental	-1160
aris	-1161
idence	-1162
6.	-1163
jo	-1164
try	-1165
mark	-1166
However	-1167
Un	-1168
ave	-1169
ird	-1170
ith	-1171
actually	-1172
ignor	-1173
skept	-1174
attribute	-1175
perfection	-1176
,"	-1177
sem	-1178
When	-1179
relig	-1180
Let	-1181
Nat	-1182
invol	-1183
small	-1184
reflection	-1185
thod	-1186
determine	-1187
cise	-1188
desire	-1189
mir	-1190
An	-1191
ably	-1192
ones	-1193
grant	-1194
within	-1195
logical	-1196
ided	-1197
consists	-1198
phenomen	-1199
7.	-1200
sha	-1201
ateg	-1202
spirits	-1203
0.	-1204
ath	-1205
bes	-1206
edu	-1207
ters	-1208
propositions	-1209
pred	-1210
icate	-1211
ann	-1212
deny	-1213
heat	-1214
moral	-1215
ade	-1216
They	-1217
fall	-1218
enter	-1219
three	-1220
better	-1221
charact	-1222
extended	-1223
vir	-1224
edom	-1225
infin	-1226
success	-1227
attributes	-1228
solid	-1229
stood	-1230
created	-1231
virt	-1232
identity	-1233
intelligible	-1234
infer	-1235
become	-1236
creatures	-1237
Mo	-1238
Of	-1239
pret	-1240
rule	-1241
admit	-1242
categ	-1243
ration	-1244
physical	-1245
beginning	-1246
peo	-1247
por	-1248
ends	-1249
circum	-1250
direct	-1251
inquir	-1252
various	-1253
...]	-1254
comb	-1255
last	-1256
says	-1257
[...]	-1258
occasion	-1259
understood	-1260
air	-1261
mist	-1262
chang	-1263
powers	-1264
ability	-1265
From	-1266
sent	-1267
freedom	-1268
contains	-1269
ie	-1270
method	-1271
people	-1272
9.	-1273
que	-1274
By	-1275
Cor	-1276
reach	-1277
truths	-1278
constant	-1279
manifold	-1280
lar	-1281
judge	-1282
ro	-1283
ify	-1284
mirac	-1285
ories	-1286
enough	-1287
....	-1288
affirm	-1289
single	-1290
cri	-1291
sun	-1292
carr	-1293
moved	-1294
prece	-1295
resem	-1296
meaning	-1297
dom	-1298
dur	-1299
ian	-1300
ision	-1301
preme	-1302
ax	-1303
hard	-1304
none	-1305
ouch	-1306
prim	-1307
sole	-1308
avoid	-1309
proved	-1310
animals	-1311
Be	-1312
You	-1313
tot	-1314
greatest	-1315
sensations	-1316
quant	-1317
appreh	-1318
observ	-1319
contradiction	-1320
done	-1321
look	-1322
past	-1323
bring	-1324
observe	-1325
unknown	-1326
doctrine	-1327
following	-1328
determination	-1329
ign	-1330
water	-1331
import	-1332
affected	-1333
pression	-1334
magnitude	-1335
angle	-1336
event	-1337
assent	-1338
assert	-1339
divine	-1340
ically	-1341
circumst	-1342
eng	-1343
iti	-1344
assu	-1345
plan	-1346
formed	-1347
making	-1348
che	-1349
ume	-1350
publ	-1351
Proof	-1352
liber	-1353
poses	-1354
terms	-1355
anyone	-1356
ull	-1357
aces	-1358
valid	-1359
memory	-1360
hypothesis	-1361
How	-1362
lead	-1363
theo	-1364
ules	-1365
itted	-1366
plied	-1367
pract	-1368
precise	-1369
properties	-1370
fl	-1371
analog	-1372
purpose	-1373
phenomena	-1374
difficulty	-1375
conditioned	-1376
inv	-1377
chan	-1378
influ	-1379
explic	-1380
basis	-1381
signific	-1382
contained	-1383
geome	-1384
until	-1385
wards	-1386
certainly	-1387
Proposition	-1388
fut	-1389
iar	-1390
rees	-1391
alter	-1392
unless	-1393
ck	-1394
ick	-1395
off	-1396
sec	-1397
avor	-1398
ress	-1399
corresp	-1400
outside	-1401
iversity	-1402
character	-1403
acc	-1404
dec	-1405
ild	-1406
Nature	-1407
commun	-1408
mechan	-1409
satisf	-1410
original	-1411
causality	-1412
seen	-1413
error	-1414
shown	-1415
ordinary	-1416
pleasure	-1417
constitut	-1418
sensibility	-1419
Ch	-1420
day	-1421
few	-1422
care	-1423
exact	-1424
modes	-1425
rules	-1426
conceiv	-1427
remains	-1428
conclude	-1429
her	-1430
easy	-1431
color	-1432
member	-1433
conform	-1434
equally	-1435
rational	-1436
distinctly	-1437
min	-1438
mom	-1439
extr	-1440
adequ	-1441
arise	-1442
specul	-1443
attempt	-1444
portion	-1445
distinction	-1446
Tr	-1447
rect	-1448
souls	-1449
touch	-1450
united	-1451
complex	-1452
positive	-1453
religion	-1454
ts	-1455
test	-1456
colors	-1457
skeptic	-1458
ens	-1459
ists	-1460
tell	-1461
angles	-1462
independ	-1463
influence	-1464
Or	-1465
inc	-1466
Hume	-1467
active	-1468
expect	-1469
arm	-1470
liv	-1471
neg	-1472
king	-1473
sour	-1474
treat	-1475
ential	-1476
facult	-1477
supreme	-1478
confused	-1479
maintain	-1480
faculties	-1481
dre	-1482
eyes	-1483
extent	-1484
future	-1485
limits	-1486
support	-1487
properly	-1488
succession	-1489
established	-1490
Second	-1491
reflect	-1492
accident	-1493
completely	-1494
dedu	-1495
logy	-1496
poss	-1497
stru	-1498
susp	-1499
claim	-1500
advant	-1501
partic	-1502
posite	-1503
appears	-1504
instance	-1505
love	-1506
refer	-1507
belief	-1508
believ	-1509
evidence	-1510
infinity	-1511
Nor	-1512
ele	-1513
hel	-1514
sound	-1515
degrees	-1516
itation	-1517
mankind	-1518
thereby	-1519
determinate	-1520
mathematics	-1521
nevertheless	-1522
bu	-1523
usu	-1524
fire	-1525
meas	-1526
dream	-1527
preser	-1528
virtue	-1529
mention	-1530
quality	-1531
difficult	-1532
os	-1533
lan	-1534
und	-1535
gain	-1536
earth	-1537
happens	-1538
Philosoph	-1539
cul	-1540
hope	-1541
lies	-1542
struct	-1543
obvious	-1544
operation	-1545
sometimes	-1546
ot	-1547
ged	-1548
ende	-1549
tast	-1550
ified	-1551
shape	-1552
strong	-1553
thinks	-1554
resembl	-1555
distinguished	-1556
ft	-1557
Yet	-1558
wis	-1559
ages	-1560
deal	-1561
piness	-1562
commonly	-1563
conclusion	-1564
supposition	-1565
**	-1566
15	-1567
Is	-1568
cold	-1569
coun	-1570
imon	-1571
custo	-1572
gives	-1573
resol	-1574
serve	-1575
worth	-1576
itique	-1577
soever	-1578
examine	-1579
triangle	-1580
difficulties	-1581
arch	-1582
ency	-1583
ship	-1584
attention	-1585
relations	-1586
ead	-1587
nate	-1588
faith	-1589
iness	-1590
knows	-1591
opinions	-1592
immediate	-1593
contradict	-1594
proportion	-1595
demonstration	-1596
Ex	-1597
apt	-1598
hear	-1599
ously	-1600
effici	-1601
hapter	-1602
concern	-1603
conception	-1604
New	-1605
imp	-1606
First	-1607
Since	-1608
analy	-1609
fully	-1610
imagin	-1611
ression	-1612
efficient	-1613
happiness	-1614
categories	-1615
philosophical	-1616
{6	-1617
vered	-1618
sciences	-1619
explained	-1620
whatsoever	-1621
18	-1622
{2	-1623
{7	-1624
surely	-1625
received	-1626
perceives	-1627
immaterial	-1628
{5	-1629
###	-1630
best	-1631
intr	-1632
prev	-1633
etern	-1634
moment	-1635
notice	-1636
previous	-1637
produces	-1638
consequences	-1639
lem	-1640
Reas	-1641
super	-1642
Reason	-1643
joined	-1644
render	-1645
impress	-1646
inquiry	-1647
limited	-1648
reasons	-1649
sufficiently	-1650
circumstances	-1651
{3	-1652
cing	-1653
lack	-1654
mode	-1655
works	-1656
includ	-1657
cognize	-1658
quantity	-1659
perfectly	-1660
ia	-1661
{4	-1662
{8	-1663
dem	-1664
third	-1665
union	-1666
innate	-1667
belongs	-1668
likewise	-1669
definition	-1670
Loc	-1671
acts	-1672
ixed	-1673
line	-1674
nces	-1675
prof	-1676
ting	-1677
short	-1678
applic	-1679
solely	-1680
wisdom	-1681
primary	-1682
everyone	-1683
help	-1684
peci	-1685
inner	-1686
receive	-1687
reference	-1688
correspond	-1689
observation	-1690
ief	-1691
ley	-1692
ered	-1693
whom	-1694
iment	-1695
langu	-1696
organ	-1697
sibly	-1698
teach	-1699
attain	-1700
employ	-1701
content	-1702
adequate	-1703
speaking	-1704
important	-1705
Our	-1706
fam	-1707
down	-1708
Locke	-1709
especi	-1710
events	-1711
creation	-1712
distance	-1713
testimon	-1714
naturally	-1715
mathematical	-1716
Es	-1717
More	-1718
acqu	-1719
soon	-1720
eness	-1721
exper	-1722
ground	-1723
conduct	-1724
depends	-1725
knowing	-1726
regular	-1727
relative	-1728
especially	-1729
13	-1730
za	-1731
bor	-1732
omy	-1733
subt	-1734
Trans	-1735
truly	-1736
points	-1737
reject	-1738
requires	-1739
preceding	-1740
get	-1741
pus	-1742
tal	-1743
heav	-1744
remo	-1745
close	-1746
organs	-1747
figures	-1748
problem	-1749
manifest	-1750
consequence	-1751
impressions	-1752
ze	-1753
rea	-1754
uni	-1755
ised	-1756
Princi	-1757
almost	-1758
liberty	-1759
communic	-1760
internal	-1761
itations	-1762
precisely	-1763
Med	-1764
leg	-1765
Spin	-1766
full	-1767
mach	-1768
pare	-1769
Spino	-1770
acity	-1771
readily	-1772
regards	-1773
testimony	-1774
oms	-1775
sist	-1776
sorts	-1777
takes	-1778
founded	-1779
highest	-1780
eternity	-1781
ets	-1782
xim	-1783
ices	-1784
plies	-1785
conver	-1786
Spinoza	-1787
variety	-1788
impression	-1789
reasonable	-1790
);	-1791
10	-1792
Part	-1793
cent	-1794
ford	-1795
lean	-1796
leep	-1797
seek	-1798
apply	-1799
ather	-1800
ultane	-1801
correct	-1802
possess	-1803
essential	-1804
discovered	-1805
foundation	-1806
Re	-1807
Ber	-1808
fan	-1809
book	-1810
fail	-1811
destr	-1812
arises	-1813
ection	-1814
rought	-1815
learned	-1816
whereas	-1817
Moreover	-1818
standing	-1819
substant	-1820
advantage	-1821
simultane	-1822
subjective	-1823
consideration	-1824
Def	-1825
fort	-1826
pref	-1827
accur	-1828
instru	-1829
analogy	-1830
addition	-1831
duration	-1832
observed	-1833
satisfact	-1834
reasonings	-1835
skepticism	-1836
perfections	-1837
12	-1838
ars	-1839
ery	-1840
lly	-1841
mut	-1842
sit	-1843
ven	-1844
Pure	-1845
four	-1846
brain	-1847
images	-1848
reader	-1849
willing	-1850
ignorance	-1851
particles	-1852
represented	-1853
14	-1854
Bo	-1855
III	-1856
lie	-1857
disp	-1858
keep	-1859
ount	-1860
longer	-1861
strict	-1862
cessive	-1863
required	-1864
establish	-1865
etr	-1866
ared	-1867
soci	-1868
suff	-1869
round	-1870
living	-1871
penetr	-1872
posing	-1873
philosopher	-1874
determinations	-1875
1,	-1876
she	-1877
brid	-1878
crib	-1879
imin	-1880
cases	-1881
empty	-1882
gover	-1883
maxim	-1884
ption	-1885
compar	-1886
iments	-1887
mistak	-1888
creature	-1889
ignorant	-1890
concerned	-1891
har	-1892
play	-1893
Berke	-1894
perman	-1895
remark	-1896
brought	-1897
subsist	-1898
affections	-1899
regression	-1900
considering	-1901
1}	-1902
low	-1903
bare	-1904
post	-1905
stud	-1906
pecul	-1907
circle	-1908
Chapter	-1909
acquire	-1910
changes	-1911
grounds	-1912
inquire	-1913
Berkeley	-1914
predicate	-1915
infinitely	-1916
independent	-1917
Su	-1918
io	-1919
loc	-1920
ton	-1921
writ	-1922
appro	-1923
occurs	-1924
proofs	-1925
dispute	-1926
modific	-1927
illusion	-1928
metaphysical	-1929
hon	-1930
Such	-1931
besides	-1932
conting	-1933
uniform	-1934
authority	-1935
practical	-1936
crit	-1937
based	-1938
image	-1939
assign	-1940
allowed	-1941
exactly	-1942
finally	-1943
passions	-1944
peculiar	-1945
substantial	-1946
_?	-1947
acy	-1948
gar	-1949
non	-1950
pal	-1951
aint	-1952
away	-1953
evil	-1954
leng	-1955
Being	-1956
Clean	-1957
accord	-1958
parent	-1959
retain	-1960
measure	-1961
endeavor	-1962
possibly	-1963
regarded	-1964
subjects	-1965
Cleanthes	-1966
perceiving	-1967
successive	-1968
(16	-1969
eye	-1970
ped	-1971
Kant	-1972
Scho	-1973
ants	-1974
ears	-1975
fear	-1976
ives	-1977
anger	-1978
cribe	-1979
moder	-1980
oblig	-1981
seeing	-1982
subtle	-1983
cerning	-1984
persons	-1985
pressed	-1986
pretend	-1987
secondary	-1988
altogether	-1989
ols	-1990
vel	-1991
excl	-1992
ises	-1993
quis	-1994
situ	-1995
bound	-1996
erest	-1997
length	-1998
saying	-1999
usions	-2000
Section	-2001
succeed	-2002
language	-2003
comprehen	-2004
connected	-2005
University	-2006
0}	-2007
8}	-2008
9}	-2009
IV	-2010
Cam	-2011
ben	-2012
fri	-2013
prog	-2014
step	-2015
sides	-2016
bridge	-2017
confess	-2018
related	-2019
Cambridge	-2020
intuitions	-2021
acknowledge	-2022
2}	-2023
3}	-2024
6}	-2025
7}	-2026
ash	-2027
ses	-2028
came	-2029
priv	-2030
redu	-2031
outer	-2032
differ	-2033
becomes	-2034
analytic	-2035
convince	-2036
solidity	-2037
continued	-2038
4}	-2039
Cr	-2040
Com	-2041
ike	-2042
row	-2043
exer	-2044
wish	-2045
carry	-2046
prior	-2047
design	-2048
taking	-2049
wholly	-2050
advance	-2051
unction	-2052
cognized	-2053
questions	-2054
3,	-2055
5}	-2056
gg	-2057
exc	-2058
pot	-2059
anci	-2060
ield	-2061
lium	-2062
weak	-2063
along	-2064
going	-2065
kinds	-2066
limit	-2067
sleep	-2068
formal	-2069
places	-2070
toward	-2071
useful	-2072
applied	-2073
existed	-2074
someone	-2075
interest	-2076
application	-2077
disagreement	-2078
Ide	-2079
ger	-2080
fill	-2081
obsc	-2082
added	-2083
leave	-2084
taste	-2085
signify	-2086
inference	-2087
mechanical	-2088
speculative	-2089
apprehension	-2090
Transcendental	-2091
aid	-2092
ail	-2093
nau	-2094
Here	-2095
hist	-2096
Deity	-2097
placed	-2098
destroy	-2099
instead	-2100
obscure	-2101
whereby	-2102
accidents	-2103
mentioned	-2104
constitutes	-2105
signification	-2106
20	-2107
See	-2108
aut	-2109
ech	-2110
furn	-2111
sect	-2112
udes	-2113
vice	-2114
Arnau	-2115
Human	-2116
apart	-2117
assum	-2118
extre	-2119
imate	-2120
Arnauld	-2121
Scholium	-2122
composed	-2123
contempl	-2124
volition	-2125
production	-2126
cha	-2127
def	-2128
left	-2129
path	-2130
large	-2131
moves	-2132
persu	-2133
print	-2134
shows	-2135
usual	-2136
assume	-2137
demand	-2138
sounds	-2139
matters	-2140
prevent	-2141
opposite	-2142
supposes	-2143
regarding	-2144
conformity	-2145
En	-2146
One	-2147
Per	-2148
won	-2149
ians	-2150
issu	-2151
narr	-2152
later	-2153
remote	-2154
search	-2155
Secondly	-2156
involves	-2157
comprehend	-2158
determines	-2159
objections	-2160
[3	-2161
Chr	-2162
cop	-2163
dog	-2164
vul	-2165
Aris	-2166
ener	-2167
ison	-2168
repe	-2169
Philo	-2170
frame	-2171
acting	-2172
predic	-2173
source	-2174
provided	-2175
expresses	-2176
conclusions	-2177
ih	-2178
ls	-2179
occ	-2180
smo	-2181
child	-2182
habit	-2183
custom	-2184
prejud	-2185
resist	-2186
vulgar	-2187
increas	-2188
visible	-2189
instances	-2190
satisfied	-2191
Principles	-2192
considerable	-2193
Do	-2194
Fin	-2195
ado	-2196
hor	-2197
ret	-2198
squ	-2199
wit	-2200
suit	-2201
Again	-2202
drawn	-2203
numer	-2204
passa	-2205
create	-2206
danger	-2207
granted	-2208
involve	-2209
solution	-2210
discourse	-2211
separated	-2212
constitute	-2213
combination	-2214
Sp	-2215
fit	-2216
dial	-2217
sche	-2218
sees	-2219
text	-2220
blind	-2221
forth	-2222
square	-2223
admitted	-2224
mer	-2225
rat	-2226
sugg	-2227
aries	-2228
beaut	-2229
endow	-2230
essed	-2231
extra	-2232
fancy	-2233
frequ	-2234
logic	-2235
discus	-2236
moving	-2237
public	-2238
product	-2239
suggest	-2240
Concerning	-2241
accordance	-2242
cognitions	-2243
composition	-2244
Ac	-2245
Al	-2246
Ax	-2247
],	-2248
ale	-2249
blo	-2250
pol	-2251
vey	-2252
wax	-2253
Book	-2254
ceas	-2255
dark	-2256
ized	-2257
mort	-2258
next	-2259
stone	-2260
utter	-2261
Christ	-2262
apparent	-2263
mistaken	-2264
conceivable	-2265
constitution	-2266
sk	-2267
Fur	-2268
Sch	-2269
dam	-2270
saw	-2271
ense	-2272
firm	-2273
open	-2274
scar	-2275
void	-2276
Press	-2277
ideal	-2278
wills	-2279
accept	-2280
ascribe	-2281
Critique	-2282
inations	-2283
consistent	-2284
resemblance	-2285
extraordinary	-2286
25	-2287
axi	-2288
del	-2289
ier	-2290
igu	-2291
bran	-2292
mell	-2293
Third	-2294
build	-2295
doing	-2296
afford	-2297
ensive	-2298
errors	-2299
icians	-2300
speech	-2301
sphere	-2302
Further	-2303
passion	-2304
probable	-2305
thorough	-2306
belonging	-2307
constantly	-2308
intellectual	-2309
1]	-2310
2,	-2311
6]	-2312
Ob	-2313
back	-2314
ihil	-2315
near	-2316
prom	-2317
aware	-2318
narrow	-2319
obtain	-2320
worthy	-2321
miracle	-2322
pertain	-2323
satisfy	-2324
geometry	-2325
8,	-2326
asp	-2327
eni	-2328
fter	-2329
note	-2330
rupt	-2331
stop	-2332
impul	-2333
ivity	-2334
smell	-2335
amount	-2336
disput	-2337
forces	-2338
friend	-2339
simply	-2340
Whatever	-2341
believed	-2342
contrast	-2343
essences	-2344
objection	-2345
situation	-2346
probability	-2347
universally	-2348
apperception	-2349
27	-2350
40	-2351
top	-2352
ibut	-2353
scho	-2354
uses	-2355
Under	-2356
aking	-2357
death	-2358
finds	-2359
holds	-2360
start	-2361
indiff	-2362
inhere	-2363
passes	-2364
scarce	-2365
command	-2366
capacity	-2367
division	-2368
absurdity	-2369
published	-2370
intelligent	-2371
Why	-2372
got	-2373
pet	-2374
Engl	-2375
arer	-2376
born	-2377
vain	-2378
Ideas	-2379
estig	-2380
Though	-2381
curity	-2382
harmon	-2383
ishing	-2384
please	-2385
weight	-2386
conject	-2387
divided	-2388
passive	-2389
towards	-2390
separate	-2391
entertain	-2392
generally	-2393
Philosophy	-2394
intelligence	-2395
satisfaction	-2396
comprehensible	-2397
8]	-2398
deed	-2399
itum	-2400
ouse	-2401
Accor	-2402
assur	-2403
chief	-2404
meant	-2405
rests	-2406
secre	-2407
Finally	-2408
introdu	-2409
plainly	-2410
validity	-2411
According	-2412
permanent	-2413
sequently	-2414
contingent	-2415
previously	-2416
Meditations	-2417
demonstrated	-2418
9]	-2419
ry	-2420
cal	-2421
ont	-2422
pie	-2423
run	-2424
head	-2425
size	-2426
After	-2427
Every	-2428
famil	-2429
ounce	-2430
reply	-2431
using	-2432
Cartes	-2433
Newton	-2434
attend	-2435
modern	-2436
dialect	-2437
insight	-2438
employed	-2439
investig	-2440
assurance	-2441
divisible	-2442
objectively	-2443
unconditioned	-2444
4]	-2445
Dis	-2446
eff	-2447
oll	-2448
With	-2449
foot	-2450
arbit	-2451
diver	-2452
analys	-2453
annihil	-2454
counter	-2455
provide	-2456
sources	-2457
scarcely	-2458
acknowled	-2459
imperfect	-2460
spiritual	-2461
Understanding	-2462
Mr	-2463
bus	-2464
cle	-2465
hib	-2466
joy	-2467
Some	-2468
decl	-2469
rise	-2470
ishes	-2471
leads	-2472
views	-2473
accomp	-2474
explan	-2475
extend	-2476
Aristot	-2477
extreme	-2478
quisite	-2479
directly	-2480
property	-2481
diversity	-2482
sensitive	-2483
separable	-2484
understands	-2485
3]	-2486
ks	-2487
pat	-2488
ened	-2489
ites	-2490
mult	-2491
deser	-2492
dimin	-2493
onous	-2494
study	-2495
years	-2496
acious	-2497
arbitr	-2498
cohere	-2499
concur	-2500
theory	-2501
familiar	-2502
miracles	-2503
Aristotle	-2504
Philonous	-2505
supposing	-2506
alteration	-2507
2]	-2508
7]	-2509
Met	-2510
bre	-2511
hes	-2512
obs	-2513
omn	-2514
cell	-2515
desp	-2516
fash	-2517
flow	-2518
agent	-2519
cript	-2520
empor	-2521
Rather	-2522
coming	-2523
cribed	-2524
states	-2525
changed	-2526
conveni	-2527
doubted	-2528
strange	-2529
morality	-2530
uncertain	-2531
determining	-2532
examination	-2533
6,	-2534
Not	-2535
lab	-2536
scr	-2537
alth	-2538
bear	-2539
fair	-2540
gave	-2541
goes	-2542
happ	-2543
hood	-2544
link	-2545
pict	-2546
fixed	-2547
ining	-2548
itate	-2549
realm	-2550
denied	-2551
giving	-2552
ancient	-2553
fashion	-2554
instant	-2555
machine	-2556
obliged	-2557
removed	-2558
useless	-2559
utterly	-2560
analysis	-2561
concerns	-2562
critique	-2563
presence	-2564
proceeds	-2565
proposed	-2566
purposes	-2567
.)	-2568
35	-2569
vo	-2570
Hob	-2571
bur	-2572
ior	-2573
lay	-2574
mar	-2575
pun	-2576
rid	-2577
tau	-2578
enum	-2579
indu	-2580
pugn	-2581
Those	-2582
effic	-2583
favor	-2584
house	-2585
regul	-2586
thous	-2587
Indeed	-2588
doubts	-2589
repugn	-2590
acquain	-2591
hearing	-2592
compound	-2593
referred	-2594
remember	-2595
thousand	-2596
composite	-2597
deduction	-2598
intuitive	-2599
principal	-2600
modifications	-2601
29	-2602
4,	-2603
Lat	-2604
als	-2605
bar	-2606
van	-2607
Meta	-2608
conj	-2609
gene	-2610
iter	-2611
reve	-2612
task	-2613
Hylas	-2614
exhib	-2615
heart	-2616
ially	-2617
spont	-2618
Hobbes	-2619
Object	-2620
return	-2621
secret	-2622
serves	-2623
endowed	-2624
erences	-2625
harmony	-2626
continue	-2627
deceived	-2628
elements	-2629
followed	-2630
included	-2631
spontane	-2632
controver	-2633
producing	-2634
requisite	-2635
acquainted	-2636
expression	-2637
Ca	-2638
Sub	-2639
alt	-2640
chim	-2641
face	-2642
gold	-2643
knew	-2644
live	-2645
ours	-2646
stra	-2647
Essay	-2648
annex	-2649
horse	-2650
ising	-2651
learn	-2652
lines	-2653
wrong	-2654
Essays	-2655
immort	-2656
insist	-2657
transl	-2658
convers	-2659
display	-2660
feeling	-2661
forward	-2662
geometr	-2663
impulse	-2664
mistake	-2665
passage	-2666
usually	-2667
straight	-2668
whenever	-2669
multitude	-2670
structure	-2671
attributed	-2672
predicates	-2673
sentiments	-2674
disposition	-2675
indivisible	-2676
7,	-2677
bul	-2678
pes	-2679
Adam	-2680
Male	-2681
attr	-2682
chap	-2683
cles	-2684
cred	-2685
gent	-2686
grad	-2687
held	-2688
perm	-2689
prop	-2690
final	-2691
hands	-2692
white	-2693
inform	-2694
prefer	-2695
remove	-2696
termed	-2697
wonder	-2698
collect	-2699
history	-2700
itative	-2701
outward	-2702
Malebran	-2703
category	-2704
definite	-2705
powerful	-2706
progress	-2707
presented	-2708
differences	-2709
Consequently	-2710
30	-2711
ank	-2712
flu	-2713
ges	-2714
swe	-2715
wal	-2716
viol	-2717
wind	-2718
Never	-2719
aside	-2720
ogene	-2721
table	-2722
confin	-2723
dogmat	-2724
during	-2725
excell	-2726
fortun	-2727
govern	-2728
higher	-2729
misery	-2730
stands	-2731
superi	-2732
taught	-2733
theses	-2734
utmost	-2735
English	-2736
accusto	-2737
imately	-2738
members	-2739
natures	-2740
suspect	-2741
........	-2742
imagined	-2743
inferred	-2744
carefully	-2745
convinced	-2746
sentiment	-2747
accustomed	-2748
insensible	-2749
represents	-2750
Malebranche	-2751
definitions	-2752
demonstrate	-2753
presupposes	-2754
acknowledged	-2755
Can	-2756
ote	-2757
alle	-2758
cern	-2759
icip	-2760
unct	-2761
went	-2762
indic	-2763
iting	-2764
mixed	-2765
occup	-2766
ouble	-2767
ulous	-2768
usive	-2769
choice	-2770
corpus	-2771
hardly	-2772
maxims	-2773
presum	-2774
sought	-2775
imprint	-2776
rightly	-2777
appropri	-2778
superior	-2779
discovery	-2780
comparison	-2781
inferences	-2782
conjunction	-2783
contradictory	-2784
ric	-2785
Know	-2786
embr	-2787
fram	-2788
gros	-2789
mass	-2790
tend	-2791
alike	-2792
ledge	-2793
ogism	-2794
piece	-2795
revol	-2796
bounds	-2797
dreams	-2798
minute	-2799
Nothing	-2800
arising	-2801
ception	-2802
teaches	-2803
unavoid	-2804
negative	-2805
recognize	-2806
afterwards	-2807
conjecture	-2808
frequently	-2809
Nevertheless	-2810
simultaneously	-2811
5]	-2812
At	-2813
due	-2814
adam	-2815
agon	-2816
meet	-2817
Natur	-2818
chain	-2819
denom	-2820
erent	-2821
refut	-2822
sweet	-2823
choose	-2824
justly	-2825
ollary	-2826
receiv	-2827
vation	-2828
ishment	-2829
ogeneous	-2830
confusion	-2831
conjoined	-2832
inquiries	-2833
materials	-2834
obscurity	-2835
considerations	-2836
24	-2837
ms	-2838
pa	-2839
Sup	-2840
ilt	-2841
oun	-2842
pon	-2843
sin	-2844
Plat	-2845
astr	-2846
atic	-2847
aves	-2848
ball	-2849
hind	-2850
lict	-2851
pell	-2852
talk	-2853
uded	-2854
Madam	-2855
Space	-2856
atoms	-2857
flame	-2858
happy	-2859
needs	-2860
nomin	-2861
noted	-2862
vable	-2863
axioms	-2864
begins	-2865
defect	-2866
entity	-2867
exceed	-2868
partly	-2869
seemed	-2870
carried	-2871
numbers	-2872
opposed	-2873
plicity	-2874
society	-2875
accurate	-2876
business	-2877
examined	-2878
existent	-2879
goodness	-2880
practice	-2881
resolved	-2882
theology	-2883
actuality	-2884
contribut	-2885
evidently	-2886
expressed	-2887
extensive	-2888
religious	-2889
volitions	-2890
experiment	-2891
empirically	-2892
particularly	-2893
80	-2894
Pe	-2895
di	-2896
dy	-2897
ec	-2898
12.	-2899
bad	-2900
fer	-2901
ize	-2902
mas	-2903
ogu	-2904
uit	-2905
Deme	-2906
grav	-2907
greg	-2908
hund	-2909
puts	-2910
ulti	-2911
Subst	-2912
blood	-2913
gment	-2914
ifies	-2915
immen	-2916
issue	-2917
pains	-2918
quick	-2919
raise	-2920
speci	-2921
trust	-2922
period	-2923
wanted	-2924
finding	-2925
hundred	-2926
replied	-2927
section	-2928
preserve	-2929
recourse	-2930
somewhat	-2931
Corollary	-2932
direction	-2933
extremely	-2934
communication	-2935
distinguishing	-2936
incomprehensible	-2937
26	-2938
gy	-2939
la	-2940
10.	-2941
fel	-2942
ler	-2943
spr	-2944
Even	-2945
bulk	-2946
eply	-2947
lest	-2948
prud	-2949
room	-2950
Demea	-2951
heard	-2952
monad	-2953
multi	-2954
pursu	-2955
ratum	-2956
surpr	-2957
train	-2958
caused	-2959
gentle	-2960
untary	-2961
waking	-2962
ensions	-2963
include	-2964
mutable	-2965
operate	-2966
suitable	-2967
surround	-2968
totality	-2969
believing	-2970
imagining	-2971
transcend	-2972
abstracted	-2973
explaining	-2974
opposition	-2975
substratum	-2976
indifferent	-2977
43	-2978
Py	-2979
Sy	-2980
11.	-2981
Bes	-2982
bal	-2983
clo	-2984
ime	-2985
met	-2986
tow	-2987
ues	-2988
aded	-2989
five	-2990
omni	-2991
plex	-2992
pron	-2993
reck	-2994
thet	-2995
Latin	-2996
compl	-2997
field	-2998
inomy	-2999
recon	-3000
trace	-3001
derive	-3002
forced	-3003
mental	-3004
strain	-3005
Thirdly	-3006
contact	-3007
deceive	-3008
implies	-3009
justice	-3010
letters	-3011
nominal	-3012
pleased	-3013
children	-3014
ultimate	-3015
Knowledge	-3016
doctrines	-3017
infinitum	-3018
dependence	-3019
everywhere	-3020
My	-3021
Whe	-3022
cog	-3023
mid	-3024
pop	-3025
tem	-3026
vit	-3027
Dial	-3028
Then	-3029
cies	-3030
este	-3031
ster	-3032
velo	-3033
acted	-3034
angel	-3035
cepts	-3036
decre	-3037
enjoy	-3038
inate	-3039
spect	-3040
Letter	-3041
aggreg	-3042
attach	-3043
brings	-3044
icious	-3045
Besides	-3046
Thought	-3047
annexed	-3048
distant	-3049
remaining	-3050
explicable	-3051
explanation	-3052
significant	-3053
circumstance	-3054
comprehension	-3055
impossibility	-3056
23	-3057
].	-3058
Are	-3059
ays	-3060
lik	-3061
vis	-3062
Lond	-3063
athe	-3064
syll	-3065
tail	-3066
benef	-3067
cease	-3068
indis	-3069
olast	-3070
rence	-3071
stead	-3072
London	-3073
Script	-3074
appeal	-3075
develo	-3076
esteem	-3077
perpet	-3078
schema	-3079
defined	-3080
edition	-3081
forever	-3082
perform	-3083
profess	-3084
reduced	-3085
theolog	-3086
acquired	-3087
negation	-3088
occurred	-3089
attempted	-3090
considers	-3091
incapable	-3092
occasions	-3093
supremely	-3094
conceiving	-3095
hypotheses	-3096
originally	-3097
continually	-3098
contemplation	-3099
presupposition	-3100
55	-3101
Ep	-3102
rr	-3103
ss	-3104
17.	-3105
hom	-3106
ius	-3107
maj	-3108
lier	-3109
lose	-3110
mine	-3111
ring	-3112
shap	-3113
ustr	-3114
beast	-3115
books	-3116
cosmo	-3117
distr	-3118
gross	-3119
inity	-3120
istic	-3121
admits	-3122
beauty	-3123
erring	-3124
letter	-3125
poster	-3126
proves	-3127
reckon	-3128
ibility	-3129
movable	-3130
seeming	-3131
special	-3132
personal	-3133
Cartesian	-3134
affection	-3135
agreeable	-3136
assertion	-3137
depending	-3138
imprinted	-3139
instrument	-3140
resistance	-3141
unthinking	-3142
Accordingly	-3143
expressions	-3144
inseparable	-3145
imperfection	-3146
representing	-3147
transcendent	-3148
28	-3149
pi	-3150
Div	-3151
amb	-3152
educ	-3153
evol	-3154
fund	-3155
inas	-3156
ling	-3157
tree	-3158
vast	-3159
vent	-3160
Other	-3161
Peter	-3162
ables	-3163
admir	-3164
aving	-3165
built	-3166
conce	-3167
skill	-3168
watch	-3169
arrive	-3170
barely	-3171
iguity	-3172
itudes	-3173
larger	-3174
nerves	-3175
onding	-3176
rupted	-3177
tempor	-3178
turned	-3179
deduced	-3180
judging	-3181
motives	-3182
planets	-3183
popular	-3184
activity	-3185
approach	-3186
conflict	-3187
intended	-3188
Christian	-3189
dangerous	-3190
falsehood	-3191
Meditation	-3192
importance	-3193
abstraction	-3194
differently	-3195
nonetheless	-3196
uncertainty	-3197
45	-3198
ds	-3199
14.	-3200
16.	-3201
Ind	-3202
Sim	-3203
Soc	-3204
dle	-3205
god	-3206
emin	-3207
grow	-3208
sett	-3209
uous	-3210
warm	-3211
wide	-3212
dynam	-3213
funct	-3214
grace	-3215
honor	-3216
itten	-3217
lying	-3218
rates	-3219
signs	-3220
chance	-3221
convey	-3222
detail	-3223
entive	-3224
enumer	-3225
preced	-3226
purely	-3227
tastes	-3228
teness	-3229
Suppose	-3230
accompl	-3231
assured	-3232
earlier	-3233
extends	-3234
omnipot	-3235
superst	-3236
witness	-3237
attempts	-3238
examples	-3239
increase	-3240
probably	-3241
resemble	-3242
Discourse	-3243
arbitrary	-3244
construct	-3245
functions	-3246
prejudice	-3247
privation	-3248
pronounce	-3249
syllogism	-3250
voluntary	-3251
consisting	-3252
miraculous	-3253
simplicity	-3254
transition	-3255
affirmation	-3256
experiments	-3257
explication	-3258
immortality	-3259
conversation	-3260
inconceivable	-3261
demonstrations	-3262
oh	-3263
Ant	-3264
Gal	-3265
ken	-3266
sco	-3267
thr	-3268
ury	-3269
Anal	-3270
Mind	-3271
Pyrr	-3272
obst	-3273
sake	-3274
snow	-3275
trad	-3276
wood	-3277
Treat	-3278
Where	-3279
brief	-3280
grasp	-3281
ician	-3282
labor	-3283
polit	-3284
yield	-3285
agreed	-3286
became	-3287
claims	-3288
endeav	-3289
health	-3290
liable	-3291
likely	-3292
reveal	-3293
unable	-3294
utions	-3295
Letters	-3296
Natural	-3297
arrange	-3298
delight	-3299
diverse	-3300
schools	-3301
Treatise	-3302
combined	-3303
compared	-3304
disposed	-3305
disputes	-3306
idealism	-3307
provides	-3308
exception	-3309
presuppose	-3310
similarity	-3311
Furthermore	-3312
appropriate	-3313
individuals	-3314
particulars	-3315
unavoidable	-3316
modification	-3317
unintelligible	-3318
46	-3319
Ba	-3320
—_	-3321
13.	-3322
170	-3323
Wor	-3324
bot	-3325
ock	-3326
oft	-3327
spo	-3328
tom	-3329
Pref	-3330
atom	-3331
felt	-3332
late	-3333
mann	-3334
sume	-3335
vers	-3336
major	-3337
remed	-3338
divide	-3339
leaves	-3340
motive	-3341
raised	-3342
scient	-3343
secure	-3344
artific	-3345
assumed	-3346
contriv	-3347
falsity	-3348
ountain	-3349
readers	-3350
asserted	-3351
complain	-3352
equality	-3353
expected	-3354
modified	-3355
particle	-3356
yourself	-3357
exclusive	-3358
immutable	-3359
persuaded	-3360
assertions	-3361
characters	-3362
compounded	-3363
containing	-3364
foundations	-3365
geometrical	-3366
comprehended	-3367
corresponding	-3368
85	-3369
Au	-3370
Ed	-3371
§.	-3372
18.	-3373
199	-3374
His	-3375
Joh	-3376
alf	-3377
apo	-3378
cil	-3379
Only	-3380
Thom	-3381
dece	-3382
fict	-3383
iate	-3384
iful	-3385
lost	-3386
pens	-3387
took	-3388
vary	-3389
aband	-3390
awake	-3391
began	-3392
calls	-3393
fluid	-3394
insic	-3395
night	-3396
rench	-3397
Thomas	-3398
fundam	-3399
pelled	-3400
vision	-3401
Because	-3402
carries	-3403
decrees	-3404
gravity	-3405
illustr	-3406
passing	-3407
pleases	-3408
attended	-3409
darkness	-3410
inasmuch	-3411
singular	-3412
attentive	-3413
dependent	-3414
imaginary	-3415
accurately	-3416
prejudices	-3417
throughout	-3418
Metaphysics	-3419
communicate	-3420
dialectical	-3421
observations	-3422
independently	-3423
.:	-3424
.]	-3425
47	-3426
9,	-3427
bs	-3428
du	-3429
15.	-3430
Jud	-3431
Man	-3432
dim	-3433
hum	-3434
ost	-3435
pra	-3436
sch	-3437
ths	-3438
Your	-3439
inct	-3440
push	-3441
rank	-3442
whit	-3443
asked	-3444
bears	-3445
class	-3446
irmed	-3447
lives	-3448
marks	-3449
pread	-3450
stars	-3451
thics	-3452
vital	-3453
Proleg	-3454
arrang	-3455
chimer	-3456
compat	-3457
filled	-3458
gotten	-3459
lesser	-3460
needed	-3461
plants	-3462
suspic	-3463
Preface	-3464
Whether	-3465
abandon	-3466
altered	-3467
anticip	-3468
confirm	-3469
country	-3470
deliber	-3471
desires	-3472
discern	-3473
embrace	-3474
renders	-3475
surface	-3476
trouble	-3477
assuming	-3478
bringing	-3479
efficacy	-3480
formally	-3481
likeness	-3482
measures	-3483
pertains	-3484
smallest	-3485
specific	-3486
subtlety	-3487
Substance	-3488
including	-3489
observing	-3490
possesses	-3491
Prolegomen	-3492
advantages	-3493
cogitative	-3494
maintained	-3495
phenomenon	-3496
proceeding	-3497
thoroughly	-3498
conceptions	-3499
completeness	-3500
0,	-3501
0]	-3502
Ap	-3503
mp	-3504
Bay	-3505
Mon	-3506
iny	-3507
mit	-3508
sil	-3509
swi	-3510
Comp	-3511
Time	-3512
ante	-3513
beth	-3514
econ	-3515
fing	-3516
half	-3517
harm	-3518
itle	-3519
join	-3520
lime	-3521
moon	-3522
refr	-3523
Bayle	-3524
Gener	-3525
annul	-3526
ature	-3527
offer	-3528
throw	-3529
wrote	-3530
Galile	-3531
angels	-3532
assist	-3533
bestow	-3534
compon	-3535
itting	-3536
survey	-3537
Dialogu	-3538
benevol	-3539
perplex	-3540
picture	-3541
process	-3542
putting	-3543
texture	-3544
written	-3545
accompan	-3546
exercise	-3547
impenetr	-3548
moreover	-3549
precedes	-3550
problems	-3551
respects	-3552
sequence	-3553
Scripture	-3554
cognizing	-3555
coherence	-3556
encounter	-3557
intention	-3558
signifies	-3559
skeptical	-3560
suggested	-3561
suspicion	-3562
variation	-3563
generation	-3564
repugnance	-3565
uniformity	-3566
controversy	-3567
homogeneous	-3568
incorporeal	-3569
speculation	-3570
combinations	-3571
cosmological	-3572
satisfactory	-3573
understandings	-3574
22	-3575
42	-3576
83	-3577
84	-3578
?"	-3579
Am	-3580
Lu	-3581
Ox	-3582
Int	-3583
Mod	-3584
Two	-3585
dil	-3586
ene	-3587
fat	-3588
oys	-3589
rer	-3590
ror	-3591
sal	-3592
sus	-3593
uel	-3594
Epic	-3595
Four	-3596
Intr	-3597
aged	-3598
coll	-3599
glad	-3600
ibly	-3601
laid	-3602
soft	-3603
vant	-3604
Bacon	-3605
Saint	-3606
acket	-3607
blame	-3608
fruit	-3609
ingen	-3610
French	-3611
Oxford	-3612
astron	-3613
distur	-3614
energy	-3615
expand	-3616
heaven	-3617
infall	-3618
middle	-3619
report	-3620
General	-3621
closely	-3622
exhibit	-3623
systems	-3624
Socrates	-3625
acquaint	-3626
assigned	-3627
directed	-3628
doubting	-3629
imagines	-3630
instruct	-3631
intermed	-3632
movement	-3633
profound	-3634
tendency	-3635
treatise	-3636
writings	-3637
apprehend	-3638
completed	-3639
formation	-3640
gradually	-3641
identical	-3642
organized	-3643
possessed	-3644
signified	-3645
Objections	-3646
collection	-3647
continuous	-3648
absurdities	-3649
coexistence	-3650
correspondence	-3651
89	-3652
ye	-3653
19.	-3654
fle	-3655
war	-3656
Were	-3657
adox	-3658
ager	-3659
avag	-3660
fine	-3661
gods	-3662
ient	-3663
iron	-3664
mise	-3665
safe	-3666
sets	-3667
vere	-3668
Paris	-3669
acing	-3670
icism	-3671
idden	-3672
merit	-3673
noise	-3674
plant	-3675
scope	-3676
speed	-3677
sumed	-3678
turns	-3679
value	-3680
versa	-3681
ascend	-3682
beasts	-3683
borrow	-3684
easier	-3685
effort	-3686
excite	-3687
freely	-3688
itated	-3689
itious	-3690
nearer	-3691
nobody	-3692
repeat	-3693
served	-3694
Introdu	-3695
curious	-3696
dealing	-3697
despite	-3698
disturb	-3699
economy	-3700
immense	-3701
looking	-3702
neglect	-3703
nowhere	-3704
paradox	-3705
proving	-3706
serious	-3707
touched	-3708
writing	-3709
arranged	-3710
building	-3711
circular	-3712
extravag	-3713
governed	-3714
grounded	-3715
inherent	-3716
involved	-3717
wherever	-3718
gentleman	-3719
ification	-3720
preserved	-3721
primitive	-3722
tradition	-3723
permanence	-3724
separation	-3725
corresponds	-3726
discoveries	-3727
fundamental	-3728
instruments	-3729
inexplicable	-3730
simultaneous	-3731
universality	-3732
Philosophical	-3733
distinguishes	-3734
mathematicians	-3735
1)	-3736
33	-3737
82	-3738
VI	-3739
ady	-3740
ham	-3741
hot	-3742
isa	-3743
yle	-3744
Gree	-3745
John	-3746
ease	-3747
ired	-3748
loss	-3749
Plato	-3750
Reply	-3751
acute	-3752
antly	-3753
arche	-3754
below	-3755
bread	-3756
faces	-3757
feels	-3758
icial	-3759
local	-3760
simpl	-3761
sions	-3762
stren	-3763
types	-3764
veloc	-3765
concre	-3766
itable	-3767
judged	-3768
mutual	-3769
passed	-3770
preten	-3771
shapes	-3772
Pyrrhon	-3773
amounts	-3774
chapter	-3775
compare	-3776
foreign	-3777
reaches	-3778
reading	-3779
sensing	-3780
showing	-3781
smaller	-3782
sublime	-3783
suffice	-3784
venture	-3785
antinomy	-3786
anywhere	-3787
attained	-3788
function	-3789
intuited	-3790
restrict	-3791
standard	-3792
Dialogues	-3793
comparing	-3794
dynamical	-3795
excellent	-3796
invisible	-3797
irregular	-3798
supported	-3799
adequately	-3800
boundaries	-3801
compatible	-3802
confidence	-3803
existences	-3804
ordinarily	-3805
recognized	-3806
remarkable	-3807
ultimately	-3808
Prolegomena	-3809
contrivance	-3810
inclination	-3811
presupposed	-3812
acquaintance	-3813
proportional	-3814
34	-3815
36	-3816
54	-3817
56	-3818
87	-3819
El	-3820
Ge	-3821
Pa	-3822
Qu	-3823
(17	-3824
21.	-3825
23.	-3826
She	-3827
Tru	-3828
Who	-3829
ago	-3830
aud	-3831
ert	-3832
pay	-3833
ubl	-3834
viv	-3835
airs	-3836
ancy	-3837
anti	-3838
cast	-3839
days	-3840
depr	-3841
ored	-3842
pher	-3843
rare	-3844
reci	-3845
stri	-3846
told	-3847
ander	-3848
apode	-3849
argue	-3850
decis	-3851
disci	-3852
glory	-3853
heavy	-3854
ience	-3855
sycho	-3856
wered	-3857
Experi	-3858
Indian	-3859
around	-3860
deduce	-3861
firmly	-3862
hidden	-3863
looked	-3864
master	-3865
spread	-3866
stones	-3867
Galileo	-3868
Perhaps	-3869
Supreme	-3870
Without	-3871
authors	-3872
century	-3873
clearer	-3874
contest	-3875
discour	-3876
premise	-3877
presume	-3878
ridicul	-3879
treated	-3880
virtues	-3881
disorder	-3882
emotions	-3883
inclined	-3884
includes	-3885
learning	-3886
mountain	-3887
obtained	-3888
rendered	-3889
weakness	-3890
beautiful	-3891
education	-3892
foregoing	-3893
perpetual	-3894
pretended	-3895
continuity	-3896
discussion	-3897
theologians	-3898
translation	-3899
Introduction	-3900
intermediate	-3901
supernatural	-3902
demonstrative	-3903
contradictions	-3904
39	-3905
**.	-3906
.:]	-3907
VII	-3908
acu	-3909
bir	-3910
cid	-3911
ded	-3912
glo	-3913
hun	-3914
mix	-3915
phy	-3916
sud	-3917
High	-3918
Lady	-3919
achi	-3920
ater	-3921
ches	-3922
deep	-3923
exec	-3924
iori	-3925
land	-3926
odig	-3927
rich	-3928
scru	-3929
slow	-3930
stup	-3931
Elisa	-3932
While	-3933
falls	-3934
fault	-3935
hable	-3936
iding	-3937
paper	-3938
stick	-3939
total	-3940
wants	-3941
adding	-3942
adjust	-3943
associ	-3944
framed	-3945
modest	-3946
slight	-3947
streng	-3948
sudden	-3949
suffer	-3950
supply	-3951
temper	-3952
yellow	-3953
anteced	-3954
company	-3955
declare	-3956
differs	-3957
endless	-3958
heavens	-3959
imental	-3960
lacking	-3961
recipro	-3962
resolve	-3963
results	-3964
totally	-3965
Although	-3966
Concepts	-3967
allowing	-3968
critical	-3969
dogmatic	-3970
reconcil	-3971
subordin	-3972
transfer	-3973
Elisabeth	-3974
accompany	-3975
conceives	-3976
continues	-3977
discovers	-3978
impressed	-3979
performed	-3980
Experience	-3981
applicable	-3982
government	-3983
resembling	-3984
scientific	-3985
systematic	-3986
consistency	-3987
instruction	-3988
investigation	-3989
1–	-3990
50	-3991
57	-3992
66	-3993
79	-3994
Me	-3995
ii	-3996
ps	-3997
24.	-3998
25.	-3999
Bod	-4000
Mar	-4001
abs	-4002
big	-4003
dep	-4004
det	-4005
dev	-4006
fab	-4007
ils	-4008
mic	-4009
mus	-4010
rig	-4011
sac	-4012
Publ	-4013
avid	-4014
bold	-4015
devo	-4016
exha	-4017
fold	-4018
inal	-4019
plau	-4020
tius	-4021
tran	-4022
vacu	-4023
Theod	-4024
equiv	-4025
genus	-4026
idols	-4027
lated	-4028
liter	-4029
steps	-4030
topic	-4031
veget	-4032
Divine	-4033
Ethics	-4034
Hacket	-4035
allows	-4036
argues	-4037
bitter	-4038
cedure	-4039
chosen	-4040
denies	-4041
father	-4042
fourth	-4043
perish	-4044
prodig	-4045
refers	-4046
spaces	-4047
terior	-4048
thirst	-4049
topics	-4050
Hackett	-4051
animate	-4052
denying	-4053
descend	-4054
drawing	-4055
element	-4056
exhaust	-4057
ordered	-4058
partake	-4059
pattern	-4060
precede	-4061
prevail	-4062
remarks	-4063
retical	-4064
whoever	-4065
workman	-4066
abstruse	-4067
answered	-4068
dreaming	-4069
esthetic	-4070
formerly	-4071
hardness	-4072
instinct	-4073
machines	-4074
numerous	-4075
pleasant	-4076
temporal	-4077
variable	-4078
velocity	-4079
concluded	-4080
concourse	-4081
destroyed	-4082
elsewhere	-4083
examining	-4084
inconveni	-4085
mediately	-4086
procedure	-4087
proceeded	-4088
similarly	-4089
subjected	-4090
triangles	-4091
undoubted	-4092
Translated	-4093
assumption	-4094
consequent	-4095
conviction	-4096
posteriori	-4097
unextended	-4098
apprehended	-4099
constituted	-4100
experienced	-4101
interrupted	-4102
spontaneity	-4103
surrounding	-4104
inclinations	-4105
inconsistent	-4106
59	-4107
St	-4108
cu	-4109
sl	-4110
26.	-4111
Her	-4112
Log	-4113
Pow	-4114
Sir	-4115
dra	-4116
mal	-4117
tor	-4118
Clar	-4119
Does	-4120
Most	-4121
Pray	-4122
Spir	-4123
Upon	-4124
adds	-4125
aked	-4126
ator	-4127
ched	-4128
city	-4129
cult	-4130
drop	-4131
earn	-4132
inev	-4133
nour	-4134
orph	-4135
birth	-4136
black	-4137
curio	-4138
divis	-4139
facts	-4140
micro	-4141
ology	-4142
phant	-4143
revel	-4144
twent	-4145
agents	-4146
agrees	-4147
commod	-4148
crimin	-4149
famous	-4150
fitted	-4151
highly	-4152
inward	-4153
native	-4154
nearly	-4155
occult	-4156
propag	-4157
twenty	-4158
vacuum	-4159
Neither	-4160
affects	-4161
demands	-4162
fortune	-4163
ishable	-4164
moments	-4165
posited	-4166
reached	-4167
seeking	-4168
wanting	-4169
advanced	-4170
changing	-4171
confined	-4172
converse	-4173
diminish	-4174
easiness	-4175
entially	-4176
exterior	-4177
indicate	-4178
preceded	-4179
presents	-4180
repeated	-4181
sleeping	-4182
community	-4183
confirmed	-4184
curiosity	-4185
penetrate	-4186
artificial	-4187
attraction	-4188
beforehand	-4189
confusedly	-4190
introduced	-4191
limitation	-4192
magnitudes	-4193
preference	-4194
punishment	-4195
reasonably	-4196
revelation	-4197
exclusively	-4198
experiences	-4199
extravagant	-4200
theoretical	-4201
communicated	-4202
discoverable	-4203
dispositions	-4204
speculations	-4205
successively	-4206
suppositions	-4207
withstanding	-4208
11	-4209
38	-4210
70	-4211
75	-4212
da	-4213
166	-4214
20.	-4215
22.	-4216
Ger	-4217
Men	-4218
civ	-4219
ium	-4220
mad	-4221
win	-4222
Paul	-4223
apol	-4224
cape	-4225
clar	-4226
dead	-4227
genu	-4228
gone	-4229
walk	-4230
Analy	-4231
Cause	-4232
David	-4233
cover	-4234
deriv	-4235
essay	-4236
indul	-4237
itect	-4238
naked	-4239
posit	-4240
quiry	-4241
rerum	-4242
style	-4243
uring	-4244
write	-4245
Clarke	-4246
Fourth	-4247
Spirit	-4248
System	-4249
apolis	-4250
attest	-4251
credit	-4252
define	-4253
height	-4254
hesion	-4255
incess	-4256
marvel	-4257
mensur	-4258
natura	-4259
propen	-4260
reward	-4261
traces	-4262
absence	-4263
antagon	-4264
balance	-4265
decided	-4266
desired	-4267
earnest	-4268
entered	-4269
falling	-4270
fiction	-4271
justify	-4272
leaving	-4273
service	-4274
uration	-4275
ancients	-4276
doubtful	-4277
entities	-4278
esteemed	-4279
happened	-4280
receives	-4281
searches	-4282
skeptics	-4283
strictly	-4284
stronger	-4285
analogies	-4286
confessed	-4287
continual	-4288
endeavors	-4289
receiving	-4290
whiteness	-4291
witnesses	-4292
exposition	-4293
materially	-4294
propensity	-4295
reflecting	-4296
separately	-4297
uneasiness	-4298
accompanied	-4299
arrangement	-4300
omnipotence	-4301
perceivable	-4302
reflections	-4303
superstition	-4304
notwithstanding	-4305
44	-4306
53	-4307
88	-4308
ON	-4309
16,	-4310
Any	-4311
Ari	-4312
deb	-4313
dry	-4314
fix	-4315
Will	-4316
_(16	-4317
atio	-4318
bles	-4319
enth	-4320
food	-4321
gard	-4322
iest	-4323
ldom	-4324
mill	-4325
rent	-4326
ured	-4327
vior	-4328
Ariew	-4329
Lucre	-4330
Their	-4331
adopt	-4332
avail	-4333
desig	-4334
early	-4335
idity	-4336
imply	-4337
ishop	-4338
mount	-4339
owing	-4340
piety	-4341
swift	-4342
today	-4343
adhere	-4344
annull	-4345
bottom	-4346
copies	-4347
decree	-4348
enable	-4349
medium	-4350
mighty	-4351
praise	-4352
psycho	-4353
recall	-4354
relate	-4355
school	-4356
seldom	-4357
theore	-4358
viewed	-4359
worlds	-4360
briefly	-4361
deserve	-4362
forming	-4363
furnish	-4364
genuine	-4365
leading	-4366
partial	-4367
refrain	-4368
respond	-4369
walking	-4370
accepted	-4371
cognizes	-4372
olastics	-4373
prudence	-4374
putation	-4375
rejected	-4376
remained	-4377
secondly	-4378
Lucretius	-4379
architect	-4380
eminently	-4381
occurring	-4382
Publishing	-4383
contribute	-4384
occasional	-4385
providence	-4386
variations	-4387
presumption	-4388
progression	-4389
58	-4390
AT	-4391
Ab	-4392
Ma	-4393
ng	-4394
11,	-4395
13,	-4396
27.	-4397
7).	-4398
Cer	-4399
Lem	-4400
bro	-4401
dut	-4402
lex	-4403
nic	-4404
ons	-4405
oth	-4406
phr	-4407
six	-4408
Reid	-4409
clou	-4410
copy	-4411
deli	-4412
gust	-4413
ifth	-4414
mixt	-4415
ping	-4416
Lemma	-4417
adapt	-4418
arest	-4419
arian	-4420
axiom	-4421
clock	-4422
compr	-4423
globe	-4424
hopes	-4425
iline	-4426
scrut	-4427
subtr	-4428
ulate	-4429
voice	-4430
Simple	-4431
causal	-4432
cience	-4433
condem	-4434
cultiv	-4435
enters	-4436
escape	-4437
finger	-4438
gladly	-4439
gments	-4440
hunger	-4441
invent	-4442
lively	-4443
morals	-4444
myster	-4445
occupy	-4446
recept	-4447
recomm	-4448
refute	-4449
select	-4450
smells	-4451
Company	-4452
affairs	-4453
applies	-4454
augment	-4455
benefit	-4456
caution	-4457
comment	-4458
encount	-4459
enlight	-4460
ilinear	-4461
ilities	-4462
improve	-4463
noticed	-4464
pointed	-4465
ruption	-4466
settled	-4467
springs	-4468
turning	-4469
Highness	-4470
accommod	-4471
divinity	-4472
explicit	-4473
fictions	-4474
hypothet	-4475
operates	-4476
strained	-4477
accounted	-4478
admirable	-4479
described	-4480
furnished	-4481
immovable	-4482
invention	-4483
mechanism	-4484
numerable	-4485
obviously	-4486
preserves	-4487
Cartesians	-4488
antecedent	-4489
friendship	-4490
inadequate	-4491
resolution	-4492
ridiculous	-4493
subsistent	-4494
alterations	-4495
encountered	-4496
perceptible	-4497
productions	-4498
annihilation	-4499
experimental	-4500
preservation	-4501
simultaneity	-4502
unperceiving	-4503
characteristic	-4504
)—	-4505
49	-4506
64	-4507
77	-4508
86	-4509
[[	-4510
ae	-4511
fu	-4512
ga	-4513
–9	-4514
169	-4515
28.	-4516
29.	-4517
Pas	-4518
ata	-4519
cat	-4520
elf	-4521
iet	-4522
rad	-4523
rev	-4524
sym	-4525
Both	-4526
enem	-4527
item	-4528
onto	-4529
opom	-4530
prec	-4531
rate	-4532
rece	-4533
road	-4534
sand	-4535
shad	-4536
shar	-4537
Modes	-4538
Perip	-4539
Truth	-4540
abuse	-4541
desir	-4542
draft	-4543
drink	-4544
exerc	-4545
glass	-4546
guard	-4547
guess	-4548
ingly	-4549
looks	-4550
noble	-4551
seeks	-4552
solve	-4553
trial	-4554
umber	-4555
asking	-4556
aspect	-4557
ceases	-4558
center	-4559
defend	-4560
depart	-4561
fabric	-4562
fairly	-4563
iguous	-4564
inated	-4565
judges	-4566
lights	-4567
linked	-4568
mative	-4569
obstac	-4570
premis	-4571
pursue	-4572
shadow	-4573
Certain	-4574
Through	-4575
affords	-4576
chemist	-4577
chiefly	-4578
confuse	-4579
consult	-4580
ickness	-4581
kingdom	-4582
methods	-4583
propose	-4584
refuted	-4585
servant	-4586
suspend	-4587
thropom	-4588
Emotions	-4589
Peripate	-4590
believes	-4591
contempt	-4592
destroys	-4593
multiply	-4594
passages	-4595
persuade	-4596
pleasing	-4597
sensibly	-4598
simplest	-4599
surfaces	-4600
ternally	-4601
affecting	-4602
ascertain	-4603
astronomy	-4604
causation	-4605
commensur	-4606
criticism	-4607
dialectic	-4608
interpret	-4609
intrinsic	-4610
mechanics	-4611
repugnant	-4612
archetypes	-4613
assistance	-4614
corpuscles	-4615
fallacious	-4616
incomplete	-4617
infallible	-4618
manifestly	-4619
benevolence	-4620
efficacious	-4621
innumerable	-4622
subordinate	-4623
subsistence	-4624
thropomorph	-4625
continuation	-4626
incompatible	-4627
indifference	-4628
unreasonable	-4629
insignificant	-4630
impenetrability	-4631
1:	-4632
2:	-4633
74	-4634
78	-4635
Go	-4636
Ne	-4637
5).	-4638
Boy	-4639
Isa	-4640
Mas	-4641
May	-4642
Mor	-4643
Par	-4644
Rel	-4645
cip	-4646
cut	-4647
els	-4648
ero	-4649
gif	-4650
hur	-4651
lod	-4652
ris	-4653
sea	-4654
une	-4655
Phys	-4656
brut	-4657
craf	-4658
ging	-4659
ills	-4660
inno	-4661
iven	-4662
lesh	-4663
save	-4664
tang	-4665
urch	-4666
zing	-4667
Boyle	-4668
Consi	-4669
Ideal	-4670
affir	-4671
afore	-4672
ained	-4673
arose	-4674
ators	-4675
block	-4676
disap	-4677
enlar	-4678
entit	-4679
ester	-4680
fleet	-4681
ifice	-4682
illum	-4683
initi	-4684
legit	-4685
limbs	-4686
metic	-4687
plans	-4688
refin	-4689
seven	-4690
tries	-4691
unite	-4692
units	-4693
verse	-4694
weigh	-4695
young	-4696
Bishop	-4697
asleep	-4698
attack	-4699
celest	-4700
conser	-4701
cribes	-4702
criter	-4703
defici	-4704
endure	-4705
extrem	-4706
ifying	-4707
incing	-4708
interv	-4709
marked	-4710
orical	-4711
propri	-4712
reduce	-4713
showed	-4714
stated	-4715
suited	-4716
vanish	-4717
vessel	-4718
Replies	-4719
careful	-4720
concess	-4721
contend	-4722
deliver	-4723
endures	-4724
engaged	-4725
fancies	-4726
flatter	-4727
ization	-4728
orderly	-4729
organic	-4730
project	-4731
quiring	-4732
relates	-4733
schemat	-4734
talking	-4735
Analytic	-4736
Consider	-4737
ascribed	-4738
confound	-4739
deceiver	-4740
decision	-4741
decisive	-4742
delusion	-4743
entering	-4744
faithful	-4745
frequent	-4746
inferior	-4747
informed	-4748
mistakes	-4749
starting	-4750
subsumed	-4751
suffices	-4752
veracity	-4753
Aesthetic	-4754
celestial	-4755
compelled	-4756
component	-4757
correctly	-4758
deception	-4759
distances	-4760
permitted	-4761
reflected	-4762
resembles	-4763
somewhere	-4764
sweetness	-4765
underlies	-4766
agreements	-4767
contiguity	-4768
convincing	-4769
dimensions	-4770
physicians	-4771
annihilated	-4772
conformable	-4773
Indianapolis	-4774
denomination	-4775
intervention	-4776
materialists	-4777
mechanically	-4778
anthropomorph	-4779
00	-4780
3)	-4781
37	-4782
ns	-4783
28,	-4784
31.	-4785
Act	-4786
Amo	-4787
Bar	-4788
Old	-4789
Ref	-4790
Rom	-4791
kes	-4792
ook	-4793
zed	-4794
Also	-4795
Caes	-4796
Holy	-4797
Pier	-4798
True	-4799
bond	-4800
dest	-4801
fast	-4802
gets	-4803
ming	-4804
quid	-4805
rash	-4806
unto	-4807
Coper	-4808
Isaac	-4809
Sense	-4810
Three	-4811
Which	-4812
appet	-4813
ardon	-4814
astic	-4815
basic	-4816
break	-4817
civil	-4818
daily	-4819
dilig	-4820
flesh	-4821
guide	-4822
icine	-4823
irect	-4824
isure	-4825
izing	-4826
notes	-4827
restr	-4828
tempt	-4829
texts	-4830
title	-4831
Effect	-4832
Pierre	-4833
Prince	-4834
Things	-4835
Univer	-4836
bodily	-4837
decept	-4838
destru	-4839
detect	-4840
errone	-4841
hinder	-4842
intend	-4843
issues	-4844
opport	-4845
possib	-4846
prepar	-4847
punish	-4848
refuse	-4849
remedy	-4850
speaks	-4851
strike	-4852
thence	-4853
ulates	-4854
answers	-4855
calling	-4856
coexist	-4857
context	-4858
creator	-4859
decreas	-4860
discipl	-4861
exclude	-4862
friends	-4863
mixture	-4864
omitted	-4865
private	-4866
prudent	-4867
refined	-4868
setting	-4869
Copernic	-4870
accuracy	-4871
appeared	-4872
bestowed	-4873
borrowed	-4874
commands	-4875
entitled	-4876
esterday	-4877
indirect	-4878
measured	-4879
observes	-4880
premises	-4881
regulate	-4882
strength	-4883
theorems	-4884
Principle	-4885
aggregate	-4886
developed	-4887
distribut	-4888
geometers	-4889
greatness	-4890
increased	-4891
languages	-4892
pleasures	-4893
potential	-4894
propriety	-4895
resulting	-4896
explicated	-4897
intimately	-4898
positively	-4899
researches	-4900
affirmative	-4901
attributing	-4902
concurrence	-4903
discovering	-4904
entertained	-4905
meditations	-4906
theological	-4907
divisibility	-4908
hypothetical	-4909
significations	-4910
1/	-4911
2)	-4912
60	-4913
;_	-4914
<<	-4915
>>	-4916
Dr	-4917
Im	-4918
wa	-4919
.),	-4920
1),	-4921
32.	-4922
Col	-4923
Rob	-4924
Sol	-4925
Sto	-4926
Use	-4927
cav	-4928
gan	-4929
inj	-4930
mob	-4931
odd	-4932
umb	-4933
Idea	-4934
Prob	-4935
Text	-4936
VIII	-4937
ador	-4938
augh	-4939
beha	-4940
duty	-4941
fate	-4942
fish	-4943
holy	-4944
hour	-4945
myst	-4946
nice	-4947
plur	-4948
seas	-4949
seed	-4950
year	-4951
Exist	-4952
Works	-4953
appar	-4954
aring	-4955
arith	-4956
choly	-4957
cient	-4958
deals	-4959
escap	-4960
heads	-4961
heter	-4962
iable	-4963
icist	-4964
ilege	-4965
ister	-4966
itute	-4967
loose	-4968
manna	-4969
metal	-4970
novel	-4971
phras	-4972
rance	-4973
resto	-4974
spend	-4975
trave	-4976
ustry	-4977
Author	-4978
Caesar	-4979
closed	-4980
deceiv	-4981
decide	-4982
engage	-4983
genius	-4984
intent	-4985
mirror	-4986
permit	-4987
plenum	-4988
raises	-4989
respon	-4990
sensed	-4991
sooner	-4992
sovere	-4993
spring	-4994
vanity	-4995
volume	-4996
wealth	-4997
willed	-4998
bounded	-4999
consent	-5000
cribing	-5001
enlarge	-5002
exceeds	-5003
leisure	-5004
morning	-5005
offered	-5006
olastic	-5007
painful	-5008
paralle	-5009
quantum	-5010
quickly	-5011
suscept	-5012
unusual	-5013
Mathemat	-5014
annulled	-5015
behavior	-5016
clearest	-5017
ifically	-5018
inactive	-5019
industry	-5020
ological	-5021
prospect	-5022
revealed	-5023
scrutiny	-5024
Existence	-5025
Princeton	-5026
cognitive	-5027
furnishes	-5028
heaviness	-5029
marvelous	-5030
plausible	-5031
preferred	-5032
succeeded	-5033
treatment	-5034
yesterday	-5035
Perception	-5036
changeable	-5037
illustrate	-5038
recognizes	-5039
reputation	-5040
similitude	-5041
succeeding	-5042
surprising	-5043
Scholastics	-5044
alternative	-5045
comprehends	-5046
consciously	-5047
constructed	-5048
controversi	-5049
penetrating	-5050
receptivity	-5051
susceptible	-5052
Metaphysical	-5053
accomplished	-5054
constituting	-5055
explanations	-5056
imaginations	-5057
apprehensions	-5058
imperfections	-5059
intelligences	-5060
thoroughgoing	-5061
._	-5062
IX	-5063
Sh	-5064
ub	-5065
1).	-5066
10,	-5067
25,	-5068
33.	-5069
Axi	-5070
Ext	-5071
Sen	-5072
Syn	-5073
afr	-5074
flo	-5075
gre	-5076
hat	-5077
icy	-5078
ili	-5079
lip	-5080
ope	-5081
ows	-5082
sag	-5083
vap	-5084
wel	-5085
zes	-5086
Each	-5087
Just	-5088
Like	-5089
Many	-5090
abst	-5091
actu	-5092
ague	-5093
arly	-5094
arms	-5095
blue	-5096
cile	-5097
cord	-5098
dare	-5099
dict	-5100
edes	-5101
enes	-5102
expl	-5103
fool	-5104
glob	-5105
igne	-5106
lege	-5107
miss	-5108
obey	-5109
obli	-5110
orum	-5111
phor	-5112
quar	-5113
stat	-5114
terr	-5115
tong	-5116
uent	-5117
urus	-5118
uted	-5119
vert	-5120
Defin	-5121
Logic	-5122
Monta	-5123
Relig	-5124
Texts	-5125
abund	-5126
artic	-5127
asion	-5128
atter	-5129
bered	-5130
deity	-5131
depth	-5132
ening	-5133
fatal	-5134
ictic	-5135
ipped	-5136
level	-5137
melan	-5138
pherd	-5139
purpo	-5140
quiet	-5141
river	-5142
sects	-5143
stock	-5144
trium	-5145
uding	-5146
Archim	-5147
Associ	-5148
August	-5149
Common	-5150
Method	-5151
Platon	-5152
afraid	-5153
analyt	-5154
arisen	-5155
clouds	-5156
excuse	-5157
exempt	-5158
family	-5159
gained	-5160
guided	-5161
hering	-5162
itably	-5163
itical	-5164
losing	-5165
lowest	-5166
marble	-5167
orious	-5168
pardon	-5169
prophe	-5170
safely	-5171
smooth	-5172
warmth	-5173
wished	-5174
.......	-5175
Diction	-5176
affirms	-5177
alleged	-5178
compose	-5179
conceal	-5180
corrupt	-5181
designs	-5182
framing	-5183
greatly	-5184
histori	-5185
intense	-5186
manners	-5187
mission	-5188
moderns	-5189
oneself	-5190
rejects	-5191
subsequ	-5192
suffers	-5193
ulation	-5194
wherein	-5195
worship	-5196
Epicurus	-5197
Religion	-5198
Shepherd	-5199
atheists	-5200
criminal	-5201
demanded	-5202
medicine	-5203
portions	-5204
renounce	-5205
strongly	-5206
succeeds	-5207
Judgments	-5208
Montaigne	-5209
ambiguity	-5210
available	-5211
concludes	-5212
conducted	-5213
confident	-5214
countless	-5215
customary	-5216
displayed	-5217
everybody	-5218
explicate	-5219
followers	-5220
inanimate	-5221
indicated	-5222
indicates	-5223
ingenious	-5224
initially	-5225
interests	-5226
numerical	-5227
paradoxes	-5228
presently	-5229
reckoning	-5230
reconcile	-5231
referring	-5232
statement	-5233
surprised	-5234
unlimited	-5235
willingly	-5236
wonderful	-5237
Archimedes	-5238
accomplish	-5239
apodeictic	-5240
generality	-5241
hesitation	-5242
imaginable	-5243
meditation	-5244
melancholy	-5245
microscope	-5246
possession	-5247
reciprocal	-5248
accordingly	-5249
aggregation	-5250
antagonists	-5251
association	-5252
connections	-5253
constrained	-5254
enlightened	-5255
information	-5256
rectilinear	-5257
traditional	-5258
workmanship	-5259
abstractions	-5260
insufficient	-5261
undetermined	-5262
comprehensive	-5263
correspondent	-5264
spontaneously	-5265
4)	-5266
48	-5267
5,	-5268
69	-5269
AS	-5270
Bx	-5271
Eu	-5272
Gr	-5273
3).	-5274
30.	-5275
36.	-5276
Ano	-5277
Cos	-5278
Emp	-5279
Had	-5280
Its	-5281
Jan	-5282
Jew	-5283
Prs	-5284
Set	-5285
Six	-5286
_."	-5287
die	-5288
emb	-5289
fly	-5290
hab	-5291
iae	-5292
icu	-5293
key	-5294
mou	-5295
owe	-5296
rot	-5297
sip	-5298
twi	-5299
typ	-5300
wom	-5301
1989	-5302
Body	-5303
Have	-5304
Sear	-5305
cand	-5306
died	-5307
duly	-5308
elev	-5309
feat	-5310
glim	-5311
grat	-5312
guid	-5313
insp	-5314
leap	-5315
list	-5316
lust	-5317
olic	-5318
oses	-5319
pels	-5320
poor	-5321
summ	-5322
teli	-5323
tics	-5324
uary	-5325
unit	-5326
Among	-5327
Empir	-5328
Greek	-5329
Organ	-5330
assem	-5331
aston	-5332
broad	-5333
check	-5334
elech	-5335
hours	-5336
inces	-5337
keeps	-5338
loves	-5339
lucid	-5340
matic	-5341
minor	-5342
oumen	-5343
peace	-5344
range	-5345
rises	-5346
scene	-5347
share	-5348
smoke	-5349
story	-5350
Aristo	-5351
Pascal	-5352
Search	-5353
achiev	-5354
admire	-5355
advers	-5356
ancing	-5357
ansion	-5358
assure	-5359
barbar	-5360
copied	-5361
deeply	-5362
delive	-5363
dissol	-5364
double	-5365
fallen	-5366
garden	-5367
humble	-5368
intuit	-5369
machin	-5370
nation	-5371
palate	-5372
pendix	-5373
prison	-5374
prompt	-5375
sacred	-5376
transp	-5377
wander	-5378
Another	-5379
Epicure	-5380
causing	-5381
clarity	-5382
confine	-5383
counted	-5384
dissect	-5385
indubit	-5386
itating	-5387
joining	-5388
keeping	-5389
muscles	-5390
prepare	-5391
reports	-5392
retains	-5393
running	-5394
scruple	-5395
strikes	-5396
synthet	-5397
version	-5398
Duration	-5399
Fourthly	-5400
Likewise	-5401
accounts	-5402
animated	-5403
applying	-5404
attached	-5405
chapters	-5406
chimeras	-5407
claiming	-5408
cohesion	-5409
concreto	-5410
connects	-5411
contrari	-5412
cularian	-5413
distrust	-5414
enlarged	-5415
entelech	-5416
finished	-5417
fleeting	-5418
guidance	-5419
immortal	-5420
improper	-5421
meanings	-5422
meditate	-5423
precepts	-5424
province	-5425
security	-5426
supports	-5427
Certainly	-5428
abilities	-5429
answering	-5430
asserting	-5431
awareness	-5432
contempor	-5433
contented	-5434
corrected	-5435
delivered	-5436
expansion	-5437
extending	-5438
fortunate	-5439
happening	-5440
immensity	-5441
indiscern	-5442
indispens	-5443
induction	-5444
mological	-5445
physician	-5446
precision	-5447
prevented	-5448
probation	-5449
regulated	-5450
sovereign	-5451
Aristoteli	-5452
Associated	-5453
Dictionary	-5454
Everything	-5455
accidental	-5456
analogical	-5457
annihilate	-5458
arithmetic	-5459
beneficial	-5460
discourses	-5461
dissection	-5462
externally	-5463
indefinite	-5464
indirectly	-5465
productive	-5466
scholastic	-5467
subsequent	-5468
syllogisms	-5469
worthwhile	-5470
arbitrarily	-5471
contingency	-5472
destruction	-5473
dissolution	-5474
limitations	-5475
pretensions	-5476
advantageous	-5477
conservation	-5478
nonexistence	-5479
organization	-5480
subjectively	-5481
determinately	-5482
heterogeneous	-5483
synthetically	-5484
uninterrupted	-5485
distinguishable	-5486
misunderstanding	-5487
.—	-5488
1-	-5489
65	-5490
67	-5491
68	-5492
Ad	-5493
Br	-5494
Pl	-5495
pp	-5496
.).	-5497
35.	-5498
37.	-5499
Dem	-5500
Eur	-5501
Yes	-5502
ban	-5503
bra	-5504
gra	-5505
orb	-5506
pha	-5507
rif	-5508
rob	-5509
sky	-5510
voc	-5511
Cont	-5512
Demo	-5513
Eucl	-5514
None	-5515
Note	-5516
Sens	-5517
aims	-5518
arts	-5519
bird	-5520
cele	-5521
cube	-5522
cure	-5523
dull	-5524
frag	-5525
gram	-5526
iles	-5527
iner	-5528
isms	-5529
itas	-5530
izes	-5531
mber	-5532
nobl	-5533
nose	-5534
ords	-5535
page	-5536
pray	-5537
risk	-5538
sail	-5539
stim	-5540
thro	-5541
till	-5542
vols	-5543
wing	-5544
Creat	-5545
Demon	-5546
Simil	-5547
admis	-5548
atory	-5549
capac	-5550
chall	-5551
decay	-5552
domin	-5553
fewer	-5554
fills	-5555
glimp	-5556
hears	-5557
inert	-5558
miser	-5559
ratio	-5560
remem	-5561
sharp	-5562
solic	-5563
spent	-5564
tends	-5565
tried	-5566
twice	-5567
unfit	-5568
youth	-5569
German	-5570
Masham	-5571
Motion	-5572
Whence	-5573
absent	-5574
angled	-5575
celebr	-5576
closer	-5577
compos	-5578
discur	-5579
forget	-5580
gather	-5581
graces	-5582
grants	-5583
implic	-5584
monads	-5585
noumen	-5586
oppose	-5587
oubled	-5588
precip	-5589
prince	-5590
review	-5591
rights	-5592
superf	-5593
tenets	-5594
termin	-5595
theism	-5596
trying	-5597
unique	-5598
verbal	-5599
widely	-5600
writer	-5601
articul	-5602
avoided	-5603
blessed	-5604
classes	-5605
compass	-5606
courage	-5607
equival	-5608
excited	-5609
holding	-5610
infancy	-5611
inhabit	-5612
lasting	-5613
pursuit	-5614
rection	-5615
regions	-5616
rewards	-5617
surpass	-5618
thereof	-5619
unequal	-5620
varying	-5621
Antinomy	-5622
Appendix	-5623
Theodicy	-5624
becoming	-5625
coherent	-5626
creating	-5627
declared	-5628
deprived	-5629
deserves	-5630
explains	-5631
objected	-5632
pressure	-5633
retained	-5634
thinkers	-5635
transmit	-5636
unworthy	-5637
Objection	-5638
analogous	-5639
continuum	-5640
deceptive	-5641
doubtless	-5642
enjoyment	-5643
extrinsic	-5644
hereafter	-5645
insically	-5646
intensive	-5647
intricate	-5648
introduce	-5649
judicious	-5650
plurality	-5651
privilege	-5652
rejecting	-5653
slightest	-5654
surpasses	-5655
apparently	-5656
coexisting	-5657
completion	-5658
confounded	-5659
conversely	-5660
diminution	-5661
discerning	-5662
discursive	-5663
legitimate	-5664
mysterious	-5665
omnipotent	-5666
relatively	-5667
revolution	-5668
translated	-5669
Definitions	-5670
conjectures	-5671
enumeration	-5672
expectation	-5673
indubitable	-5674
nothingness	-5675
nourishment	-5676
opportunity	-5677
undertaking	-5678
unperceived	-5679
accompanying	-5680
distinctions	-5681
establishing	-5682
relationship	-5683
specifically	-5684
inconsiderable	-5685
(§	-5686
)_	-5687
76	-5688
Cf	-5689
Co	-5690
Po	-5691
na	-5692
ri	-5693
zz	-5694
17,	-5695
2),	-5696
34.	-5697
39.	-5698
41.	-5699
Dan	-5700
Gar	-5701
Opt	-5702
Rem	-5703
Sam	-5704
asm	-5705
cel	-5706
fee	-5707
iam	-5708
oce	-5709
ony	-5710
ore	-5711
pel	-5712
pit	-5713
pou	-5714
ram	-5715
rec	-5716
rog	-5717
san	-5718
sor	-5719
Alex	-5720
Dedu	-5721
Next	-5722
Well	-5723
abor	-5724
akes	-5725
anew	-5726
asks	-5727
blam	-5728
devi	-5729
eman	-5730
eper	-5731
fare	-5732
feet	-5733
gift	-5734
gras	-5735
guil	-5736
iber	-5737
itus	-5738
legs	-5739
oyal	-5740
rain	-5741
rays	-5742
reli	-5743
resi	-5744
shoc	-5745
stay	-5746
vals	-5747
zeal	-5748
.....	-5749
Concl	-5750
Geome	-5751
Moses	-5752
Power	-5753
Roman	-5754
Sixth	-5755
Still	-5756
bling	-5757
cadem	-5758
comit	-5759
congr	-5760
dread	-5761
emper	-5762
eties	-5763
fails	-5764
fifth	-5765
flour	-5766
folly	-5767
grand	-5768
icing	-5769
icked	-5770
imput	-5771
ively	-5772
lived	-5773
lower	-5774
magne	-5775
maker	-5776
ocean	-5777
orium	-5778
ouses	-5779
rigor	-5780
spoke	-5781
sugar	-5782
toler	-5783
tract	-5784
vivid	-5785
yours	-5786
Church	-5787
Euclid	-5788
Europe	-5789
Samuel	-5790
Schrif	-5791
aneous	-5792
behalf	-5793
brutes	-5794
comets	-5795
deceit	-5796
denial	-5797
encies	-5798
essays	-5799
globes	-5800
hatred	-5801
honest	-5802
infirm	-5803
lastly	-5804
mother	-5805
owness	-5806
pieces	-5807
predom	-5808
seless	-5809
severe	-5810
spoken	-5811
submit	-5812
tongue	-5813
unites	-5814
unlike	-5815
wheels	-5816
wishes	-5817
Creator	-5818
England	-5819
Physics	-5820
acquies	-5821
adapted	-5822
adology	-5823
approve	-5824
arguing	-5825
atheism	-5826
circles	-5827
constru	-5828
current	-5829
dentity	-5830
develop	-5831
feature	-5832
grasped	-5833
healthy	-5834
hinders	-5835
inction	-5836
insepar	-5837
nations	-5838
noumena	-5839
permits	-5840
promise	-5841
quarrel	-5842
raising	-5843
realize	-5844
touches	-5845
triumph	-5846
unaware	-5847
violent	-5848
visions	-5849
writers	-5850
Demonstr	-5851
adjusted	-5852
assented	-5853
attested	-5854
attitude	-5855
concomit	-5856
concrete	-5857
cription	-5858
defining	-5859
excludes	-5860
feelings	-5861
insisted	-5862
kindness	-5863
needless	-5864
ordained	-5865
particip	-5866
patterns	-5867
politics	-5868
presumpt	-5869
republic	-5870
schemata	-5871
sickness	-5872
striking	-5873
stripped	-5874
Deduction	-5875
Intellect	-5876
Schriften	-5877
Synthetic	-5878
affirming	-5879
appearing	-5880
ascribing	-5881
clearness	-5882
committed	-5883
corrupted	-5884
criterion	-5885
erroneous	-5886
foresight	-5887
fruitless	-5888
incontest	-5889
inquiring	-5890
justified	-5891
obstacles	-5892
operating	-5893
recommend	-5894
requiring	-5895
resolving	-5896
retaining	-5897
seemingly	-5898
senseless	-5899
seriously	-5900
terminate	-5901
answerable	-5902
anticipate	-5903
capacities	-5904
components	-5905
conversant	-5906
corruption	-5907
empiricist	-5908
endeavored	-5909
expressing	-5910
fictitious	-5911
inevitably	-5912
obligation	-5913
occasioned	-5914
quantities	-5915
refutation	-5916
regardless	-5917
regularity	-5918
separating	-5919
surrounded	-5920
theologian	-5921
unquestion	-5922
vegetables	-5923
approbation	-5924
attentively	-5925
blessedness	-5926
concessions	-5927
contemplate	-5928
contentment	-5929
contradicts	-5930
correctness	-5931
essentially	-5932
incessantly	-5933
interesting	-5934
investigate	-5935
proportions	-5936
sufficiency	-5937
unification	-5938
Cosmological	-5939
Philosophers	-5940
commonwealth	-5941
compositions	-5942
confirmation	-5943
communicating	-5944
controversies	-5945
inconvenience	-5946
indeterminate	-5947
anthropomorphism	-5948
2–	-5949
6)	-5950
>_	-5951
AN	-5952
Gu	-5953
TE	-5954
XI	-5955
12,	-5956
15,	-5957
21,	-5958
38.	-5959
Apo	-5960
Cav	-5961
Châ	-5962
Ear	-5963
Gre	-5964
Hen	-5965
Min	-5966
Spe	-5967
[27	-5968
eds	-5969
ern	-5970
ico	-5971
lix	-5972
mur	-5973
pia	-5974
rin	-5975
sav	-5976
seq	-5977
usi	-5978
{12	-5979
{13	-5980
{17	-5981
{18	-5982
{19	-5983
Hist	-5984
Lord	-5985
Post	-5986
Soul	-5987
Take	-5988
ames	-5989
anat	-5990
atus	-5991
aven	-5992
base	-5993
beat	-5994
bind	-5995
burg	-5996
busy	-5997
choo	-5998
colo	-5999
corn	-6000
enab	-6001
fell	-6002
iety	-6003
igor	-6004
illi	-6005
ippo	-6006
libr	-6007
loqu	-6008
mend	-6009
mous	-6010
ogue	-6011
oney	-6012
ourn	-6013
pern	-6014
pull	-6015
puzz	-6016
race	-6017
rele	-6018
root	-6019
rose	-6020
shif	-6021
shut	-6022
thin	-6023
type	-6024
ucid	-6025
valu	-6026
wild	-6027
wont	-6028
worm	-6029
Châte	-6030
Doctr	-6031
Simon	-6032
World	-6033
ament	-6034
assed	-6035
bases	-6036
brute	-6037
canon	-6038
cence	-6039
cible	-6040
conve	-6041
crook	-6042
draws	-6043
eager	-6044
elect	-6045
epist	-6046
focus	-6047
forts	-6048
ghost	-6049
harsh	-6050
imman	-6051
incur	-6052
ische	-6053
itors	-6054
iture	-6055
joint	-6056
moist	-6057
mouth	-6058
odors	-6059
omnis	-6060
pathy	-6061
pious	-6062
reads	-6063
schol	-6064
sheep	-6065
stret	-6066
tells	-6067
trees	-6068
urged	-6069
Analog	-6070
Cavend	-6071
Garber	-6072
Powers	-6073
Robert	-6074
aments	-6075
breath	-6076
calcul	-6077
cavils	-6078
critus	-6079
debate	-6080
deeper	-6081
feeble	-6082
formul	-6083
graphy	-6084
growth	-6085
guilty	-6086
impart	-6087
ingred	-6088
inquis	-6089
itates	-6090
ranked	-6091
recede	-6092
reform	-6093
reside	-6094
scenes	-6095
settle	-6096
singly	-6097
spatio	-6098
steady	-6099
stupid	-6100
theirs	-6101
varies	-6102
winter	-6103
Enquiry	-6104
abstain	-6105
article	-6106
asserts	-6107
chances	-6108
chimera	-6109
colored	-6110
crooked	-6111
defects	-6112
devoted	-6113
disquis	-6114
enabled	-6115
enemies	-6116
enthusi	-6117
falsely	-6118
finitum	-6119
flowing	-6120
harmful	-6121
helpful	-6122
herself	-6123
imposed	-6124
monarch	-6125
placing	-6126
publish	-6127
pursued	-6128
radical	-6129
ressing	-6130
silence	-6131
tracing	-6132
uteness	-6133
working	-6134
Châtelet	-6135
Critical	-6136
Doctrine	-6137
External	-6138
Identity	-6139
Relation	-6140
acquires	-6141
apodeict	-6142
choosing	-6143
excluded	-6144
features	-6145
foreseen	-6146
geometer	-6147
granting	-6148
humanity	-6149
immanent	-6150
impelled	-6151
improved	-6152
inhering	-6153
irresist	-6154
location	-6155
magnific	-6156
moderate	-6157
pictures	-6158
restrain	-6159
scruples	-6160
surmount	-6161
tangible	-6162
treating	-6163
troubled	-6164
violence	-6165
Alexander	-6166
Cavendish	-6167
Extension	-6168
constancy	-6169
deceiving	-6170
desirable	-6171
disturbed	-6172
enumerate	-6173
exercises	-6174
geometric	-6175
intervals	-6176
political	-6177
primarily	-6178
purposive	-6179
reception	-6180
sensorium	-6181
strongest	-6182
undertake	-6183
Democritus	-6184
Monadology	-6185
admiration	-6186
benevolent	-6187
celebrated	-6188
coexistent	-6189
conclusive	-6190
contiguous	-6191
convenient	-6192
descending	-6193
discipline	-6194
equivalent	-6195
inevitable	-6196
invariable	-6197
multiplied	-6198
pernicious	-6199
perplexity	-6200
postulates	-6201
propagated	-6202
psychology	-6203
restricted	-6204
signifying	-6205
successful	-6206
supporting	-6207
accommodate	-6208
collections	-6209
denominated	-6210
illustrious	-6211
indefinitum	-6212
inhabitants	-6213
necessities	-6214
perpetually	-6215
revolutions	-6216
superiority	-6217
unavoidably	-6218
undoubtedly	-6219
Intellectual	-6220
affirmations	-6221
analytically	-6222
commensurate	-6223
constitutive	-6224
construction	-6225
experiential	-6226
impenetrable	-6227
independence	-6228
proportioned	-6229
resemblances	-6230
comprehending	-6231
contemplating	-6232
immateriality	-6233
indifferently	-6234
indispensable	-6235
Philosophische	-6236
aforementioned	-6237
apodeictically	-6238
corpuscularian	-6239
'_	-6240
):	-6241
21	-6242
8/	-6243
9/	-6244
La	-6245
RE	-6246
TS	-6247
];	-6248
_<	-6249
je	-6250
ug	-6251
{9	-6252
–6	-6253
18,	-6254
27,	-6255
29,	-6256
32,	-6257
40,	-6258
42.	-6259
Cat	-6260
Cic	-6261
Fre	-6262
Gas	-6263
Hap	-6264
Jes	-6265
Jup	-6266
Mer	-6267
Mol	-6268
Pos	-6269
Reg	-6270
Rog	-6271
[26	-6272
[29	-6273
[35	-6274
aby	-6275
bed	-6276
don	-6277
gon	-6278
ica	-6279
iel	-6280
iss	-6281
lic	-6282
pag	-6283
pul	-6284
rar	-6285
tum	-6286
{10	-6287
{15	-6288
{16	-6289
{20	-6290
{22	-6291
{23	-6292
{24	-6293
{25	-6294
{26	-6295
{27	-6296
{29	-6297
{30	-6298
{33	-6299
{35	-6300
{36	-6301
{37	-6302
{38	-6303
{39	-6304
{40	-6305
{43	-6306
{44	-6307
{47	-6308
{48	-6309
{49	-6310
{50	-6311
{52	-6312
{53	-6313
{55	-6314
{57	-6315
{58	-6316
{59	-6317
{60	-6318
{62	-6319
{63	-6320
{64	-6321
{65	-6322
{66	-6323
{67	-6324
{68	-6325
{69	-6326
{70	-6327
{72	-6328
{73	-6329
{74	-6330
{75	-6331
{76	-6332
{77	-6333
{79	-6334
{80	-6335
{82	-6336
{83	-6337
{84	-6338
{85	-6339
{86	-6340
{87	-6341
{88	-6342
–17	-6343
Anti	-6344
Dist	-6345
Good	-6346
Last	-6347
Opin	-6348
Theo	-6349
Thes	-6350
addu	-6351
alge	-6352
ards	-6353
army	-6354
calm	-6355
caut	-6356
deem	-6357
ensu	-6358
fath	-6359
fond	-6360
friv	-6361
hint	-6362
home	-6363
hurt	-6364
idle	-6365
lets	-6366
obed	-6367
optr	-6368
otes	-6369
salt	-6370
scal	-6371
sper	-6372
thal	-6373
tiny	-6374
vibr	-6375
vict	-6376
vort	-6377
womb	-6378
Hippo	-6379
Olden	-6380
Roger	-6381
Skept	-6382
areas	-6383
arius	-6384
arrog	-6385
begun	-6386
cally	-6387
centr	-6388
condu	-6389
diame	-6390
entia	-6391
fears	-6392
grain	-6393
icity	-6394
junct	-6395
lands	-6396
legal	-6397
meets	-6398
mercy	-6399
party	-6400
paths	-6401
pense	-6402
physi	-6403
pores	-6404
renow	-6405
rigid	-6406
senne	-6407
ulity	-6408
urely	-6409
uries	-6410
vapor	-6411
vices	-6412
wings	-6413
worse	-6414
Bodies	-6415
Cicero	-6416
Conway	-6417
Elucid	-6418
Gassen	-6419
Greeks	-6420
Having	-6421
Lastly	-6422
Modern	-6423
Remark	-6424
Thesis	-6425
access	-6426
appell	-6427
candle	-6428
deduct	-6429
depict	-6430
diseas	-6431
enance	-6432
expose	-6433
failed	-6434
fellow	-6435
frivol	-6436
infant	-6437
ingenu	-6438
masses	-6439
orders	-6440
oucher	-6441
ounded	-6442
ponder	-6443
ptions	-6444
purity	-6445
struck	-6446
thered	-6447
throat	-6448
traced	-6449
wicked	-6450
College	-6451
Hippocr	-6452
Inquiry	-6453
Instead	-6454
Jupiter	-6455
Organon	-6456
achieve	-6457
algebra	-6458
alogism	-6459
anatomy	-6460
angular	-6461
combine	-6462
comfort	-6463
compels	-6464
control	-6465
counsel	-6466
covered	-6467
derives	-6468
discuss	-6469
divines	-6470
durable	-6471
employs	-6472
enables	-6473
equivoc	-6474
escaped	-6475
feather	-6476
fingers	-6477
linking	-6478
literal	-6479
mentary	-6480
modesty	-6481
needing	-6482
planted	-6483
ratione	-6484
reduces	-6485
request	-6486
resides	-6487
restore	-6488
slumber	-6489
somehow	-6490
tempted	-6491
thalers	-6492
unities	-6493
uniting	-6494
Mersenne	-6495
achieved	-6496
agitated	-6497
agreeing	-6498
astronom	-6499
conveyed	-6500
deserved	-6501
designed	-6502
editions	-6503
enclosed	-6504
entrance	-6505
inquired	-6506
intimate	-6507
limiting	-6508
loquence	-6509
pressing	-6510
prevents	-6511
reflects	-6512
register	-6513
relevant	-6514
remedies	-6515
sagacity	-6516
sentence	-6517
suspense	-6518
teaching	-6519
theories	-6520
underlie	-6521
withdraw	-6522
Augustine	-6523
Otherwise	-6524
Principia	-6525
Similarly	-6526
Sometimes	-6527
abandoned	-6528
admitting	-6529
assenting	-6530
attending	-6531
concealed	-6532
consisted	-6533
convinces	-6534
correlate	-6535
credulity	-6536
disappear	-6537
discussed	-6538
fashioned	-6539
favorable	-6540
generated	-6541
governing	-6542
machinery	-6543
obscurely	-6544
originate	-6545
phaenomen	-6546
plication	-6547
possibles	-6548
prodigies	-6549
quickness	-6550
suspected	-6551
transport	-6552
typically	-6553
Copernican	-6554
Correspond	-6555
Pyrrhonism	-6556
Substances	-6557
additional	-6558
articulate	-6559
connecting	-6560
continuing	-6561
denominate	-6562
derivative	-6563
elementary	-6564
explicitly	-6565
infallibly	-6566
observable	-6567
persuasion	-6568
preferring	-6569
presumably	-6570
regulative	-6571
subsisting	-6572
undertaken	-6573
contrariety	-6574
inseparably	-6575
magnificent	-6576
maintaining	-6577
ontological	-6578
spontaneous	-6579
transformed	-6580
Peripatetics	-6581
communicates	-6582
distinctness	-6583
expectations	-6584
reciprocally	-6585
significance	-6586
subsequently	-6587
determinative	-6588
inconsistency	-6589
psychological	-6590
inconveniences	-6591
predisposition	-6592
................	-6593
.;	-6594
2/	-6595
3/	-6596
5)	-6597
7/	-6598
90	-6599
CI	-6600
EN	-6601
SO	-6602
Ul	-6603
]]	-6604
bi	-6605
ny	-6606
rs	-6607
{1	-6608
14}	-6609
165	-6610
174	-6611
20,	-6612
52.	-6613
ION	-6614
Lev	-6615
Ren	-6616
Wol	-6617
[28	-6618
[30	-6619
[34	-6620
[36	-6621
anc	-6622
anx	-6623
eat	-6624
ina	-6625
mig	-6626
oke	-6627
oud	-6628
qua	-6629
rap	-6630
ste	-6631
tie	-6632
tit	-6633
tut	-6634
ung	-6635
{28	-6636
{32	-6637
{45	-6638
{46	-6639
{54	-6640
{56	-6641
{78	-6642
ées	-6643
Chap	-6644
Chic	-6645
Geor	-6646
Intu	-6647
Marg	-6648
Pens	-6649
Prim	-6650
René	-6651
Soci	-6652
_...	-6653
ades	-6654
ails	-6655
angu	-6656
aret	-6657
asha	-6658
axis	-6659
bene	-6660
berg	-6661
cost	-6662
demo	-6663
detr	-6664
diam	-6665
dile	-6666
dust	-6667
emph	-6668
esse	-6669
etch	-6670
exag	-6671
init	-6672
isol	-6673
isos	-6674
lame	-6675
melt	-6676
nell	-6677
odor	-6678
onal	-6679
oras	-6680
oted	-6681
pear	-6682
pert	-6683
prot	-6684
rati	-6685
rely	-6686
runs	-6687
seal	-6688
seat	-6689
slip	-6690
stre	-6691
tied	-6692
wine	-6693
Athen	-6694
Categ	-6695
Earth	-6696
Levia	-6697
Moral	-6698
Royal	-6699
Words	-6700
anion	-6701
billi	-6702
bones	-6703
brack	-6704
celes	-6705
court	-6706
cried	-6707
cular	-6708
dealt	-6709
disgu	-6710
faint	-6711
goods	-6712
hasty	-6713
hoped	-6714
icule	-6715
igned	-6716
items	-6717
laugh	-6718
legis	-6719
lling	-6720
model	-6721
monst	-6722
named	-6723
neigh	-6724
nostr	-6725
oppon	-6726
pally	-6727
plane	-6728
renew	-6729
sanct	-6730
shade	-6731
sober	-6732
token	-6733
tomor	-6734
tower	-6735
vigor	-6736
wager	-6737
Baruch	-6738
Daniel	-6739
France	-6740
George	-6741
Matter	-6742
Natura	-6743
Optics	-6744
Others	-6745
Sebond	-6746
Surely	-6747
advent	-6748
antiqu	-6749
ascent	-6750
astray	-6751
blamed	-6752
branch	-6753
bright	-6754
combat	-6755
config	-6756
corpor	-6757
crafts	-6758
denote	-6759
depths	-6760
detain	-6761
disper	-6762
divers	-6763
driven	-6764
elabor	-6765
elimin	-6766
embarr	-6767
esseng	-6768
exerts	-6769
houses	-6770
humors	-6771
impose	-6772
induce	-6773
inking	-6774
itatis	-6775
lately	-6776
liquid	-6777
manage	-6778
obscur	-6779
obstin	-6780
orbits	-6781
poison	-6782
poured	-6783
pretty	-6784
profit	-6785
prosec	-6786
relish	-6787
repose	-6788
resent	-6789
scheme	-6790
shaped	-6791
solved	-6792
starts	-6793
thrown	-6794
weaker	-6795
winged	-6796
Against	-6797
Apology	-6798
Chicago	-6799
Concept	-6800
Dialect	-6801
Foucher	-6802
January	-6803
Pensées	-6804
Society	-6805
ashamed	-6806
assumes	-6807
atheist	-6808
breadth	-6809
centric	-6810
claimed	-6811
concede	-6812
defense	-6813
deprive	-6814
despair	-6815
diamond	-6816
disease	-6817
dismiss	-6818
dryness	-6819
eminent	-6820
evening	-6821
exagger	-6822
figured	-6823
foolish	-6824
fulness	-6825
incline	-6826
induced	-6827
indulge	-6828
informs	-6829
initial	-6830
letting	-6831
notable	-6832
opening	-6833
parents	-6834
parties	-6835
persist	-6836
pretext	-6837
printed	-6838
replies	-6839
resting	-6840
sophist	-6841
started	-6842
tedious	-6843
therein	-6844
thology	-6845
trusted	-6846
unalter	-6847
unhappy	-6848
utility	-6849
winning	-6850
Margaret	-6851
ambition	-6852
artifice	-6853
billiard	-6854
brackets	-6855
breaking	-6856
cautious	-6857
conforms	-6858
delicate	-6859
designat	-6860
despised	-6861
diseases	-6862
disputed	-6863
dividing	-6864
educated	-6865
elephant	-6866
embraced	-6867
exciting	-6868
gathered	-6869
ideality	-6870
incompar	-6871
memories	-6872
monsters	-6873
mutually	-6874
overcome	-6875
parallel	-6876
patience	-6877
pretends	-6878
pretense	-6879
reaching	-6880
realized	-6881
remarked	-6882
removing	-6883
ridicule	-6884
shocking	-6885
situated	-6886
skillful	-6887
stopping	-6888
students	-6889
suddenly	-6890
tomorrow	-6891
touching	-6892
valuable	-6893
vanishes	-6894
virtuous	-6895
Companion	-6896
Leviathan	-6897
Oldenburg	-6898
Something	-6899
advancing	-6900
attitudes	-6901
barbarous	-6902
collected	-6903
condemned	-6904
congruent	-6905
converted	-6906
deceitful	-6907
defective	-6908
destitute	-6909
earnestly	-6910
eloquence	-6911
employing	-6912
entangled	-6913
exactness	-6914
exhibited	-6915
forgotten	-6916
furniture	-6917
gentlemen	-6918
interrupt	-6919
isosceles	-6920
maintains	-6921
miserable	-6922
rendering	-6923
swiftness	-6924
variously	-6925
violation	-6926
Platonists	-6927
accounting	-6928
beginnings	-6929
complaints	-6930
confession	-6931
deficiency	-6932
destroying	-6933
diffidence	-6934
influenced	-6935
intentions	-6936
interested	-6937
occurrence	-6938
pertaining	-6939
possessing	-6940
preserving	-6941
pretending	-6942
prodigious	-6943
profitable	-6944
structured	-6945
thereafter	-6946
Peripatetic	-6947
Probability	-6948
Pyrrhonists	-6949
accountable	-6950
apparitions	-6951
approaching	-6952
ascertained	-6953
assumptions	-6954
inquisitive	-6955
interaction	-6956
penetration	-6957
phaenomenon	-6958
potentially	-6959
principally	-6960
recognizing	-6961
remembering	-6962
straightway	-6963
subdivision	-6964
superficial	-6965
contemporary	-6966
deliberation	-6967
determinable	-6968
reconcilable	-6969
constitutions	-6970
disquisitions	-6971
imperceptible	-6972
intrinsically	-6973
superstitious	-6974
Correspondence	-6975
.'	-6976
4/	-6977
6/	-6978
AB	-6979
Du	-6980
ED	-6981
IT	-6982
az	-6983
hu	-6984
tw	-6985
ux	-6986
(1)	-6987
(2)	-6988
0).	-6989
12}	-6990
13}	-6991
15}	-6992
168	-6993
16}	-6994
17}	-6995
19,	-6996
30]	-6997
40.	-6998
43.	-6999
45.	-7000
46.	-7001
6),	-7002
6).	-7003
Did	-7004
Ele	-7005
Gen	-7006
Has	-7007
Ror	-7008
Sci	-7009
Str	-7010
Wil	-7011
XII	-7012
[33	-7013
bly	-7014
cit	-7015
cry	-7016
cum	-7017
jar	-7018
mil	-7019
mma	-7020
oak	-7021
opt	-7022
rub	-7023
tra	-7024
yer	-7025
{34	-7026
{42	-7027
1704	-7028
ASSO	-7029
CIAT	-7030
Cath	-7031
Defs	-7032
Heat	-7033
June	-7034
Mosa	-7035
Once	-7036
Tell	-7037
asis	-7038
auto	-7039
awak	-7040
batt	-7041
burn	-7042
chas	-7043
cher	-7044
deaf	-7045
ders	-7046
elic	-7047
enge	-7048
enor	-7049
fits	-7050
game	-7051
gest	-7052
host	-7053
ican	-7054
idol	-7055
irty	-7056
joys	-7057
kill	-7058
laby	-7059
marg	-7060
mond	-7061
olas	-7062
omit	-7063
peas	-7064
ruin	-7065
sacr	-7066
serv	-7067
sine	-7068
symp	-7069
tile	-7070
ught	-7071
vehe	-7072
verb	-7073
wave	-7074
Etern	-7075
Fifth	-7076
Franc	-7077
Great	-7078
Judas	-7079
Mater	-7080
Right	-7081
Sever	-7082
Ultim	-7083
acies	-7084
aging	-7085
alive	-7086
boast	-7087
crime	-7088
enemy	-7089
enius	-7090
ensed	-7091
erect	-7092
erity	-7093
ested	-7094
estru	-7095
feign	-7096
flies	-7097
frank	-7098
freed	-7099
gence	-7100
grave	-7101
green	-7102
grown	-7103
helps	-7104
hyper	-7105
icacy	-7106
ients	-7107
iests	-7108
imped	-7109
intel	-7110
itory	-7111
liest	-7112
loved	-7113
pause	-7114
plead	-7115
rever	-7116
servi	-7117
shine	-7118
stage	-7119
thank	-7120
treas	-7121
tribe	-7122
unden	-7123
vague	-7124
Academ	-7125
Appear	-7126
Father	-7127
Mosaic	-7128
Necess	-7129
Nether	-7130
acquis	-7131
agoras	-7132
alters	-7133
artist	-7134
behind	-7135
brance	-7136
commer	-7137
commit	-7138
discer	-7139
ending	-7140
episte	-7141
estone	-7142
fluous	-7143
ghosts	-7144
glance	-7145
icable	-7146
impact	-7147
jargon	-7148
labors	-7149
lodged	-7150
mature	-7151
oblige	-7152
ournal	-7153
parcel	-7154
perfor	-7155
phrase	-7156
planet	-7157
prolix	-7158
ratioc	-7159
resign	-7160
riches	-7161
silver	-7162
strugg	-7163
uneasy	-7164
valley	-7165
wisely	-7166
worked	-7167
Comment	-7168
Edition	-7169
Francis	-7170
Freedom	-7171
Logical	-7172
Primary	-7173
Science	-7174
Several	-7175
adopted	-7176
arrived	-7177
attends	-7178
chooses	-7179
clothes	-7180
compens	-7181
condemn	-7182
conveys	-7183
creates	-7184
dilemma	-7185
easiest	-7186
efforts	-7187
elastic	-7188
enterpr	-7189
entitle	-7190
entreat	-7191
estruct	-7192
filling	-7193
fitness	-7194
forbear	-7195
gradual	-7196
grosser	-7197
ilitate	-7198
imitate	-7199
impiety	-7200
imputed	-7201
infused	-7202
labyrin	-7203
lengths	-7204
license	-7205
masters	-7206
mislead	-7207
mystery	-7208
optrics	-7209
origins	-7210
periods	-7211
phrases	-7212
preface	-7213
profane	-7214
prosper	-7215
removes	-7216
revolve	-7217
solving	-7218
sophism	-7219
stature	-7220
studies	-7221
torment	-7222
undergo	-7223
ASSOCIAT	-7224
Absolute	-7225
Chapters	-7226
Division	-7227
Eternity	-7228
Gassendi	-7229
Geometry	-7230
Idealism	-7231
Judgment	-7232
Material	-7233
Princess	-7234
Rorarius	-7235
Sciences	-7236
Sensible	-7237
affirmed	-7238
analyzed	-7239
avoiding	-7240
carrying	-7241
chemists	-7242
credible	-7243
describe	-7244
develops	-7245
devotion	-7246
dictates	-7247
dominion	-7248
earliest	-7249
entirety	-7250
executed	-7251
extremes	-7252
felicity	-7253
grossest	-7254
habitual	-7255
hesitate	-7256
impulses	-7257
innocent	-7258
instants	-7259
interven	-7260
mobility	-7261
neighbor	-7262
occupies	-7263
predomin	-7264
products	-7265
promised	-7266
prompted	-7267
recently	-7268
reckoned	-7269
relating	-7270
renowned	-7271
reserved	-7272
response	-7273
resulted	-7274
sections	-7275
speeches	-7276
steadily	-7277
studying	-7278
subtract	-7279
supplies	-7280
temerity	-7281
vocation	-7282
weakened	-7283
withhold	-7284
Dialectic	-7285
abstracts	-7286
afterward	-7287
ambiguous	-7288
assuredly	-7289
attaining	-7290
augmented	-7291
challenge	-7292
chemistry	-7293
comprises	-7294
conserves	-7295
countries	-7296
craftsman	-7297
decisions	-7298
deficient	-7299
dimension	-7300
disciples	-7301
discusses	-7302
dispersed	-7303
doctrinal	-7304
eternally	-7305
excessive	-7306
execution	-7307
expressly	-7308
frivolous	-7309
historian	-7310
instincts	-7311
intersect	-7312
involving	-7313
mediation	-7314
nonentity	-7315
obedience	-7316
obstinacy	-7317
originals	-7318
outwardly	-7319
perplexed	-7320
posterity	-7321
postulate	-7322
precedent	-7323
prescribe	-7324
realities	-7325
recollect	-7326
regularly	-7327
repeating	-7328
stupidity	-7329
suspended	-7330
withstand	-7331
Categories	-7332
Conclusion	-7333
Exposition	-7334
Scriptures	-7335
adjustment	-7336
attempting	-7337
bitterness	-7338
composites	-7339
concluding	-7340
cultivated	-7341
diminished	-7342
disappoint	-7343
eventually	-7344
excellence	-7345
exceptions	-7346
increasing	-7347
indestruct	-7348
indulgence	-7349
influences	-7350
insensibly	-7351
instructed	-7352
introduces	-7353
occupation	-7354
pardonable	-7355
prescribes	-7356
pronounced	-7357
publishing	-7358
situations	-7359
strengthen	-7360
suggestion	-7361
underlying	-7362
unexpected	-7363
unpleasant	-7364
Netherlands	-7365
abstracting	-7366
accompanies	-7367
continuance	-7368
contributed	-7369
countenance	-7370
entelechies	-7371
exceedingly	-7372
extremities	-7373
improvement	-7374
ingredients	-7375
introducing	-7376
materialism	-7377
paradoxical	-7378
philosophic	-7379
punishments	-7380
reconciling	-7381
resolutions	-7382
superfluous	-7383
unalterable	-7384
Mathematical	-7385
concomitance	-7386
consistently	-7387
deliberately	-7388
explications	-7389
incogitative	-7390
intellection	-7391
irresistible	-7392
presumptuous	-7393
translations	-7394
uncompounded	-7395
Demonstration	-7396
decomposition	-7397
disagreements	-7398
incontestable	-7399
mathematician	-7400
misunderstood	-7401
physiological	-7402
proportionate	-7403
interpretation	-7404
metaphysicians	-7405
transformation	-7406
unquestionable	-7407
";	-7408
31	-7409
5/	-7410
62	-7411
CD	-7412
Cl	-7413
Dy	-7414
ES	-7415
IN	-7416
Up	-7417
_]	-7418
mn	-7419
sn	-7420
ws	-7421
.>>	-7422
.]]	-7423
10}	-7424
11}	-7425
14,	-7426
15)	-7427
16)	-7428
167	-7429
18}	-7430
19}	-7431
200	-7432
23,	-7433
25]	-7434
3),	-7435
30,	-7436
35,	-7437
35]	-7438
44,	-7439
44.	-7440
5),	-7441
8),	-7442
8).	-7443
AND	-7444
Abo	-7445
Han	-7446
Ill	-7447
Jul	-7448
Law	-7449
Liv	-7450
Pre	-7451
Ray	-7452
Sac	-7453
TEX	-7454
Tor	-7455
Yor	-7456
ana	-7457
asi	-7458
aur	-7459
boy	-7460
car	-7461
egr	-7462
fav	-7463
hic	-7464
inu	-7465
ker	-7466
lot	-7467
lum	-7468
nis	-7469
ody	-7470
ots	-7471
poe	-7472
pup	-7473
ran	-7474
rep	-7475
rud	-7476
rul	-7477
siv	-7478
tre	-7479
tus	-7480
ula	-7481
{14	-7482
..._	-7483
Acts	-7484
Anto	-7485
Cast	-7486
Char	-7487
Cons	-7488
Diff	-7489
Edin	-7490
Gocl	-7491
Jews	-7492
Mary	-7493
Nest	-7494
Orig	-7495
Pers	-7496
Rome	-7497
Sect	-7498
Spec	-7499
York	-7500
acce	-7501
amid	-7502
anus	-7503
appl	-7504
apse	-7505
atum	-7506
avow	-7507
ayed	-7508
bell	-7509
bese	-7510
betr	-7511
bler	-7512
blow	-7513
cade	-7514
capt	-7515
card	-7516
cave	-7517
clue	-7518
data	-7519
dies	-7520
emer	-7521
flux	-7522
goal	-7523
hair	-7524
icks	-7525
imen	-7526
ires	-7527
itly	-7528
null	-7529
obvi	-7530
okes	-7531
orst	-7532
pest	-7533
pium	-7534
pond	-7535
quit	-7536
scop	-7537
send	-7538
sert	-7539
shot	-7540
shun	-7541
star	-7542
stir	-7543
sunk	-7544
supr	-7545
town	-7546
triv	-7547
trou	-7548
ully	-7549
wand	-7550
whel	-7551
Above	-7552
Abrid	-7553
Axiom	-7554
Dynam	-7555
Found	-7556
Given	-7557
Henry	-7558
Inter	-7559
Light	-7560
Snell	-7561
TEXTS	-7562
Would	-7563
abyss	-7564
agram	-7565
aimed	-7566
amiss	-7567
apost	-7568
apple	-7569
badly	-7570
balls	-7571
binds	-7572
birds	-7573
burgh	-7574
chaos	-7575
choir	-7576
cloth	-7577
cords	-7578
craft	-7579
crude	-7580
dared	-7581
daugh	-7582
demoy	-7583
dense	-7584
derog	-7585
eenth	-7586
eight	-7587
ement	-7588
encom	-7589
ering	-7590
excus	-7591
exile	-7592
exped	-7593
figur	-7594
forma	-7595
frail	-7596
goals	-7597
grate	-7598
inent	-7599
leted	-7600
lusts	-7601
mance	-7602
manus	-7603
minis	-7604
newly	-7605
orily	-7606
pride	-7607
sayer	-7608
scent	-7609
scrup	-7610
sends	-7611
shame	-7612
sixth	-7613
spher	-7614
spite	-7615
stray	-7616
talks	-7617
tenet	-7618
terfu	-7619
upper	-7620
vener	-7621
vouch	-7622
winds	-7623
......	-7624
1989).	-7625
Axioms	-7626
Before	-7627
Castor	-7628
Corpus	-7629
Either	-7630
Innate	-7631
Julius	-7632
Latins	-7633
Nestor	-7634
Pyrrho	-7635
Sacred	-7636
Should	-7637
Stoics	-7638
Unless	-7639
abound	-7640
advice	-7641
argued	-7642
arians	-7643
atives	-7644
battle	-7645
behold	-7646
breaks	-7647
chains	-7648
cities	-7649
compet	-7650
declam	-7651
encing	-7652
ensure	-7653
ethics	-7654
fathom	-7655
feared	-7656
flying	-7657
fright	-7658
fuller	-7659
futile	-7660
handle	-7661
hearts	-7662
heated	-7663
horror	-7664
inerti	-7665
infers	-7666
inside	-7667
integr	-7668
interm	-7669
lacked	-7670
matism	-7671
metals	-7672
missed	-7673
modify	-7674
mology	-7675
overly	-7676
persec	-7677
poetry	-7678
porous	-7679
prerog	-7680
priest	-7681
propos	-7682
proval	-7683
proven	-7684
recent	-7685
regres	-7686
remind	-7687
season	-7688
shaken	-7689
silent	-7690
sorrow	-7691
subtly	-7692
thread	-7693
ulated	-7694
unfail	-7695
unfold	-7696
urable	-7697
verify	-7698
wisest	-7699
Ancient	-7700
Antoine	-7701
Charles	-7702
Complex	-7703
Molanus	-7704
Raymond	-7705
Subject	-7706
Trinity	-7707
Whereas	-7708
Whoever	-7709
assents	-7710
attract	-7711
automat	-7712
beneath	-7713
beseech	-7714
descent	-7715
diction	-7716
dispose	-7717
elevate	-7718
execute	-7719
exerted	-7720
expects	-7721
extingu	-7722
failure	-7723
fallacy	-7724
fearing	-7725
ference	-7726
fertile	-7727
fitting	-7728
foresee	-7729
governs	-7730
growing	-7731
ication	-7732
illiter	-7733
illness	-7734
inverse	-7735
largest	-7736
lengthy	-7737
madness	-7738
maximum	-7739
missing	-7740
morally	-7741
novelty	-7742
ography	-7743
orstell	-7744
patient	-7745
posture	-7746
priests	-7747
procure	-7748
recover	-7749
removal	-7750
retract	-7751
reveals	-7752
secrets	-7753
seventh	-7754
squares	-7755
stomach	-7756
studied	-7757
trivial	-7758
victory	-7759
visibly	-7760
vitally	-7761
weights	-7762
welfare	-7763
Cordemoy	-7764
Infinite	-7765
Solidity	-7766
Solution	-7767
Universe	-7768
actuated	-7769
alogisms	-7770
appetite	-7771
attaches	-7772
backward	-7773
careless	-7774
counters	-7775
declares	-7776
delights	-7777
depicted	-7778
diamonds	-7779
diffused	-7780
effected	-7781
estimate	-7782
expanded	-7783
facility	-7784
firmness	-7785
foretell	-7786
fruitful	-7787
grateful	-7788
incorpor	-7789
invented	-7790
kingdoms	-7791
moderniz	-7792
moisture	-7793
obstacle	-7794
ordering	-7795
overwhel	-7796
performs	-7797
positing	-7798
presumed	-7799
reducing	-7800
returned	-7801
selected	-7802
siveness	-7803
smelling	-7804
softness	-7805
specious	-7806
subservi	-7807
subterfu	-7808
supplied	-7809
surprise	-7810
teachers	-7811
vivacity	-7812
vulgarly	-7813
Edinburgh	-7814
Epicurean	-7815
Goclenius	-7816
Intuition	-7817
Necessity	-7818
additions	-7819
aforesaid	-7820
anthology	-7821
antiquity	-7822
appetites	-7823
archetype	-7824
attaching	-7825
blindness	-7826
boundless	-7827
centuries	-7828
ciousness	-7829
condensed	-7830
confusing	-7831
conserved	-7832
cultivate	-7833
differing	-7834
discerned	-7835
disorders	-7836
diversely	-7837
downwards	-7838
encourage	-7839
exhausted	-7840
expedient	-7841
extricate	-7842
gratitude	-7843
honorable	-7844
implanted	-7845
increases	-7846
infirmity	-7847
instantly	-7848
lodestone	-7849
microscop	-7850
movements	-7851
mysteries	-7852
neglected	-7853
numbering	-7854
practiced	-7855
professor	-7856
providing	-7857
reasoners	-7858
religions	-7859
selection	-7860
spherical	-7861
therefrom	-7862
thickness	-7863
vibration	-7864
wandering	-7865
ASSOCIATED	-7866
Antithesis	-7867
Copernicus	-7868
▁	-7869
e	-7870
t	-7871
i	-7872
o	-7873
n	-7874
a	-7875
s	-7876
r	-7877
h	-7878
l	-7879
d	-7880
c	-7881
u	-7882
f	-7883
m	-7884
p	-7885
y	-7886
w	-7887
g	-7888
,	-7889
b	-7890
v	-7891
.	-7892
_	-7893
k	-7894
I	-7895
x	-7896
T	-7897
j	-7898
q	-7899
A	-7900
;	-7901
B	-7902
(	-7903
)	-7904
1	-7905
P	-7906
G	-7907
F	-7908
H	-7909
S	-7910
2	-7911
3	-7912
—	-7913
'	-7914
C	-7915
"	-7916
6	-7917
?	-7918
4	-7919
[	-7920
]	-7921
W	-7922
5	-7923
7	-7924
:	-7925
N	-7926
8	-7927
D	-7928
M	-7929
z	-7930
#	-7931
O	-7932
9	-7933
0	-7934
L	-7935
{	-7936
}	-7937
E	-7938
-	-7939
R	-7940
Y	-7941
V	-7942
U	-7943
*	-7944
/	-7945
J	-7946
§	-7947
–	-7948
K	-7949
!	-7950
X	-7951
>	-7952
<	-7953
é	-7954
Q	-7955
=	-7956
â	-7957
Z	-7958
è	-7959
&	-7960
+	-7961
ç	-7962
α	-7963
τ	-7964
ε	-7965
ι	-7966
ν	-7967
ö	-7968
ί	-7969
ρ	-7970
ê	-7971
ü	-7972
ο	-7973
É	-7974
ä	-7975
λ	-7976
χ	-7977
©	-7978
à	-7979
ë	-7980
ï	-7981
ά	-7982
ή	-7983
η	-7984
κ	-7985
ξ	-7986
π	-7987
υ	-7988
ψ	-7989
ἀ	-7990
ἦ	-7991
ἱ	-7992
ἴ	-7993
ἵ	-7994
ὀ	-7995
ὴ	-7996
